{
  "version": "1.0",
  "truncation": null,
  "padding": null,
  "added_tokens": [],
  "normalizer": null,
  "pre_tokenizer": null,
  "post_processor": null,
  "decoder": null,
  "model": {
    "type": "BPE",
    "dropout": null,
    "unk_token": "[UNK]",
    "continuing_subword_prefix": null,
    "end_of_word_suffix": null,
    "fuse_unk": false,
    "byte_fallback": false,
    "vocab": {
      " ": 0,
      ".": 1,
      "0": 2,
      "1": 3,
      "2": 4,
      "3": 5,
      "4": 6,
      "5": 7,
      "6": 8,
      "7": 9,
      "8": 10,
      "9": 11,
      "A": 12,
      "C": 13,
      "D": 14,
      "E": 15,
      "F": 16,
      "K": 17,
      "L": 18,
      "M": 19,
      "N": 20,
      "P": 21,
      "R": 22,
      "S": 23,
      "T": 24,
      "U": 25,
      "[": 26,
      "]": 27,
      "_": 28,
      "a": 29,
      "b": 30,
      "c": 31,
      "d": 32,
      "e": 33,
      "f": 34,
      "g": 35,
      "h": 36,
      "i": 37,
      "l": 38,
      "m": 39,
      "n": 40,
      "o": 41,
      "p": 42,
      "q": 43,
      "r": 44,
      "s": 45,
      "t": 46,
      "u": 47,
      "v": 48,
      "y": 49,
      "s1": 50,
      "s2": 51,
      "s3": 52,
      "00": 53,
      "11": 54,
      "22": 55,
      "33": 56,
      "44": 57,
      "55": 58,
      "s16": 59,
      "s17": 60,
      "s18": 61,
      "s19": 62,
      "s1a": 63,
      "s1b": 64,
      "s1c": 65,
      "s1d": 66,
      "s1e": 67,
      "s1f": 68,
      "s26": 69,
      "s27": 70,
      "s28": 71,
      "s29": 72,
      "s2a": 73,
      "s2b": 74,
      "s2c": 75,
      "s2d": 76,
      "s2e": 77,
      "s2f": 78,
      "s36": 79,
      "s37": 80,
      "s38": 81,
      "s39": 82,
      "s3a": 83,
      "s3b": 84,
      "s3c": 85,
      "s3d": 86,
      "s3e": 87,
      "s3f": 88,
      "01": 89,
      "02": 90,
      "03": 91,
      "04": 92,
      "05": 93,
      "s11": 94,
      "s12": 95,
      "s13": 96,
      "s14": 97,
      "s15": 98,
      "s21": 99,
      "s22": 100,
      "s23": 101,
      "s24": 102,
      "s25": 103,
      "s31": 104,
      "s32": 105,
      "s33": 106,
      "s34": 107,
      "s35": 108,
      "12": 109,
      "13": 110,
      "14": 111,
      "15": 112,
      "23": 113,
      "24": 114,
      "25": 115,
      "34": 116,
      "35": 117,
      "45": 118,
      "s10": 119,
      "s20": 120,
      "s30": 121,
      "10": 122,
      "32": 123,
      "54": 124,
      "20": 125,
      "21": 126,
      "30": 127,
      "31": 128,
      "40": 129,
      "41": 130,
      "42": 131,
      "43": 132,
      "50": 133,
      "51": 134,
      "52": 135,
      "53": 136,
      "06": 137,
      "07": 138,
      "08": 139,
      "09": 140,
      "0a": 141,
      "0b": 142,
      "0c": 143,
      "0d": 144,
      "0e": 145,
      "0f": 146,
      "16": 147,
      "17": 148,
      "18": 149,
      "19": 150,
      "1a": 151,
      "1b": 152,
      "1c": 153,
      "1d": 154,
      "1e": 155,
      "1f": 156,
      "26": 157,
      "27": 158,
      "28": 159,
      "29": 160,
      "2a": 161,
      "2b": 162,
      "2c": 163,
      "2d": 164,
      "2e": 165,
      "2f": 166,
      "36": 167,
      "37": 168,
      "38": 169,
      "39": 170,
      "3a": 171,
      "3b": 172,
      "3c": 173,
      "3d": 174,
      "3e": 175,
      "3f": 176,
      "46": 177,
      "47": 178,
      "48": 179,
      "49": 180,
      "4a": 181,
      "4b": 182,
      "4c": 183,
      "4d": 184,
      "4e": 185,
      "4f": 186,
      "56": 187,
      "57": 188,
      "58": 189,
      "59": 190,
      "5a": 191,
      "5b": 192,
      "5c": 193,
      "5d": 194,
      "5e": 195,
      "5f": 196,
      "s100": 197,
      "s111": 198,
      "s122": 199,
      "s133": 200,
      "s144": 201,
      "s155": 202,
      "s200": 203,
      "s211": 204,
      "s222": 205,
      "s233": 206,
      "s244": 207,
      "s255": 208,
      "s300": 209,
      "s311": 210,
      "s322": 211,
      "s333": 212,
      "s344": 213,
      "s355": 214,
      "s166": 215,
      "s167": 216,
      "s168": 217,
      "s169": 218,
      "s16a": 219,
      "s16b": 220,
      "s16c": 221,
      "s16d": 222,
      "s16e": 223,
      "s16f": 224,
      "s176": 225,
      "s177": 226,
      "s178": 227,
      "s179": 228,
      "s17a": 229,
      "s17b": 230,
      "s17c": 231,
      "s17d": 232,
      "s17e": 233,
      "s17f": 234,
      "s186": 235,
      "s187": 236,
      "s188": 237,
      "s189": 238,
      "s18a": 239,
      "s18b": 240,
      "s18c": 241,
      "s18d": 242,
      "s18e": 243,
      "s18f": 244,
      "s196": 245,
      "s197": 246,
      "s198": 247,
      "s199": 248,
      "s19a": 249,
      "s19b": 250,
      "s19c": 251,
      "s19d": 252,
      "s19e": 253,
      "s19f": 254,
      "s1a6": 255,
      "s1a7": 256,
      "s1a8": 257,
      "s1a9": 258,
      "s1aa": 259,
      "s1ab": 260,
      "s1ac": 261,
      "s1ad": 262,
      "s1ae": 263,
      "s1af": 264,
      "s1b6": 265,
      "s1b7": 266,
      "s1b8": 267,
      "s1b9": 268,
      "s1ba": 269,
      "s1bb": 270,
      "s1bc": 271,
      "s1bd": 272,
      "s1be": 273,
      "s1bf": 274,
      "s1c6": 275,
      "s1c7": 276,
      "s1c8": 277,
      "s1c9": 278,
      "s1ca": 279,
      "s1cb": 280,
      "s1cc": 281,
      "s1cd": 282,
      "s1ce": 283,
      "s1cf": 284,
      "s1d6": 285,
      "s1d7": 286,
      "s1d8": 287,
      "s1d9": 288,
      "s1da": 289,
      "s1db": 290,
      "s1dc": 291,
      "s1dd": 292,
      "s1de": 293,
      "s1df": 294,
      "s1e6": 295,
      "s1e7": 296,
      "s1e8": 297,
      "s1e9": 298,
      "s1ea": 299,
      "s1eb": 300,
      "s1ec": 301,
      "s1ed": 302,
      "s1ee": 303,
      "s1ef": 304,
      "s1f6": 305,
      "s1f7": 306,
      "s1f8": 307,
      "s1f9": 308,
      "s1fa": 309,
      "s1fb": 310,
      "s1fc": 311,
      "s1fd": 312,
      "s1fe": 313,
      "s1ff": 314,
      "s266": 315,
      "s267": 316,
      "s268": 317,
      "s269": 318,
      "s26a": 319,
      "s26b": 320,
      "s26c": 321,
      "s26d": 322,
      "s26e": 323,
      "s26f": 324,
      "s276": 325,
      "s277": 326,
      "s278": 327,
      "s279": 328,
      "s27a": 329,
      "s27b": 330,
      "s27c": 331,
      "s27d": 332,
      "s27e": 333,
      "s27f": 334,
      "s286": 335,
      "s287": 336,
      "s288": 337,
      "s289": 338,
      "s28a": 339,
      "s28b": 340,
      "s28c": 341,
      "s28d": 342,
      "s28e": 343,
      "s28f": 344,
      "s296": 345,
      "s297": 346,
      "s298": 347,
      "s299": 348,
      "s29a": 349,
      "s29b": 350,
      "s29c": 351,
      "s29d": 352,
      "s29e": 353,
      "s29f": 354,
      "s2a6": 355,
      "s2a7": 356,
      "s2a8": 357,
      "s2a9": 358,
      "s2aa": 359,
      "s2ab": 360,
      "s2ac": 361,
      "s2ad": 362,
      "s2ae": 363,
      "s2af": 364,
      "s2b6": 365,
      "s2b7": 366,
      "s2b8": 367,
      "s2b9": 368,
      "s2ba": 369,
      "s2bb": 370,
      "s2bc": 371,
      "s2bd": 372,
      "s2be": 373,
      "s2bf": 374,
      "s2c6": 375,
      "s2c7": 376,
      "s2c8": 377,
      "s2c9": 378,
      "s2ca": 379,
      "s2cb": 380,
      "s2cc": 381,
      "s2cd": 382,
      "s2ce": 383,
      "s2cf": 384,
      "s2d6": 385,
      "s2d7": 386,
      "s2d8": 387,
      "s2d9": 388,
      "s2da": 389,
      "s2db": 390,
      "s2dc": 391,
      "s2dd": 392,
      "s2de": 393,
      "s2df": 394,
      "s2e6": 395,
      "s2e7": 396,
      "s2e8": 397,
      "s2e9": 398,
      "s2ea": 399,
      "s2eb": 400,
      "s2ec": 401,
      "s2ed": 402,
      "s2ee": 403,
      "s2ef": 404,
      "s2f6": 405,
      "s2f7": 406,
      "s2f8": 407,
      "s2f9": 408,
      "s2fa": 409,
      "s2fb": 410,
      "s2fc": 411,
      "s2fd": 412,
      "s2fe": 413,
      "s2ff": 414,
      "s366": 415,
      "s367": 416,
      "s368": 417,
      "s369": 418,
      "s36a": 419,
      "s36b": 420,
      "s36c": 421,
      "s36d": 422,
      "s36e": 423,
      "s36f": 424,
      "s376": 425,
      "s377": 426,
      "s378": 427,
      "s379": 428,
      "s37a": 429,
      "s37b": 430,
      "s37c": 431,
      "s37d": 432,
      "s37e": 433,
      "s37f": 434,
      "s386": 435,
      "s387": 436,
      "s388": 437,
      "s389": 438,
      "s38a": 439,
      "s38b": 440,
      "s38c": 441,
      "s38d": 442,
      "s38e": 443,
      "s38f": 444,
      "s396": 445,
      "s397": 446,
      "s398": 447,
      "s399": 448,
      "s39a": 449,
      "s39b": 450,
      "s39c": 451,
      "s39d": 452,
      "s39e": 453,
      "s39f": 454,
      "s3a6": 455,
      "s3a7": 456,
      "s3a8": 457,
      "s3a9": 458,
      "s3aa": 459,
      "s3ab": 460,
      "s3ac": 461,
      "s3ad": 462,
      "s3ae": 463,
      "s3af": 464,
      "s3b6": 465,
      "s3b7": 466,
      "s3b8": 467,
      "s3b9": 468,
      "s3ba": 469,
      "s3bb": 470,
      "s3bc": 471,
      "s3bd": 472,
      "s3be": 473,
      "s3bf": 474,
      "s3c6": 475,
      "s3c7": 476,
      "s3c8": 477,
      "s3c9": 478,
      "s3ca": 479,
      "s3cb": 480,
      "s3cc": 481,
      "s3cd": 482,
      "s3ce": 483,
      "s3cf": 484,
      "s3d6": 485,
      "s3d7": 486,
      "s3d8": 487,
      "s3d9": 488,
      "s3da": 489,
      "s3db": 490,
      "s3dc": 491,
      "s3dd": 492,
      "s3de": 493,
      "s3df": 494,
      "s3e6": 495,
      "s3e7": 496,
      "s3e8": 497,
      "s3e9": 498,
      "s3ea": 499,
      "s3eb": 500,
      "s3ec": 501,
      "s3ed": 502,
      "s3ee": 503,
      "s3ef": 504,
      "s3f6": 505,
      "s3f7": 506,
      "s3f8": 507,
      "s3f9": 508,
      "s3fa": 509,
      "s3fb": 510,
      "s3fc": 511,
      "s3fd": 512,
      "s3fe": 513,
      "s3ff": 514,
      "s116": 515,
      "s117": 516,
      "s118": 517,
      "s119": 518,
      "s11a": 519,
      "s11b": 520,
      "s11c": 521,
      "s11d": 522,
      "s11e": 523,
      "s11f": 524,
      "s126": 525,
      "s127": 526,
      "s128": 527,
      "s129": 528,
      "s12a": 529,
      "s12b": 530,
      "s12c": 531,
      "s12d": 532,
      "s12e": 533,
      "s12f": 534,
      "s136": 535,
      "s137": 536,
      "s138": 537,
      "s139": 538,
      "s13a": 539,
      "s13b": 540,
      "s13c": 541,
      "s13d": 542,
      "s13e": 543,
      "s13f": 544,
      "s146": 545,
      "s147": 546,
      "s148": 547,
      "s149": 548,
      "s14a": 549,
      "s14b": 550,
      "s14c": 551,
      "s14d": 552,
      "s14e": 553,
      "s14f": 554,
      "s156": 555,
      "s157": 556,
      "s158": 557,
      "s159": 558,
      "s15a": 559,
      "s15b": 560,
      "s15c": 561,
      "s15d": 562,
      "s15e": 563,
      "s15f": 564,
      "s216": 565,
      "s217": 566,
      "s218": 567,
      "s219": 568,
      "s21a": 569,
      "s21b": 570,
      "s21c": 571,
      "s21d": 572,
      "s21e": 573,
      "s21f": 574,
      "s226": 575,
      "s227": 576,
      "s228": 577,
      "s229": 578,
      "s22a": 579,
      "s22b": 580,
      "s22c": 581,
      "s22d": 582,
      "s22e": 583,
      "s22f": 584,
      "s236": 585,
      "s237": 586,
      "s238": 587,
      "s239": 588,
      "s23a": 589,
      "s23b": 590,
      "s23c": 591,
      "s23d": 592,
      "s23e": 593,
      "s23f": 594,
      "s246": 595,
      "s247": 596,
      "s248": 597,
      "s249": 598,
      "s24a": 599,
      "s24b": 600,
      "s24c": 601,
      "s24d": 602,
      "s24e": 603,
      "s24f": 604,
      "s256": 605,
      "s257": 606,
      "s258": 607,
      "s259": 608,
      "s25a": 609,
      "s25b": 610,
      "s25c": 611,
      "s25d": 612,
      "s25e": 613,
      "s25f": 614,
      "s316": 615,
      "s317": 616,
      "s318": 617,
      "s319": 618,
      "s31a": 619,
      "s31b": 620,
      "s31c": 621,
      "s31d": 622,
      "s31e": 623,
      "s31f": 624,
      "s326": 625,
      "s327": 626,
      "s328": 627,
      "s329": 628,
      "s32a": 629,
      "s32b": 630,
      "s32c": 631,
      "s32d": 632,
      "s32e": 633,
      "s32f": 634,
      "s336": 635,
      "s337": 636,
      "s338": 637,
      "s339": 638,
      "s33a": 639,
      "s33b": 640,
      "s33c": 641,
      "s33d": 642,
      "s33e": 643,
      "s33f": 644,
      "s346": 645,
      "s347": 646,
      "s348": 647,
      "s349": 648,
      "s34a": 649,
      "s34b": 650,
      "s34c": 651,
      "s34d": 652,
      "s34e": 653,
      "s34f": 654,
      "s356": 655,
      "s357": 656,
      "s358": 657,
      "s359": 658,
      "s35a": 659,
      "s35b": 660,
      "s35c": 661,
      "s35d": 662,
      "s35e": 663,
      "s35f": 664,
      "s106": 665,
      "s107": 666,
      "s108": 667,
      "s109": 668,
      "s10a": 669,
      "s10b": 670,
      "s10c": 671,
      "s10d": 672,
      "s10e": 673,
      "s10f": 674,
      "s206": 675,
      "s207": 676,
      "s208": 677,
      "s209": 678,
      "s20a": 679,
      "s20b": 680,
      "s20c": 681,
      "s20d": 682,
      "s20e": 683,
      "s20f": 684,
      "s306": 685,
      "s307": 686,
      "s308": 687,
      "s309": 688,
      "s30a": 689,
      "s30b": 690,
      "s30c": 691,
      "s30d": 692,
      "s30e": 693,
      "s30f": 694,
      "s101": 695,
      "s102": 696,
      "s103": 697,
      "s104": 698,
      "s105": 699,
      "s201": 700,
      "s202": 701,
      "s203": 702,
      "s204": 703,
      "s205": 704,
      "s301": 705,
      "s302": 706,
      "s303": 707,
      "s304": 708,
      "s305": 709,
      "011": 710,
      "022": 711,
      "033": 712,
      "044": 713,
      "055": 714,
      "000": 715,
      "001": 716,
      "002": 717,
      "003": 718,
      "004": 719,
      "005": 720,
      "006": 721,
      "007": 722,
      "008": 723,
      "009": 724,
      "00a": 725,
      "00b": 726,
      "00c": 727,
      "00d": 728,
      "00e": 729,
      "00f": 730,
      "110": 731,
      "111": 732,
      "112": 733,
      "113": 734,
      "114": 735,
      "115": 736,
      "116": 737,
      "117": 738,
      "118": 739,
      "119": 740,
      "11a": 741,
      "11b": 742,
      "11c": 743,
      "11d": 744,
      "11e": 745,
      "11f": 746,
      "220": 747,
      "221": 748,
      "222": 749,
      "223": 750,
      "224": 751,
      "225": 752,
      "226": 753,
      "227": 754,
      "228": 755,
      "229": 756,
      "22a": 757,
      "22b": 758,
      "22c": 759,
      "22d": 760,
      "22e": 761,
      "22f": 762,
      "330": 763,
      "331": 764,
      "332": 765,
      "333": 766,
      "334": 767,
      "335": 768,
      "336": 769,
      "337": 770,
      "338": 771,
      "339": 772,
      "33a": 773,
      "33b": 774,
      "33c": 775,
      "33d": 776,
      "33e": 777,
      "33f": 778,
      "440": 779,
      "441": 780,
      "442": 781,
      "443": 782,
      "444": 783,
      "445": 784,
      "446": 785,
      "447": 786,
      "448": 787,
      "449": 788,
      "44a": 789,
      "44b": 790,
      "44c": 791,
      "44d": 792,
      "44e": 793,
      "44f": 794,
      "550": 795,
      "551": 796,
      "552": 797,
      "553": 798,
      "554": 799,
      "555": 800,
      "556": 801,
      "557": 802,
      "558": 803,
      "559": 804,
      "55a": 805,
      "55b": 806,
      "55c": 807,
      "55d": 808,
      "55e": 809,
      "55f": 810,
      "010": 811,
      "012": 812,
      "013": 813,
      "014": 814,
      "015": 815,
      "016": 816,
      "017": 817,
      "018": 818,
      "019": 819,
      "01a": 820,
      "01b": 821,
      "01c": 822,
      "01d": 823,
      "01e": 824,
      "01f": 825,
      "020": 826,
      "021": 827,
      "023": 828,
      "024": 829,
      "025": 830,
      "026": 831,
      "027": 832,
      "028": 833,
      "029": 834,
      "02a": 835,
      "02b": 836,
      "02c": 837,
      "02d": 838,
      "02e": 839,
      "02f": 840,
      "030": 841,
      "031": 842,
      "032": 843,
      "034": 844,
      "035": 845,
      "036": 846,
      "037": 847,
      "038": 848,
      "039": 849,
      "03a": 850,
      "03b": 851,
      "03c": 852,
      "03d": 853,
      "03e": 854,
      "03f": 855,
      "040": 856,
      "041": 857,
      "042": 858,
      "043": 859,
      "045": 860,
      "046": 861,
      "047": 862,
      "048": 863,
      "049": 864,
      "04a": 865,
      "04b": 866,
      "04c": 867,
      "04d": 868,
      "04e": 869,
      "04f": 870,
      "050": 871,
      "051": 872,
      "052": 873,
      "053": 874,
      "054": 875,
      "056": 876,
      "057": 877,
      "058": 878,
      "059": 879,
      "05a": 880,
      "05b": 881,
      "05c": 882,
      "05d": 883,
      "05e": 884,
      "05f": 885,
      "100": 886,
      "122": 887,
      "133": 888,
      "144": 889,
      "155": 890,
      "101": 891,
      "102": 892,
      "103": 893,
      "104": 894,
      "105": 895,
      "200": 896,
      "211": 897,
      "233": 898,
      "244": 899,
      "255": 900,
      "201": 901,
      "202": 902,
      "203": 903,
      "204": 904,
      "205": 905,
      "212": 906,
      "213": 907,
      "214": 908,
      "215": 909,
      "210": 910,
      "300": 911,
      "311": 912,
      "322": 913,
      "344": 914,
      "355": 915,
      "301": 916,
      "302": 917,
      "303": 918,
      "304": 919,
      "305": 920,
      "312": 921,
      "313": 922,
      "314": 923,
      "315": 924,
      "323": 925,
      "324": 926,
      "325": 927,
      "310": 928,
      "400": 929,
      "411": 930,
      "422": 931,
      "433": 932,
      "455": 933,
      "401": 934,
      "402": 935,
      "403": 936,
      "404": 937,
      "405": 938,
      "412": 939,
      "413": 940,
      "414": 941,
      "415": 942,
      "423": 943,
      "424": 944,
      "425": 945,
      "434": 946,
      "435": 947,
      "410": 948,
      "432": 949,
      "420": 950,
      "421": 951,
      "430": 952,
      "431": 953,
      "500": 954,
      "511": 955,
      "522": 956,
      "533": 957,
      "544": 958,
      "501": 959,
      "502": 960,
      "503": 961,
      "504": 962,
      "505": 963,
      "512": 964,
      "513": 965,
      "514": 966,
      "515": 967,
      "523": 968,
      "524": 969,
      "525": 970,
      "534": 971,
      "535": 972,
      "545": 973,
      "510": 974,
      "532": 975,
      "520": 976,
      "521": 977,
      "530": 978,
      "531": 979,
      "120": 980,
      "121": 981,
      "123": 982,
      "124": 983,
      "125": 984,
      "126": 985,
      "127": 986,
      "128": 987,
      "129": 988,
      "12a": 989,
      "12b": 990,
      "12c": 991,
      "12d": 992,
      "12e": 993,
      "12f": 994,
      "130": 995,
      "131": 996,
      "132": 997,
      "134": 998,
      "135": 999,
      "136": 1000,
      "137": 1001,
      "138": 1002,
      "139": 1003,
      "13a": 1004,
      "13b": 1005,
      "13c": 1006,
      "13d": 1007,
      "13e": 1008,
      "13f": 1009,
      "140": 1010,
      "141": 1011,
      "142": 1012,
      "143": 1013,
      "145": 1014,
      "146": 1015,
      "147": 1016,
      "148": 1017,
      "149": 1018,
      "14a": 1019,
      "14b": 1020,
      "14c": 1021,
      "14d": 1022,
      "14e": 1023,
      "14f": 1024,
      "150": 1025,
      "151": 1026,
      "152": 1027,
      "153": 1028,
      "154": 1029,
      "156": 1030,
      "157": 1031,
      "158": 1032,
      "159": 1033,
      "15a": 1034,
      "15b": 1035,
      "15c": 1036,
      "15d": 1037,
      "15e": 1038,
      "15f": 1039,
      "230": 1040,
      "231": 1041,
      "232": 1042,
      "234": 1043,
      "235": 1044,
      "236": 1045,
      "237": 1046,
      "238": 1047,
      "239": 1048,
      "23a": 1049,
      "23b": 1050,
      "23c": 1051,
      "23d": 1052,
      "23e": 1053,
      "23f": 1054,
      "240": 1055,
      "241": 1056,
      "242": 1057,
      "243": 1058,
      "245": 1059,
      "246": 1060,
      "247": 1061,
      "248": 1062,
      "249": 1063,
      "24a": 1064,
      "24b": 1065,
      "24c": 1066,
      "24d": 1067,
      "24e": 1068,
      "24f": 1069,
      "250": 1070,
      "251": 1071,
      "252": 1072,
      "253": 1073,
      "254": 1074,
      "256": 1075,
      "257": 1076,
      "258": 1077,
      "259": 1078,
      "25a": 1079,
      "25b": 1080,
      "25c": 1081,
      "25d": 1082,
      "25e": 1083,
      "25f": 1084,
      "340": 1085,
      "341": 1086,
      "342": 1087,
      "343": 1088,
      "345": 1089,
      "346": 1090,
      "347": 1091,
      "348": 1092,
      "349": 1093,
      "34a": 1094,
      "34b": 1095,
      "34c": 1096,
      "34d": 1097,
      "34e": 1098,
      "34f": 1099,
      "350": 1100,
      "351": 1101,
      "352": 1102,
      "353": 1103,
      "354": 1104,
      "356": 1105,
      "357": 1106,
      "358": 1107,
      "359": 1108,
      "35a": 1109,
      "35b": 1110,
      "35c": 1111,
      "35d": 1112,
      "35e": 1113,
      "35f": 1114,
      "450": 1115,
      "451": 1116,
      "452": 1117,
      "453": 1118,
      "454": 1119,
      "456": 1120,
      "457": 1121,
      "458": 1122,
      "459": 1123,
      "45a": 1124,
      "45b": 1125,
      "45c": 1126,
      "45d": 1127,
      "45e": 1128,
      "45f": 1129,
      "106": 1130,
      "107": 1131,
      "108": 1132,
      "109": 1133,
      "10a": 1134,
      "10b": 1135,
      "10c": 1136,
      "10d": 1137,
      "10e": 1138,
      "10f": 1139,
      "320": 1140,
      "321": 1141,
      "326": 1142,
      "327": 1143,
      "328": 1144,
      "329": 1145,
      "32a": 1146,
      "32b": 1147,
      "32c": 1148,
      "32d": 1149,
      "32e": 1150,
      "32f": 1151,
      "540": 1152,
      "541": 1153,
      "542": 1154,
      "543": 1155,
      "546": 1156,
      "547": 1157,
      "548": 1158,
      "549": 1159,
      "54a": 1160,
      "54b": 1161,
      "54c": 1162,
      "54d": 1163,
      "54e": 1164,
      "54f": 1165,
      "206": 1166,
      "207": 1167,
      "208": 1168,
      "209": 1169,
      "20a": 1170,
      "20b": 1171,
      "20c": 1172,
      "20d": 1173,
      "20e": 1174,
      "20f": 1175,
      "216": 1176,
      "217": 1177,
      "218": 1178,
      "219": 1179,
      "21a": 1180,
      "21b": 1181,
      "21c": 1182,
      "21d": 1183,
      "21e": 1184,
      "21f": 1185,
      "306": 1186,
      "307": 1187,
      "308": 1188,
      "309": 1189,
      "30a": 1190,
      "30b": 1191,
      "30c": 1192,
      "30d": 1193,
      "30e": 1194,
      "30f": 1195,
      "316": 1196,
      "317": 1197,
      "318": 1198,
      "319": 1199,
      "31a": 1200,
      "31b": 1201,
      "31c": 1202,
      "31d": 1203,
      "31e": 1204,
      "31f": 1205,
      "406": 1206,
      "407": 1207,
      "408": 1208,
      "409": 1209,
      "40a": 1210,
      "40b": 1211,
      "40c": 1212,
      "40d": 1213,
      "40e": 1214,
      "40f": 1215,
      "416": 1216,
      "417": 1217,
      "418": 1218,
      "419": 1219,
      "41a": 1220,
      "41b": 1221,
      "41c": 1222,
      "41d": 1223,
      "41e": 1224,
      "41f": 1225,
      "426": 1226,
      "427": 1227,
      "428": 1228,
      "429": 1229,
      "42a": 1230,
      "42b": 1231,
      "42c": 1232,
      "42d": 1233,
      "42e": 1234,
      "42f": 1235,
      "436": 1236,
      "437": 1237,
      "438": 1238,
      "439": 1239,
      "43a": 1240,
      "43b": 1241,
      "43c": 1242,
      "43d": 1243,
      "43e": 1244,
      "43f": 1245,
      "506": 1246,
      "507": 1247,
      "508": 1248,
      "509": 1249,
      "50a": 1250,
      "50b": 1251,
      "50c": 1252,
      "50d": 1253,
      "50e": 1254,
      "50f": 1255,
      "516": 1256,
      "517": 1257,
      "518": 1258,
      "519": 1259,
      "51a": 1260,
      "51b": 1261,
      "51c": 1262,
      "51d": 1263,
      "51e": 1264,
      "51f": 1265,
      "526": 1266,
      "527": 1267,
      "528": 1268,
      "529": 1269,
      "52a": 1270,
      "52b": 1271,
      "52c": 1272,
      "52d": 1273,
      "52e": 1274,
      "52f": 1275,
      "536": 1276,
      "537": 1277,
      "538": 1278,
      "539": 1279,
      "53a": 1280,
      "53b": 1281,
      "53c": 1282,
      "53d": 1283,
      "53e": 1284,
      "53f": 1285,
      "at": 1286,
      "ati": 1287,
      "ad": 1288,
      "an": 1289,
      "ci": 1290,
      "dad": 1291,
      "es": 1292,
      "han": 1293,
      "tati": 1294,
      "cidad": 1295,
      "estati": 1296,
      "hand": 1297,
      "cidade": 1298,
      "estaticidade": 1299,
      "_q": 1300,
      "s_q": 1301,
      "td": 1302,
      "hands_q": 1303,
      "hands_qtd": 1304,
      "Fa": 1305,
      "K]": 1306,
      "Tr": 1307,
      "dy": 1308,
      "ls": 1309,
      "on": 1310,
      "ue": 1311,
      "ation": 1312,
      "estaticidadeL": 1313,
      "estaticidadeR": 1314,
      "Fals": 1315,
      "True": 1316,
      "False": 1317,
      "AD": 1318,
      "AS": 1319,
      "CL": 1320,
      "EP": 1321,
      "MAS": 1322,
      "NK]": 1323,
      "PAD": 1324,
      "S]": 1325,
      "SEP": 1326,
      "UNK]": 1327,
      "[CL": 1328,
      "[MAS": 1329,
      "[PAD": 1330,
      "[SEP": 1331,
      "[UNK]": 1332,
      "am": 1333,
      "bo": 1334,
      "ct": 1335,
      "cation": 1336,
      "ef": 1337,
      "em": 1338,
      "en": 1339,
      "ead": 1340,
      "gh": 1341,
      "head": 1342,
      "ic": 1343,
      "igh": 1344,
      "lo": 1345,
      "lef": 1346,
      "mo": 1347,
      "nam": 1348,
      "nct": 1349,
      "pu": 1350,
      "righ": 1351,
      "uation": 1352,
      "vem": 1353,
      "s160": 1354,
      "s161": 1355,
      "s162": 1356,
      "s163": 1357,
      "s164": 1358,
      "s165": 1359,
      "s1600": 1360,
      "s1611": 1361,
      "s1622": 1362,
      "s1633": 1363,
      "s1644": 1364,
      "s1655": 1365,
      "s1601": 1366,
      "s1602": 1367,
      "s1603": 1368,
      "s1604": 1369,
      "s1605": 1370,
      "s1612": 1371,
      "s1613": 1372,
      "s1614": 1373,
      "s1615": 1374,
      "s1623": 1375,
      "s1624": 1376,
      "s1625": 1377,
      "s1634": 1378,
      "s1635": 1379,
      "s1645": 1380,
      "s1610": 1381,
      "s1632": 1382,
      "s1654": 1383,
      "s1620": 1384,
      "s1621": 1385,
      "s1630": 1386,
      "s1631": 1387,
      "s1640": 1388,
      "s1641": 1389,
      "s1642": 1390,
      "s1643": 1391,
      "s1650": 1392,
      "s1651": 1393,
      "s1652": 1394,
      "s1653": 1395,
      "s1606": 1396,
      "s1607": 1397,
      "s1608": 1398,
      "s1609": 1399,
      "s160a": 1400,
      "s160b": 1401,
      "s160c": 1402,
      "s160d": 1403,
      "s160e": 1404,
      "s160f": 1405,
      "s1616": 1406,
      "s1617": 1407,
      "s1618": 1408,
      "s1619": 1409,
      "s161a": 1410,
      "s161b": 1411,
      "s161c": 1412,
      "s161d": 1413,
      "s161e": 1414,
      "s161f": 1415,
      "s1626": 1416,
      "s1627": 1417,
      "s1628": 1418,
      "s1629": 1419,
      "s162a": 1420,
      "s162b": 1421,
      "s162c": 1422,
      "s162d": 1423,
      "s162e": 1424,
      "s162f": 1425,
      "s1636": 1426,
      "s1637": 1427,
      "s1638": 1428,
      "s1639": 1429,
      "s163a": 1430,
      "s163b": 1431,
      "s163c": 1432,
      "s163d": 1433,
      "s163e": 1434,
      "s163f": 1435,
      "s1646": 1436,
      "s1647": 1437,
      "s1648": 1438,
      "s1649": 1439,
      "s164a": 1440,
      "s164b": 1441,
      "s164c": 1442,
      "s164d": 1443,
      "s164e": 1444,
      "s164f": 1445,
      "s1656": 1446,
      "s1657": 1447,
      "s1658": 1448,
      "s1659": 1449,
      "s165a": 1450,
      "s165b": 1451,
      "s165c": 1452,
      "s165d": 1453,
      "s165e": 1454,
      "s165f": 1455,
      "s16011": 1456,
      "s16022": 1457,
      "s16033": 1458,
      "s16044": 1459,
      "s16055": 1460,
      "s16000": 1461,
      "s16001": 1462,
      "s16002": 1463,
      "s16003": 1464,
      "s16004": 1465,
      "s16005": 1466,
      "s16006": 1467,
      "s16007": 1468,
      "s16008": 1469,
      "s16009": 1470,
      "s1600a": 1471,
      "s1600b": 1472,
      "s1600c": 1473,
      "s1600d": 1474,
      "s1600e": 1475,
      "s1600f": 1476,
      "s16110": 1477,
      "s16111": 1478,
      "s16112": 1479,
      "s16113": 1480,
      "s16114": 1481,
      "s16115": 1482,
      "s16116": 1483,
      "s16117": 1484,
      "s16118": 1485,
      "s16119": 1486,
      "s1611a": 1487,
      "s1611b": 1488,
      "s1611c": 1489,
      "s1611d": 1490,
      "s1611e": 1491,
      "s1611f": 1492,
      "s16220": 1493,
      "s16221": 1494,
      "s16222": 1495,
      "s16223": 1496,
      "s16224": 1497,
      "s16225": 1498,
      "s16226": 1499,
      "s16227": 1500,
      "s16228": 1501,
      "s16229": 1502,
      "s1622a": 1503,
      "s1622b": 1504,
      "s1622c": 1505,
      "s1622d": 1506,
      "s1622e": 1507,
      "s1622f": 1508,
      "s16330": 1509,
      "s16331": 1510,
      "s16332": 1511,
      "s16333": 1512,
      "s16334": 1513,
      "s16335": 1514,
      "s16336": 1515,
      "s16337": 1516,
      "s16338": 1517,
      "s16339": 1518,
      "s1633a": 1519,
      "s1633b": 1520,
      "s1633c": 1521,
      "s1633d": 1522,
      "s1633e": 1523,
      "s1633f": 1524,
      "s16440": 1525,
      "s16441": 1526,
      "s16442": 1527,
      "s16443": 1528,
      "s16444": 1529,
      "s16445": 1530,
      "s16446": 1531,
      "s16447": 1532,
      "s16448": 1533,
      "s16449": 1534,
      "s1644a": 1535,
      "s1644b": 1536,
      "s1644c": 1537,
      "s1644d": 1538,
      "s1644e": 1539,
      "s1644f": 1540,
      "s16550": 1541,
      "s16551": 1542,
      "s16552": 1543,
      "s16553": 1544,
      "s16554": 1545,
      "s16555": 1546,
      "s16556": 1547,
      "s16557": 1548,
      "s16558": 1549,
      "s16559": 1550,
      "s1655a": 1551,
      "s1655b": 1552,
      "s1655c": 1553,
      "s1655d": 1554,
      "s1655e": 1555,
      "s1655f": 1556,
      "s16010": 1557,
      "s16012": 1558,
      "s16013": 1559,
      "s16014": 1560,
      "s16015": 1561,
      "s16016": 1562,
      "s16017": 1563,
      "s16018": 1564,
      "s16019": 1565,
      "s1601a": 1566,
      "s1601b": 1567,
      "s1601c": 1568,
      "s1601d": 1569,
      "s1601e": 1570,
      "s1601f": 1571,
      "s16020": 1572,
      "s16021": 1573,
      "s16023": 1574,
      "s16024": 1575,
      "s16025": 1576,
      "s16026": 1577,
      "s16027": 1578,
      "s16028": 1579,
      "s16029": 1580,
      "s1602a": 1581,
      "s1602b": 1582,
      "s1602c": 1583,
      "s1602d": 1584,
      "s1602e": 1585,
      "s1602f": 1586,
      "s16030": 1587,
      "s16031": 1588,
      "s16032": 1589,
      "s16034": 1590,
      "s16035": 1591,
      "s16036": 1592,
      "s16037": 1593,
      "s16038": 1594,
      "s16039": 1595,
      "s1603a": 1596,
      "s1603b": 1597,
      "s1603c": 1598,
      "s1603d": 1599,
      "s1603e": 1600,
      "s1603f": 1601,
      "s16040": 1602,
      "s16041": 1603,
      "s16042": 1604,
      "s16043": 1605,
      "s16045": 1606,
      "s16046": 1607,
      "s16047": 1608,
      "s16048": 1609,
      "s16049": 1610,
      "s1604a": 1611,
      "s1604b": 1612,
      "s1604c": 1613,
      "s1604d": 1614,
      "s1604e": 1615,
      "s1604f": 1616,
      "s16050": 1617,
      "s16051": 1618,
      "s16052": 1619,
      "s16053": 1620,
      "s16054": 1621,
      "s16056": 1622,
      "s16057": 1623,
      "s16058": 1624,
      "s16059": 1625,
      "s1605a": 1626,
      "s1605b": 1627,
      "s1605c": 1628,
      "s1605d": 1629,
      "s1605e": 1630,
      "s1605f": 1631,
      "s16100": 1632,
      "s16122": 1633,
      "s16133": 1634,
      "s16144": 1635,
      "s16155": 1636,
      "s16101": 1637,
      "s16102": 1638,
      "s16103": 1639,
      "s16104": 1640,
      "s16105": 1641,
      "s16200": 1642,
      "s16211": 1643,
      "s16233": 1644,
      "s16244": 1645,
      "s16255": 1646,
      "s16201": 1647,
      "s16202": 1648,
      "s16203": 1649,
      "s16204": 1650,
      "s16205": 1651,
      "s16212": 1652,
      "s16213": 1653,
      "s16214": 1654,
      "s16215": 1655,
      "s16210": 1656,
      "s16300": 1657,
      "s16311": 1658,
      "s16322": 1659,
      "s16344": 1660,
      "s16355": 1661,
      "s16301": 1662,
      "s16302": 1663,
      "s16303": 1664,
      "s16304": 1665,
      "s16305": 1666,
      "s16312": 1667,
      "s16313": 1668,
      "s16314": 1669,
      "s16315": 1670,
      "s16323": 1671,
      "s16324": 1672,
      "s16325": 1673,
      "s16310": 1674,
      "s16400": 1675,
      "s16411": 1676,
      "s16422": 1677,
      "s16433": 1678,
      "s16455": 1679,
      "s16401": 1680,
      "s16402": 1681,
      "s16403": 1682,
      "s16404": 1683,
      "s16405": 1684,
      "s16412": 1685,
      "s16413": 1686,
      "s16414": 1687,
      "s16415": 1688,
      "s16423": 1689,
      "s16424": 1690,
      "s16425": 1691,
      "s16434": 1692,
      "s16435": 1693,
      "s16410": 1694,
      "s16432": 1695,
      "s16420": 1696,
      "s16421": 1697,
      "s16430": 1698,
      "s16431": 1699,
      "s16500": 1700,
      "s16511": 1701,
      "s16522": 1702,
      "s16533": 1703,
      "s16544": 1704,
      "s16501": 1705,
      "s16502": 1706,
      "s16503": 1707,
      "s16504": 1708,
      "s16505": 1709,
      "s16512": 1710,
      "s16513": 1711,
      "s16514": 1712,
      "s16515": 1713,
      "s16523": 1714,
      "s16524": 1715,
      "s16525": 1716,
      "s16534": 1717,
      "s16535": 1718,
      "s16545": 1719,
      "s16510": 1720,
      "s16532": 1721,
      "s16520": 1722,
      "s16521": 1723,
      "s16530": 1724,
      "s16531": 1725,
      "s16120": 1726,
      "s16121": 1727,
      "s16123": 1728,
      "s16124": 1729,
      "s16125": 1730,
      "s16126": 1731,
      "s16127": 1732,
      "s16128": 1733,
      "s16129": 1734,
      "s1612a": 1735,
      "s1612b": 1736,
      "s1612c": 1737,
      "s1612d": 1738,
      "s1612e": 1739,
      "s1612f": 1740,
      "s16130": 1741,
      "s16131": 1742,
      "s16132": 1743,
      "s16134": 1744,
      "s16135": 1745,
      "s16136": 1746,
      "s16137": 1747,
      "s16138": 1748,
      "s16139": 1749,
      "s1613a": 1750,
      "s1613b": 1751,
      "s1613c": 1752,
      "s1613d": 1753,
      "s1613e": 1754,
      "s1613f": 1755,
      "s16140": 1756,
      "s16141": 1757,
      "s16142": 1758,
      "s16143": 1759,
      "s16145": 1760,
      "s16146": 1761,
      "s16147": 1762,
      "s16148": 1763,
      "s16149": 1764,
      "s1614a": 1765,
      "s1614b": 1766,
      "s1614c": 1767,
      "s1614d": 1768,
      "s1614e": 1769,
      "s1614f": 1770,
      "s16150": 1771,
      "s16151": 1772,
      "s16152": 1773,
      "s16153": 1774,
      "s16154": 1775,
      "s16156": 1776,
      "s16157": 1777,
      "s16158": 1778,
      "s16159": 1779,
      "s1615a": 1780,
      "s1615b": 1781,
      "s1615c": 1782,
      "s1615d": 1783,
      "s1615e": 1784,
      "s1615f": 1785,
      "s16230": 1786,
      "s16231": 1787,
      "s16232": 1788,
      "s16234": 1789,
      "s16235": 1790,
      "s16236": 1791,
      "s16237": 1792,
      "s16238": 1793,
      "s16239": 1794,
      "s1623a": 1795,
      "s1623b": 1796,
      "s1623c": 1797,
      "s1623d": 1798,
      "s1623e": 1799,
      "s1623f": 1800,
      "s16240": 1801,
      "s16241": 1802,
      "s16242": 1803,
      "s16243": 1804,
      "s16245": 1805,
      "s16246": 1806,
      "s16247": 1807,
      "s16248": 1808,
      "s16249": 1809,
      "s1624a": 1810,
      "s1624b": 1811,
      "s1624c": 1812,
      "s1624d": 1813,
      "s1624e": 1814,
      "s1624f": 1815,
      "s16250": 1816,
      "s16251": 1817,
      "s16252": 1818,
      "s16253": 1819,
      "s16254": 1820,
      "s16256": 1821,
      "s16257": 1822,
      "s16258": 1823,
      "s16259": 1824,
      "s1625a": 1825,
      "s1625b": 1826,
      "s1625c": 1827,
      "s1625d": 1828,
      "s1625e": 1829,
      "s1625f": 1830,
      "s16340": 1831,
      "s16341": 1832,
      "s16342": 1833,
      "s16343": 1834,
      "s16345": 1835,
      "s16346": 1836,
      "s16347": 1837,
      "s16348": 1838,
      "s16349": 1839,
      "s1634a": 1840,
      "s1634b": 1841,
      "s1634c": 1842,
      "s1634d": 1843,
      "s1634e": 1844,
      "s1634f": 1845,
      "s16350": 1846,
      "s16351": 1847,
      "s16352": 1848,
      "s16353": 1849,
      "s16354": 1850,
      "s16356": 1851,
      "s16357": 1852,
      "s16358": 1853,
      "s16359": 1854,
      "s1635a": 1855,
      "s1635b": 1856,
      "s1635c": 1857,
      "s1635d": 1858,
      "s1635e": 1859,
      "s1635f": 1860,
      "s16450": 1861,
      "s16451": 1862,
      "s16452": 1863,
      "s16453": 1864,
      "s16454": 1865,
      "s16456": 1866,
      "s16457": 1867,
      "s16458": 1868,
      "s16459": 1869,
      "s1645a": 1870,
      "s1645b": 1871,
      "s1645c": 1872,
      "s1645d": 1873,
      "s1645e": 1874,
      "s1645f": 1875,
      "s16106": 1876,
      "s16107": 1877,
      "s16108": 1878,
      "s16109": 1879,
      "s1610a": 1880,
      "s1610b": 1881,
      "s1610c": 1882,
      "s1610d": 1883,
      "s1610e": 1884,
      "s1610f": 1885,
      "s16320": 1886,
      "s16321": 1887,
      "s16326": 1888,
      "s16327": 1889,
      "s16328": 1890,
      "s16329": 1891,
      "s1632a": 1892,
      "s1632b": 1893,
      "s1632c": 1894,
      "s1632d": 1895,
      "s1632e": 1896,
      "s1632f": 1897,
      "s16540": 1898,
      "s16541": 1899,
      "s16542": 1900,
      "s16543": 1901,
      "s16546": 1902,
      "s16547": 1903,
      "s16548": 1904,
      "s16549": 1905,
      "s1654a": 1906,
      "s1654b": 1907,
      "s1654c": 1908,
      "s1654d": 1909,
      "s1654e": 1910,
      "s1654f": 1911,
      "s16206": 1912,
      "s16207": 1913,
      "s16208": 1914,
      "s16209": 1915,
      "s1620a": 1916,
      "s1620b": 1917,
      "s1620c": 1918,
      "s1620d": 1919,
      "s1620e": 1920,
      "s1620f": 1921,
      "s16216": 1922,
      "s16217": 1923,
      "s16218": 1924,
      "s16219": 1925,
      "s1621a": 1926,
      "s1621b": 1927,
      "s1621c": 1928,
      "s1621d": 1929,
      "s1621e": 1930,
      "s1621f": 1931,
      "s16306": 1932,
      "s16307": 1933,
      "s16308": 1934,
      "s16309": 1935,
      "s1630a": 1936,
      "s1630b": 1937,
      "s1630c": 1938,
      "s1630d": 1939,
      "s1630e": 1940,
      "s1630f": 1941,
      "s16316": 1942,
      "s16317": 1943,
      "s16318": 1944,
      "s16319": 1945,
      "s1631a": 1946,
      "s1631b": 1947,
      "s1631c": 1948,
      "s1631d": 1949,
      "s1631e": 1950,
      "s1631f": 1951,
      "s16406": 1952,
      "s16407": 1953,
      "s16408": 1954,
      "s16409": 1955,
      "s1640a": 1956,
      "s1640b": 1957,
      "s1640c": 1958,
      "s1640d": 1959,
      "s1640e": 1960,
      "s1640f": 1961,
      "s16416": 1962,
      "s16417": 1963,
      "s16418": 1964,
      "s16419": 1965,
      "s1641a": 1966,
      "s1641b": 1967,
      "s1641c": 1968,
      "s1641d": 1969,
      "s1641e": 1970,
      "s1641f": 1971,
      "s16426": 1972,
      "s16427": 1973,
      "s16428": 1974,
      "s16429": 1975,
      "s1642a": 1976,
      "s1642b": 1977,
      "s1642c": 1978,
      "s1642d": 1979,
      "s1642e": 1980,
      "s1642f": 1981,
      "s16436": 1982,
      "s16437": 1983,
      "s16438": 1984,
      "s16439": 1985,
      "s1643a": 1986,
      "s1643b": 1987,
      "s1643c": 1988,
      "s1643d": 1989,
      "s1643e": 1990,
      "s1643f": 1991,
      "s16506": 1992,
      "s16507": 1993,
      "s16508": 1994,
      "s16509": 1995,
      "s1650a": 1996,
      "s1650b": 1997,
      "s1650c": 1998,
      "s1650d": 1999,
      "s1650e": 2000,
      "s1650f": 2001,
      "s16516": 2002,
      "s16517": 2003,
      "s16518": 2004,
      "s16519": 2005,
      "s1651a": 2006,
      "s1651b": 2007,
      "s1651c": 2008,
      "s1651d": 2009,
      "s1651e": 2010,
      "s1651f": 2011,
      "s16526": 2012,
      "s16527": 2013,
      "s16528": 2014,
      "s16529": 2015,
      "s1652a": 2016,
      "s1652b": 2017,
      "s1652c": 2018,
      "s1652d": 2019,
      "s1652e": 2020,
      "s1652f": 2021,
      "s16536": 2022,
      "s16537": 2023,
      "s16538": 2024,
      "s16539": 2025,
      "s1653a": 2026,
      "s1653b": 2027,
      "s1653c": 2028,
      "s1653d": 2029,
      "s1653e": 2030,
      "s1653f": 2031,
      "s170": 2032,
      "s171": 2033,
      "s172": 2034,
      "s173": 2035,
      "s174": 2036,
      "s175": 2037,
      "s1700": 2038,
      "s1711": 2039,
      "s1722": 2040,
      "s1733": 2041,
      "s1744": 2042,
      "s1755": 2043,
      "s1701": 2044,
      "s1702": 2045,
      "s1703": 2046,
      "s1704": 2047,
      "s1705": 2048,
      "s1712": 2049,
      "s1713": 2050,
      "s1714": 2051,
      "s1715": 2052,
      "s1723": 2053,
      "s1724": 2054,
      "s1725": 2055,
      "s1734": 2056,
      "s1735": 2057,
      "s1745": 2058,
      "s1710": 2059,
      "s1732": 2060,
      "s1754": 2061,
      "s1720": 2062,
      "s1721": 2063,
      "s1730": 2064,
      "s1731": 2065,
      "s1740": 2066,
      "s1741": 2067,
      "s1742": 2068,
      "s1743": 2069,
      "s1750": 2070,
      "s1751": 2071,
      "s1752": 2072,
      "s1753": 2073,
      "s1706": 2074,
      "s1707": 2075,
      "s1708": 2076,
      "s1709": 2077,
      "s170a": 2078,
      "s170b": 2079,
      "s170c": 2080,
      "s170d": 2081,
      "s170e": 2082,
      "s170f": 2083,
      "s1716": 2084,
      "s1717": 2085,
      "s1718": 2086,
      "s1719": 2087,
      "s171a": 2088,
      "s171b": 2089,
      "s171c": 2090,
      "s171d": 2091,
      "s171e": 2092,
      "s171f": 2093,
      "s1726": 2094,
      "s1727": 2095,
      "s1728": 2096,
      "s1729": 2097,
      "s172a": 2098,
      "s172b": 2099,
      "s172c": 2100,
      "s172d": 2101,
      "s172e": 2102,
      "s172f": 2103,
      "s1736": 2104,
      "s1737": 2105,
      "s1738": 2106,
      "s1739": 2107,
      "s173a": 2108,
      "s173b": 2109,
      "s173c": 2110,
      "s173d": 2111,
      "s173e": 2112,
      "s173f": 2113,
      "s1746": 2114,
      "s1747": 2115,
      "s1748": 2116,
      "s1749": 2117,
      "s174a": 2118,
      "s174b": 2119,
      "s174c": 2120,
      "s174d": 2121,
      "s174e": 2122,
      "s174f": 2123,
      "s1756": 2124,
      "s1757": 2125,
      "s1758": 2126,
      "s1759": 2127,
      "s175a": 2128,
      "s175b": 2129,
      "s175c": 2130,
      "s175d": 2131,
      "s175e": 2132,
      "s175f": 2133,
      "s17011": 2134,
      "s17022": 2135,
      "s17033": 2136,
      "s17044": 2137,
      "s17055": 2138,
      "s17000": 2139,
      "s17001": 2140,
      "s17002": 2141,
      "s17003": 2142,
      "s17004": 2143,
      "s17005": 2144,
      "s17006": 2145,
      "s17007": 2146,
      "s17008": 2147,
      "s17009": 2148,
      "s1700a": 2149,
      "s1700b": 2150,
      "s1700c": 2151,
      "s1700d": 2152,
      "s1700e": 2153,
      "s1700f": 2154,
      "s17110": 2155,
      "s17111": 2156,
      "s17112": 2157,
      "s17113": 2158,
      "s17114": 2159,
      "s17115": 2160,
      "s17116": 2161,
      "s17117": 2162,
      "s17118": 2163,
      "s17119": 2164,
      "s1711a": 2165,
      "s1711b": 2166,
      "s1711c": 2167,
      "s1711d": 2168,
      "s1711e": 2169,
      "s1711f": 2170,
      "s17220": 2171,
      "s17221": 2172,
      "s17222": 2173,
      "s17223": 2174,
      "s17224": 2175,
      "s17225": 2176,
      "s17226": 2177,
      "s17227": 2178,
      "s17228": 2179,
      "s17229": 2180,
      "s1722a": 2181,
      "s1722b": 2182,
      "s1722c": 2183,
      "s1722d": 2184,
      "s1722e": 2185,
      "s1722f": 2186,
      "s17330": 2187,
      "s17331": 2188,
      "s17332": 2189,
      "s17333": 2190,
      "s17334": 2191,
      "s17335": 2192,
      "s17336": 2193,
      "s17337": 2194,
      "s17338": 2195,
      "s17339": 2196,
      "s1733a": 2197,
      "s1733b": 2198,
      "s1733c": 2199,
      "s1733d": 2200,
      "s1733e": 2201,
      "s1733f": 2202,
      "s17440": 2203,
      "s17441": 2204,
      "s17442": 2205,
      "s17443": 2206,
      "s17444": 2207,
      "s17445": 2208,
      "s17446": 2209,
      "s17447": 2210,
      "s17448": 2211,
      "s17449": 2212,
      "s1744a": 2213,
      "s1744b": 2214,
      "s1744c": 2215,
      "s1744d": 2216,
      "s1744e": 2217,
      "s1744f": 2218,
      "s17550": 2219,
      "s17551": 2220,
      "s17552": 2221,
      "s17553": 2222,
      "s17554": 2223,
      "s17555": 2224,
      "s17556": 2225,
      "s17557": 2226,
      "s17558": 2227,
      "s17559": 2228,
      "s1755a": 2229,
      "s1755b": 2230,
      "s1755c": 2231,
      "s1755d": 2232,
      "s1755e": 2233,
      "s1755f": 2234,
      "s17010": 2235,
      "s17012": 2236,
      "s17013": 2237,
      "s17014": 2238,
      "s17015": 2239,
      "s17016": 2240,
      "s17017": 2241,
      "s17018": 2242,
      "s17019": 2243,
      "s1701a": 2244,
      "s1701b": 2245,
      "s1701c": 2246,
      "s1701d": 2247,
      "s1701e": 2248,
      "s1701f": 2249,
      "s17020": 2250,
      "s17021": 2251,
      "s17023": 2252,
      "s17024": 2253,
      "s17025": 2254,
      "s17026": 2255,
      "s17027": 2256,
      "s17028": 2257,
      "s17029": 2258,
      "s1702a": 2259,
      "s1702b": 2260,
      "s1702c": 2261,
      "s1702d": 2262,
      "s1702e": 2263,
      "s1702f": 2264,
      "s17030": 2265,
      "s17031": 2266,
      "s17032": 2267,
      "s17034": 2268,
      "s17035": 2269,
      "s17036": 2270,
      "s17037": 2271,
      "s17038": 2272,
      "s17039": 2273,
      "s1703a": 2274,
      "s1703b": 2275,
      "s1703c": 2276,
      "s1703d": 2277,
      "s1703e": 2278,
      "s1703f": 2279,
      "s17040": 2280,
      "s17041": 2281,
      "s17042": 2282,
      "s17043": 2283,
      "s17045": 2284,
      "s17046": 2285,
      "s17047": 2286,
      "s17048": 2287,
      "s17049": 2288,
      "s1704a": 2289,
      "s1704b": 2290,
      "s1704c": 2291,
      "s1704d": 2292,
      "s1704e": 2293,
      "s1704f": 2294,
      "s17050": 2295,
      "s17051": 2296,
      "s17052": 2297,
      "s17053": 2298,
      "s17054": 2299,
      "s17056": 2300,
      "s17057": 2301,
      "s17058": 2302,
      "s17059": 2303,
      "s1705a": 2304,
      "s1705b": 2305,
      "s1705c": 2306,
      "s1705d": 2307,
      "s1705e": 2308,
      "s1705f": 2309,
      "s17100": 2310,
      "s17122": 2311,
      "s17133": 2312,
      "s17144": 2313,
      "s17155": 2314,
      "s17101": 2315,
      "s17102": 2316,
      "s17103": 2317,
      "s17104": 2318,
      "s17105": 2319,
      "s17200": 2320,
      "s17211": 2321,
      "s17233": 2322,
      "s17244": 2323,
      "s17255": 2324,
      "s17201": 2325,
      "s17202": 2326,
      "s17203": 2327,
      "s17204": 2328,
      "s17205": 2329,
      "s17212": 2330,
      "s17213": 2331,
      "s17214": 2332,
      "s17215": 2333,
      "s17210": 2334,
      "s17300": 2335,
      "s17311": 2336,
      "s17322": 2337,
      "s17344": 2338,
      "s17355": 2339,
      "s17301": 2340,
      "s17302": 2341,
      "s17303": 2342,
      "s17304": 2343,
      "s17305": 2344,
      "s17312": 2345,
      "s17313": 2346,
      "s17314": 2347,
      "s17315": 2348,
      "s17323": 2349,
      "s17324": 2350,
      "s17325": 2351,
      "s17310": 2352,
      "s17400": 2353,
      "s17411": 2354,
      "s17422": 2355,
      "s17433": 2356,
      "s17455": 2357,
      "s17401": 2358,
      "s17402": 2359,
      "s17403": 2360,
      "s17404": 2361,
      "s17405": 2362,
      "s17412": 2363,
      "s17413": 2364,
      "s17414": 2365,
      "s17415": 2366,
      "s17423": 2367,
      "s17424": 2368,
      "s17425": 2369,
      "s17434": 2370,
      "s17435": 2371,
      "s17410": 2372,
      "s17432": 2373,
      "s17420": 2374,
      "s17421": 2375,
      "s17430": 2376,
      "s17431": 2377,
      "s17500": 2378,
      "s17511": 2379,
      "s17522": 2380,
      "s17533": 2381,
      "s17544": 2382,
      "s17501": 2383,
      "s17502": 2384,
      "s17503": 2385,
      "s17504": 2386,
      "s17505": 2387,
      "s17512": 2388,
      "s17513": 2389,
      "s17514": 2390,
      "s17515": 2391,
      "s17523": 2392,
      "s17524": 2393,
      "s17525": 2394,
      "s17534": 2395,
      "s17535": 2396,
      "s17545": 2397,
      "s17510": 2398,
      "s17532": 2399,
      "s17520": 2400,
      "s17521": 2401,
      "s17530": 2402,
      "s17531": 2403,
      "s17120": 2404,
      "s17121": 2405,
      "s17123": 2406,
      "s17124": 2407,
      "s17125": 2408,
      "s17126": 2409,
      "s17127": 2410,
      "s17128": 2411,
      "s17129": 2412,
      "s1712a": 2413,
      "s1712b": 2414,
      "s1712c": 2415,
      "s1712d": 2416,
      "s1712e": 2417,
      "s1712f": 2418,
      "s17130": 2419,
      "s17131": 2420,
      "s17132": 2421,
      "s17134": 2422,
      "s17135": 2423,
      "s17136": 2424,
      "s17137": 2425,
      "s17138": 2426,
      "s17139": 2427,
      "s1713a": 2428,
      "s1713b": 2429,
      "s1713c": 2430,
      "s1713d": 2431,
      "s1713e": 2432,
      "s1713f": 2433,
      "s17140": 2434,
      "s17141": 2435,
      "s17142": 2436,
      "s17143": 2437,
      "s17145": 2438,
      "s17146": 2439,
      "s17147": 2440,
      "s17148": 2441,
      "s17149": 2442,
      "s1714a": 2443,
      "s1714b": 2444,
      "s1714c": 2445,
      "s1714d": 2446,
      "s1714e": 2447,
      "s1714f": 2448,
      "s17150": 2449,
      "s17151": 2450,
      "s17152": 2451,
      "s17153": 2452,
      "s17154": 2453,
      "s17156": 2454,
      "s17157": 2455,
      "s17158": 2456,
      "s17159": 2457,
      "s1715a": 2458,
      "s1715b": 2459,
      "s1715c": 2460,
      "s1715d": 2461,
      "s1715e": 2462,
      "s1715f": 2463,
      "s17230": 2464,
      "s17231": 2465,
      "s17232": 2466,
      "s17234": 2467,
      "s17235": 2468,
      "s17236": 2469,
      "s17237": 2470,
      "s17238": 2471,
      "s17239": 2472,
      "s1723a": 2473,
      "s1723b": 2474,
      "s1723c": 2475,
      "s1723d": 2476,
      "s1723e": 2477,
      "s1723f": 2478,
      "s17240": 2479,
      "s17241": 2480,
      "s17242": 2481,
      "s17243": 2482,
      "s17245": 2483,
      "s17246": 2484,
      "s17247": 2485,
      "s17248": 2486,
      "s17249": 2487,
      "s1724a": 2488,
      "s1724b": 2489,
      "s1724c": 2490,
      "s1724d": 2491,
      "s1724e": 2492,
      "s1724f": 2493,
      "s17250": 2494,
      "s17251": 2495,
      "s17252": 2496,
      "s17253": 2497,
      "s17254": 2498,
      "s17256": 2499,
      "s17257": 2500,
      "s17258": 2501,
      "s17259": 2502,
      "s1725a": 2503,
      "s1725b": 2504,
      "s1725c": 2505,
      "s1725d": 2506,
      "s1725e": 2507,
      "s1725f": 2508,
      "s17340": 2509,
      "s17341": 2510,
      "s17342": 2511,
      "s17343": 2512,
      "s17345": 2513,
      "s17346": 2514,
      "s17347": 2515,
      "s17348": 2516,
      "s17349": 2517,
      "s1734a": 2518,
      "s1734b": 2519,
      "s1734c": 2520,
      "s1734d": 2521,
      "s1734e": 2522,
      "s1734f": 2523,
      "s17350": 2524,
      "s17351": 2525,
      "s17352": 2526,
      "s17353": 2527,
      "s17354": 2528,
      "s17356": 2529,
      "s17357": 2530,
      "s17358": 2531,
      "s17359": 2532,
      "s1735a": 2533,
      "s1735b": 2534,
      "s1735c": 2535,
      "s1735d": 2536,
      "s1735e": 2537,
      "s1735f": 2538,
      "s17450": 2539,
      "s17451": 2540,
      "s17452": 2541,
      "s17453": 2542,
      "s17454": 2543,
      "s17456": 2544,
      "s17457": 2545,
      "s17458": 2546,
      "s17459": 2547,
      "s1745a": 2548,
      "s1745b": 2549,
      "s1745c": 2550,
      "s1745d": 2551,
      "s1745e": 2552,
      "s1745f": 2553,
      "s17106": 2554,
      "s17107": 2555,
      "s17108": 2556,
      "s17109": 2557,
      "s1710a": 2558,
      "s1710b": 2559,
      "s1710c": 2560,
      "s1710d": 2561,
      "s1710e": 2562,
      "s1710f": 2563,
      "s17320": 2564,
      "s17321": 2565,
      "s17326": 2566,
      "s17327": 2567,
      "s17328": 2568,
      "s17329": 2569,
      "s1732a": 2570,
      "s1732b": 2571,
      "s1732c": 2572,
      "s1732d": 2573,
      "s1732e": 2574,
      "s1732f": 2575,
      "s17540": 2576,
      "s17541": 2577,
      "s17542": 2578,
      "s17543": 2579,
      "s17546": 2580,
      "s17547": 2581,
      "s17548": 2582,
      "s17549": 2583,
      "s1754a": 2584,
      "s1754b": 2585,
      "s1754c": 2586,
      "s1754d": 2587,
      "s1754e": 2588,
      "s1754f": 2589,
      "s17206": 2590,
      "s17207": 2591,
      "s17208": 2592,
      "s17209": 2593,
      "s1720a": 2594,
      "s1720b": 2595,
      "s1720c": 2596,
      "s1720d": 2597,
      "s1720e": 2598,
      "s1720f": 2599,
      "s17216": 2600,
      "s17217": 2601,
      "s17218": 2602,
      "s17219": 2603,
      "s1721a": 2604,
      "s1721b": 2605,
      "s1721c": 2606,
      "s1721d": 2607,
      "s1721e": 2608,
      "s1721f": 2609,
      "s17306": 2610,
      "s17307": 2611,
      "s17308": 2612,
      "s17309": 2613,
      "s1730a": 2614,
      "s1730b": 2615,
      "s1730c": 2616,
      "s1730d": 2617,
      "s1730e": 2618,
      "s1730f": 2619,
      "s17316": 2620,
      "s17317": 2621,
      "s17318": 2622,
      "s17319": 2623,
      "s1731a": 2624,
      "s1731b": 2625,
      "s1731c": 2626,
      "s1731d": 2627,
      "s1731e": 2628,
      "s1731f": 2629,
      "s17406": 2630,
      "s17407": 2631,
      "s17408": 2632,
      "s17409": 2633,
      "s1740a": 2634,
      "s1740b": 2635,
      "s1740c": 2636,
      "s1740d": 2637,
      "s1740e": 2638,
      "s1740f": 2639,
      "s17416": 2640,
      "s17417": 2641,
      "s17418": 2642,
      "s17419": 2643,
      "s1741a": 2644,
      "s1741b": 2645,
      "s1741c": 2646,
      "s1741d": 2647,
      "s1741e": 2648,
      "s1741f": 2649,
      "s17426": 2650,
      "s17427": 2651,
      "s17428": 2652,
      "s17429": 2653,
      "s1742a": 2654,
      "s1742b": 2655,
      "s1742c": 2656,
      "s1742d": 2657,
      "s1742e": 2658,
      "s1742f": 2659,
      "s17436": 2660,
      "s17437": 2661,
      "s17438": 2662,
      "s17439": 2663,
      "s1743a": 2664,
      "s1743b": 2665,
      "s1743c": 2666,
      "s1743d": 2667,
      "s1743e": 2668,
      "s1743f": 2669,
      "s17506": 2670,
      "s17507": 2671,
      "s17508": 2672,
      "s17509": 2673,
      "s1750a": 2674,
      "s1750b": 2675,
      "s1750c": 2676,
      "s1750d": 2677,
      "s1750e": 2678,
      "s1750f": 2679,
      "s17516": 2680,
      "s17517": 2681,
      "s17518": 2682,
      "s17519": 2683,
      "s1751a": 2684,
      "s1751b": 2685,
      "s1751c": 2686,
      "s1751d": 2687,
      "s1751e": 2688,
      "s1751f": 2689,
      "s17526": 2690,
      "s17527": 2691,
      "s17528": 2692,
      "s17529": 2693,
      "s1752a": 2694,
      "s1752b": 2695,
      "s1752c": 2696,
      "s1752d": 2697,
      "s1752e": 2698,
      "s1752f": 2699,
      "s17536": 2700,
      "s17537": 2701,
      "s17538": 2702,
      "s17539": 2703,
      "s1753a": 2704,
      "s1753b": 2705,
      "s1753c": 2706,
      "s1753d": 2707,
      "s1753e": 2708,
      "s1753f": 2709,
      "s180": 2710,
      "s181": 2711,
      "s182": 2712,
      "s183": 2713,
      "s184": 2714,
      "s185": 2715,
      "s1800": 2716,
      "s1811": 2717,
      "s1822": 2718,
      "s1833": 2719,
      "s1844": 2720,
      "s1855": 2721,
      "s1801": 2722,
      "s1802": 2723,
      "s1803": 2724,
      "s1804": 2725,
      "s1805": 2726,
      "s1812": 2727,
      "s1813": 2728,
      "s1814": 2729,
      "s1815": 2730,
      "s1823": 2731,
      "s1824": 2732,
      "s1825": 2733,
      "s1834": 2734,
      "s1835": 2735,
      "s1845": 2736,
      "s1810": 2737,
      "s1832": 2738,
      "s1854": 2739,
      "s1820": 2740,
      "s1821": 2741,
      "s1830": 2742,
      "s1831": 2743,
      "s1840": 2744,
      "s1841": 2745,
      "s1842": 2746,
      "s1843": 2747,
      "s1850": 2748,
      "s1851": 2749,
      "s1852": 2750,
      "s1853": 2751,
      "s1806": 2752,
      "s1807": 2753,
      "s1808": 2754,
      "s1809": 2755,
      "s180a": 2756,
      "s180b": 2757,
      "s180c": 2758,
      "s180d": 2759,
      "s180e": 2760,
      "s180f": 2761,
      "s1816": 2762,
      "s1817": 2763,
      "s1818": 2764,
      "s1819": 2765,
      "s181a": 2766,
      "s181b": 2767,
      "s181c": 2768,
      "s181d": 2769,
      "s181e": 2770,
      "s181f": 2771,
      "s1826": 2772,
      "s1827": 2773,
      "s1828": 2774,
      "s1829": 2775,
      "s182a": 2776,
      "s182b": 2777,
      "s182c": 2778,
      "s182d": 2779,
      "s182e": 2780,
      "s182f": 2781,
      "s1836": 2782,
      "s1837": 2783,
      "s1838": 2784,
      "s1839": 2785,
      "s183a": 2786,
      "s183b": 2787,
      "s183c": 2788,
      "s183d": 2789,
      "s183e": 2790,
      "s183f": 2791,
      "s1846": 2792,
      "s1847": 2793,
      "s1848": 2794,
      "s1849": 2795,
      "s184a": 2796,
      "s184b": 2797,
      "s184c": 2798,
      "s184d": 2799,
      "s184e": 2800,
      "s184f": 2801,
      "s1856": 2802,
      "s1857": 2803,
      "s1858": 2804,
      "s1859": 2805,
      "s185a": 2806,
      "s185b": 2807,
      "s185c": 2808,
      "s185d": 2809,
      "s185e": 2810,
      "s185f": 2811,
      "s18011": 2812,
      "s18022": 2813,
      "s18033": 2814,
      "s18044": 2815,
      "s18055": 2816,
      "s18000": 2817,
      "s18001": 2818,
      "s18002": 2819,
      "s18003": 2820,
      "s18004": 2821,
      "s18005": 2822,
      "s18006": 2823,
      "s18007": 2824,
      "s18008": 2825,
      "s18009": 2826,
      "s1800a": 2827,
      "s1800b": 2828,
      "s1800c": 2829,
      "s1800d": 2830,
      "s1800e": 2831,
      "s1800f": 2832,
      "s18110": 2833,
      "s18111": 2834,
      "s18112": 2835,
      "s18113": 2836,
      "s18114": 2837,
      "s18115": 2838,
      "s18116": 2839,
      "s18117": 2840,
      "s18118": 2841,
      "s18119": 2842,
      "s1811a": 2843,
      "s1811b": 2844,
      "s1811c": 2845,
      "s1811d": 2846,
      "s1811e": 2847,
      "s1811f": 2848,
      "s18220": 2849,
      "s18221": 2850,
      "s18222": 2851,
      "s18223": 2852,
      "s18224": 2853,
      "s18225": 2854,
      "s18226": 2855,
      "s18227": 2856,
      "s18228": 2857,
      "s18229": 2858,
      "s1822a": 2859,
      "s1822b": 2860,
      "s1822c": 2861,
      "s1822d": 2862,
      "s1822e": 2863,
      "s1822f": 2864,
      "s18330": 2865,
      "s18331": 2866,
      "s18332": 2867,
      "s18333": 2868,
      "s18334": 2869,
      "s18335": 2870,
      "s18336": 2871,
      "s18337": 2872,
      "s18338": 2873,
      "s18339": 2874,
      "s1833a": 2875,
      "s1833b": 2876,
      "s1833c": 2877,
      "s1833d": 2878,
      "s1833e": 2879,
      "s1833f": 2880,
      "s18440": 2881,
      "s18441": 2882,
      "s18442": 2883,
      "s18443": 2884,
      "s18444": 2885,
      "s18445": 2886,
      "s18446": 2887,
      "s18447": 2888,
      "s18448": 2889,
      "s18449": 2890,
      "s1844a": 2891,
      "s1844b": 2892,
      "s1844c": 2893,
      "s1844d": 2894,
      "s1844e": 2895,
      "s1844f": 2896,
      "s18550": 2897,
      "s18551": 2898,
      "s18552": 2899,
      "s18553": 2900,
      "s18554": 2901,
      "s18555": 2902,
      "s18556": 2903,
      "s18557": 2904,
      "s18558": 2905,
      "s18559": 2906,
      "s1855a": 2907,
      "s1855b": 2908,
      "s1855c": 2909,
      "s1855d": 2910,
      "s1855e": 2911,
      "s1855f": 2912,
      "s18010": 2913,
      "s18012": 2914,
      "s18013": 2915,
      "s18014": 2916,
      "s18015": 2917,
      "s18016": 2918,
      "s18017": 2919,
      "s18018": 2920,
      "s18019": 2921,
      "s1801a": 2922,
      "s1801b": 2923,
      "s1801c": 2924,
      "s1801d": 2925,
      "s1801e": 2926,
      "s1801f": 2927,
      "s18020": 2928,
      "s18021": 2929,
      "s18023": 2930,
      "s18024": 2931,
      "s18025": 2932,
      "s18026": 2933,
      "s18027": 2934,
      "s18028": 2935,
      "s18029": 2936,
      "s1802a": 2937,
      "s1802b": 2938,
      "s1802c": 2939,
      "s1802d": 2940,
      "s1802e": 2941,
      "s1802f": 2942,
      "s18030": 2943,
      "s18031": 2944,
      "s18032": 2945,
      "s18034": 2946,
      "s18035": 2947,
      "s18036": 2948,
      "s18037": 2949,
      "s18038": 2950,
      "s18039": 2951,
      "s1803a": 2952,
      "s1803b": 2953,
      "s1803c": 2954,
      "s1803d": 2955,
      "s1803e": 2956,
      "s1803f": 2957,
      "s18040": 2958,
      "s18041": 2959,
      "s18042": 2960,
      "s18043": 2961,
      "s18045": 2962,
      "s18046": 2963,
      "s18047": 2964,
      "s18048": 2965,
      "s18049": 2966,
      "s1804a": 2967,
      "s1804b": 2968,
      "s1804c": 2969,
      "s1804d": 2970,
      "s1804e": 2971,
      "s1804f": 2972,
      "s18050": 2973,
      "s18051": 2974,
      "s18052": 2975,
      "s18053": 2976,
      "s18054": 2977,
      "s18056": 2978,
      "s18057": 2979,
      "s18058": 2980,
      "s18059": 2981,
      "s1805a": 2982,
      "s1805b": 2983,
      "s1805c": 2984,
      "s1805d": 2985,
      "s1805e": 2986,
      "s1805f": 2987,
      "s18100": 2988,
      "s18122": 2989,
      "s18133": 2990,
      "s18144": 2991,
      "s18155": 2992,
      "s18101": 2993,
      "s18102": 2994,
      "s18103": 2995,
      "s18104": 2996,
      "s18105": 2997,
      "s18200": 2998,
      "s18211": 2999,
      "s18233": 3000,
      "s18244": 3001,
      "s18255": 3002,
      "s18201": 3003,
      "s18202": 3004,
      "s18203": 3005,
      "s18204": 3006,
      "s18205": 3007,
      "s18212": 3008,
      "s18213": 3009,
      "s18214": 3010,
      "s18215": 3011,
      "s18210": 3012,
      "s18300": 3013,
      "s18311": 3014,
      "s18322": 3015,
      "s18344": 3016,
      "s18355": 3017,
      "s18301": 3018,
      "s18302": 3019,
      "s18303": 3020,
      "s18304": 3021,
      "s18305": 3022,
      "s18312": 3023,
      "s18313": 3024,
      "s18314": 3025,
      "s18315": 3026,
      "s18323": 3027,
      "s18324": 3028,
      "s18325": 3029,
      "s18310": 3030,
      "s18400": 3031,
      "s18411": 3032,
      "s18422": 3033,
      "s18433": 3034,
      "s18455": 3035,
      "s18401": 3036,
      "s18402": 3037,
      "s18403": 3038,
      "s18404": 3039,
      "s18405": 3040,
      "s18412": 3041,
      "s18413": 3042,
      "s18414": 3043,
      "s18415": 3044,
      "s18423": 3045,
      "s18424": 3046,
      "s18425": 3047,
      "s18434": 3048,
      "s18435": 3049,
      "s18410": 3050,
      "s18432": 3051,
      "s18420": 3052,
      "s18421": 3053,
      "s18430": 3054,
      "s18431": 3055,
      "s18500": 3056,
      "s18511": 3057,
      "s18522": 3058,
      "s18533": 3059,
      "s18544": 3060,
      "s18501": 3061,
      "s18502": 3062,
      "s18503": 3063,
      "s18504": 3064,
      "s18505": 3065,
      "s18512": 3066,
      "s18513": 3067,
      "s18514": 3068,
      "s18515": 3069,
      "s18523": 3070,
      "s18524": 3071,
      "s18525": 3072,
      "s18534": 3073,
      "s18535": 3074,
      "s18545": 3075,
      "s18510": 3076,
      "s18532": 3077,
      "s18520": 3078,
      "s18521": 3079,
      "s18530": 3080,
      "s18531": 3081,
      "s18120": 3082,
      "s18121": 3083,
      "s18123": 3084,
      "s18124": 3085,
      "s18125": 3086,
      "s18126": 3087,
      "s18127": 3088,
      "s18128": 3089,
      "s18129": 3090,
      "s1812a": 3091,
      "s1812b": 3092,
      "s1812c": 3093,
      "s1812d": 3094,
      "s1812e": 3095,
      "s1812f": 3096,
      "s18130": 3097,
      "s18131": 3098,
      "s18132": 3099,
      "s18134": 3100,
      "s18135": 3101,
      "s18136": 3102,
      "s18137": 3103,
      "s18138": 3104,
      "s18139": 3105,
      "s1813a": 3106,
      "s1813b": 3107,
      "s1813c": 3108,
      "s1813d": 3109,
      "s1813e": 3110,
      "s1813f": 3111,
      "s18140": 3112,
      "s18141": 3113,
      "s18142": 3114,
      "s18143": 3115,
      "s18145": 3116,
      "s18146": 3117,
      "s18147": 3118,
      "s18148": 3119,
      "s18149": 3120,
      "s1814a": 3121,
      "s1814b": 3122,
      "s1814c": 3123,
      "s1814d": 3124,
      "s1814e": 3125,
      "s1814f": 3126,
      "s18150": 3127,
      "s18151": 3128,
      "s18152": 3129,
      "s18153": 3130,
      "s18154": 3131,
      "s18156": 3132,
      "s18157": 3133,
      "s18158": 3134,
      "s18159": 3135,
      "s1815a": 3136,
      "s1815b": 3137,
      "s1815c": 3138,
      "s1815d": 3139,
      "s1815e": 3140,
      "s1815f": 3141,
      "s18230": 3142,
      "s18231": 3143,
      "s18232": 3144,
      "s18234": 3145,
      "s18235": 3146,
      "s18236": 3147,
      "s18237": 3148,
      "s18238": 3149,
      "s18239": 3150,
      "s1823a": 3151,
      "s1823b": 3152,
      "s1823c": 3153,
      "s1823d": 3154,
      "s1823e": 3155,
      "s1823f": 3156,
      "s18240": 3157,
      "s18241": 3158,
      "s18242": 3159,
      "s18243": 3160,
      "s18245": 3161,
      "s18246": 3162,
      "s18247": 3163,
      "s18248": 3164,
      "s18249": 3165,
      "s1824a": 3166,
      "s1824b": 3167,
      "s1824c": 3168,
      "s1824d": 3169,
      "s1824e": 3170,
      "s1824f": 3171,
      "s18250": 3172,
      "s18251": 3173,
      "s18252": 3174,
      "s18253": 3175,
      "s18254": 3176,
      "s18256": 3177,
      "s18257": 3178,
      "s18258": 3179,
      "s18259": 3180,
      "s1825a": 3181,
      "s1825b": 3182,
      "s1825c": 3183,
      "s1825d": 3184,
      "s1825e": 3185,
      "s1825f": 3186,
      "s18340": 3187,
      "s18341": 3188,
      "s18342": 3189,
      "s18343": 3190,
      "s18345": 3191,
      "s18346": 3192,
      "s18347": 3193,
      "s18348": 3194,
      "s18349": 3195,
      "s1834a": 3196,
      "s1834b": 3197,
      "s1834c": 3198,
      "s1834d": 3199,
      "s1834e": 3200,
      "s1834f": 3201,
      "s18350": 3202,
      "s18351": 3203,
      "s18352": 3204,
      "s18353": 3205,
      "s18354": 3206,
      "s18356": 3207,
      "s18357": 3208,
      "s18358": 3209,
      "s18359": 3210,
      "s1835a": 3211,
      "s1835b": 3212,
      "s1835c": 3213,
      "s1835d": 3214,
      "s1835e": 3215,
      "s1835f": 3216,
      "s18450": 3217,
      "s18451": 3218,
      "s18452": 3219,
      "s18453": 3220,
      "s18454": 3221,
      "s18456": 3222,
      "s18457": 3223,
      "s18458": 3224,
      "s18459": 3225,
      "s1845a": 3226,
      "s1845b": 3227,
      "s1845c": 3228,
      "s1845d": 3229,
      "s1845e": 3230,
      "s1845f": 3231,
      "s18106": 3232,
      "s18107": 3233,
      "s18108": 3234,
      "s18109": 3235,
      "s1810a": 3236,
      "s1810b": 3237,
      "s1810c": 3238,
      "s1810d": 3239,
      "s1810e": 3240,
      "s1810f": 3241,
      "s18320": 3242,
      "s18321": 3243,
      "s18326": 3244,
      "s18327": 3245,
      "s18328": 3246,
      "s18329": 3247,
      "s1832a": 3248,
      "s1832b": 3249,
      "s1832c": 3250,
      "s1832d": 3251,
      "s1832e": 3252,
      "s1832f": 3253,
      "s18540": 3254,
      "s18541": 3255,
      "s18542": 3256,
      "s18543": 3257,
      "s18546": 3258,
      "s18547": 3259,
      "s18548": 3260,
      "s18549": 3261,
      "s1854a": 3262,
      "s1854b": 3263,
      "s1854c": 3264,
      "s1854d": 3265,
      "s1854e": 3266,
      "s1854f": 3267,
      "s18206": 3268,
      "s18207": 3269,
      "s18208": 3270,
      "s18209": 3271,
      "s1820a": 3272,
      "s1820b": 3273,
      "s1820c": 3274,
      "s1820d": 3275,
      "s1820e": 3276,
      "s1820f": 3277,
      "s18216": 3278,
      "s18217": 3279,
      "s18218": 3280,
      "s18219": 3281,
      "s1821a": 3282,
      "s1821b": 3283,
      "s1821c": 3284,
      "s1821d": 3285,
      "s1821e": 3286,
      "s1821f": 3287,
      "s18306": 3288,
      "s18307": 3289,
      "s18308": 3290,
      "s18309": 3291,
      "s1830a": 3292,
      "s1830b": 3293,
      "s1830c": 3294,
      "s1830d": 3295,
      "s1830e": 3296,
      "s1830f": 3297,
      "s18316": 3298,
      "s18317": 3299,
      "s18318": 3300,
      "s18319": 3301,
      "s1831a": 3302,
      "s1831b": 3303,
      "s1831c": 3304,
      "s1831d": 3305,
      "s1831e": 3306,
      "s1831f": 3307,
      "s18406": 3308,
      "s18407": 3309,
      "s18408": 3310,
      "s18409": 3311,
      "s1840a": 3312,
      "s1840b": 3313,
      "s1840c": 3314,
      "s1840d": 3315,
      "s1840e": 3316,
      "s1840f": 3317,
      "s18416": 3318,
      "s18417": 3319,
      "s18418": 3320,
      "s18419": 3321,
      "s1841a": 3322,
      "s1841b": 3323,
      "s1841c": 3324,
      "s1841d": 3325,
      "s1841e": 3326,
      "s1841f": 3327,
      "s18426": 3328,
      "s18427": 3329,
      "s18428": 3330,
      "s18429": 3331,
      "s1842a": 3332,
      "s1842b": 3333,
      "s1842c": 3334,
      "s1842d": 3335,
      "s1842e": 3336,
      "s1842f": 3337,
      "s18436": 3338,
      "s18437": 3339,
      "s18438": 3340,
      "s18439": 3341,
      "s1843a": 3342,
      "s1843b": 3343,
      "s1843c": 3344,
      "s1843d": 3345,
      "s1843e": 3346,
      "s1843f": 3347,
      "s18506": 3348,
      "s18507": 3349,
      "s18508": 3350,
      "s18509": 3351,
      "s1850a": 3352,
      "s1850b": 3353,
      "s1850c": 3354,
      "s1850d": 3355,
      "s1850e": 3356,
      "s1850f": 3357,
      "s18516": 3358,
      "s18517": 3359,
      "s18518": 3360,
      "s18519": 3361,
      "s1851a": 3362,
      "s1851b": 3363,
      "s1851c": 3364,
      "s1851d": 3365,
      "s1851e": 3366,
      "s1851f": 3367,
      "s18526": 3368,
      "s18527": 3369,
      "s18528": 3370,
      "s18529": 3371,
      "s1852a": 3372,
      "s1852b": 3373,
      "s1852c": 3374,
      "s1852d": 3375,
      "s1852e": 3376,
      "s1852f": 3377,
      "s18536": 3378,
      "s18537": 3379,
      "s18538": 3380,
      "s18539": 3381,
      "s1853a": 3382,
      "s1853b": 3383,
      "s1853c": 3384,
      "s1853d": 3385,
      "s1853e": 3386,
      "s1853f": 3387,
      "s190": 3388,
      "s191": 3389,
      "s192": 3390,
      "s193": 3391,
      "s194": 3392,
      "s195": 3393,
      "s1900": 3394,
      "s1911": 3395,
      "s1922": 3396,
      "s1933": 3397,
      "s1944": 3398,
      "s1955": 3399,
      "s1901": 3400,
      "s1902": 3401,
      "s1903": 3402,
      "s1904": 3403,
      "s1905": 3404,
      "s1912": 3405,
      "s1913": 3406,
      "s1914": 3407,
      "s1915": 3408,
      "s1923": 3409,
      "s1924": 3410,
      "s1925": 3411,
      "s1934": 3412,
      "s1935": 3413,
      "s1945": 3414,
      "s1910": 3415,
      "s1932": 3416,
      "s1954": 3417,
      "s1920": 3418,
      "s1921": 3419,
      "s1930": 3420,
      "s1931": 3421,
      "s1940": 3422,
      "s1941": 3423,
      "s1942": 3424,
      "s1943": 3425,
      "s1950": 3426,
      "s1951": 3427,
      "s1952": 3428,
      "s1953": 3429,
      "s1906": 3430,
      "s1907": 3431,
      "s1908": 3432,
      "s1909": 3433,
      "s190a": 3434,
      "s190b": 3435,
      "s190c": 3436,
      "s190d": 3437,
      "s190e": 3438,
      "s190f": 3439,
      "s1916": 3440,
      "s1917": 3441,
      "s1918": 3442,
      "s1919": 3443,
      "s191a": 3444,
      "s191b": 3445,
      "s191c": 3446,
      "s191d": 3447,
      "s191e": 3448,
      "s191f": 3449,
      "s1926": 3450,
      "s1927": 3451,
      "s1928": 3452,
      "s1929": 3453,
      "s192a": 3454,
      "s192b": 3455,
      "s192c": 3456,
      "s192d": 3457,
      "s192e": 3458,
      "s192f": 3459,
      "s1936": 3460,
      "s1937": 3461,
      "s1938": 3462,
      "s1939": 3463,
      "s193a": 3464,
      "s193b": 3465,
      "s193c": 3466,
      "s193d": 3467,
      "s193e": 3468,
      "s193f": 3469,
      "s1946": 3470,
      "s1947": 3471,
      "s1948": 3472,
      "s1949": 3473,
      "s194a": 3474,
      "s194b": 3475,
      "s194c": 3476,
      "s194d": 3477,
      "s194e": 3478,
      "s194f": 3479,
      "s1956": 3480,
      "s1957": 3481,
      "s1958": 3482,
      "s1959": 3483,
      "s195a": 3484,
      "s195b": 3485,
      "s195c": 3486,
      "s195d": 3487,
      "s195e": 3488,
      "s195f": 3489,
      "s19011": 3490,
      "s19022": 3491,
      "s19033": 3492,
      "s19044": 3493,
      "s19055": 3494,
      "s19000": 3495,
      "s19001": 3496,
      "s19002": 3497,
      "s19003": 3498,
      "s19004": 3499,
      "s19005": 3500,
      "s19006": 3501,
      "s19007": 3502,
      "s19008": 3503,
      "s19009": 3504,
      "s1900a": 3505,
      "s1900b": 3506,
      "s1900c": 3507,
      "s1900d": 3508,
      "s1900e": 3509,
      "s1900f": 3510,
      "s19110": 3511,
      "s19111": 3512,
      "s19112": 3513,
      "s19113": 3514,
      "s19114": 3515,
      "s19115": 3516,
      "s19116": 3517,
      "s19117": 3518,
      "s19118": 3519,
      "s19119": 3520,
      "s1911a": 3521,
      "s1911b": 3522,
      "s1911c": 3523,
      "s1911d": 3524,
      "s1911e": 3525,
      "s1911f": 3526,
      "s19220": 3527,
      "s19221": 3528,
      "s19222": 3529,
      "s19223": 3530,
      "s19224": 3531,
      "s19225": 3532,
      "s19226": 3533,
      "s19227": 3534,
      "s19228": 3535,
      "s19229": 3536,
      "s1922a": 3537,
      "s1922b": 3538,
      "s1922c": 3539,
      "s1922d": 3540,
      "s1922e": 3541,
      "s1922f": 3542,
      "s19330": 3543,
      "s19331": 3544,
      "s19332": 3545,
      "s19333": 3546,
      "s19334": 3547,
      "s19335": 3548,
      "s19336": 3549,
      "s19337": 3550,
      "s19338": 3551,
      "s19339": 3552,
      "s1933a": 3553,
      "s1933b": 3554,
      "s1933c": 3555,
      "s1933d": 3556,
      "s1933e": 3557,
      "s1933f": 3558,
      "s19440": 3559,
      "s19441": 3560,
      "s19442": 3561,
      "s19443": 3562,
      "s19444": 3563,
      "s19445": 3564,
      "s19446": 3565,
      "s19447": 3566,
      "s19448": 3567,
      "s19449": 3568,
      "s1944a": 3569,
      "s1944b": 3570,
      "s1944c": 3571,
      "s1944d": 3572,
      "s1944e": 3573,
      "s1944f": 3574,
      "s19550": 3575,
      "s19551": 3576,
      "s19552": 3577,
      "s19553": 3578,
      "s19554": 3579,
      "s19555": 3580,
      "s19556": 3581,
      "s19557": 3582,
      "s19558": 3583,
      "s19559": 3584,
      "s1955a": 3585,
      "s1955b": 3586,
      "s1955c": 3587,
      "s1955d": 3588,
      "s1955e": 3589,
      "s1955f": 3590,
      "s19010": 3591,
      "s19012": 3592,
      "s19013": 3593,
      "s19014": 3594,
      "s19015": 3595,
      "s19016": 3596,
      "s19017": 3597,
      "s19018": 3598,
      "s19019": 3599,
      "s1901a": 3600,
      "s1901b": 3601,
      "s1901c": 3602,
      "s1901d": 3603,
      "s1901e": 3604,
      "s1901f": 3605,
      "s19020": 3606,
      "s19021": 3607,
      "s19023": 3608,
      "s19024": 3609,
      "s19025": 3610,
      "s19026": 3611,
      "s19027": 3612,
      "s19028": 3613,
      "s19029": 3614,
      "s1902a": 3615,
      "s1902b": 3616,
      "s1902c": 3617,
      "s1902d": 3618,
      "s1902e": 3619,
      "s1902f": 3620,
      "s19030": 3621,
      "s19031": 3622,
      "s19032": 3623,
      "s19034": 3624,
      "s19035": 3625,
      "s19036": 3626,
      "s19037": 3627,
      "s19038": 3628,
      "s19039": 3629,
      "s1903a": 3630,
      "s1903b": 3631,
      "s1903c": 3632,
      "s1903d": 3633,
      "s1903e": 3634,
      "s1903f": 3635,
      "s19040": 3636,
      "s19041": 3637,
      "s19042": 3638,
      "s19043": 3639,
      "s19045": 3640,
      "s19046": 3641,
      "s19047": 3642,
      "s19048": 3643,
      "s19049": 3644,
      "s1904a": 3645,
      "s1904b": 3646,
      "s1904c": 3647,
      "s1904d": 3648,
      "s1904e": 3649,
      "s1904f": 3650,
      "s19050": 3651,
      "s19051": 3652,
      "s19052": 3653,
      "s19053": 3654,
      "s19054": 3655,
      "s19056": 3656,
      "s19057": 3657,
      "s19058": 3658,
      "s19059": 3659,
      "s1905a": 3660,
      "s1905b": 3661,
      "s1905c": 3662,
      "s1905d": 3663,
      "s1905e": 3664,
      "s1905f": 3665,
      "s19100": 3666,
      "s19122": 3667,
      "s19133": 3668,
      "s19144": 3669,
      "s19155": 3670,
      "s19101": 3671,
      "s19102": 3672,
      "s19103": 3673,
      "s19104": 3674,
      "s19105": 3675,
      "s19200": 3676,
      "s19211": 3677,
      "s19233": 3678,
      "s19244": 3679,
      "s19255": 3680,
      "s19201": 3681,
      "s19202": 3682,
      "s19203": 3683,
      "s19204": 3684,
      "s19205": 3685,
      "s19212": 3686,
      "s19213": 3687,
      "s19214": 3688,
      "s19215": 3689,
      "s19210": 3690,
      "s19300": 3691,
      "s19311": 3692,
      "s19322": 3693,
      "s19344": 3694,
      "s19355": 3695,
      "s19301": 3696,
      "s19302": 3697,
      "s19303": 3698,
      "s19304": 3699,
      "s19305": 3700,
      "s19312": 3701,
      "s19313": 3702,
      "s19314": 3703,
      "s19315": 3704,
      "s19323": 3705,
      "s19324": 3706,
      "s19325": 3707,
      "s19310": 3708,
      "s19400": 3709,
      "s19411": 3710,
      "s19422": 3711,
      "s19433": 3712,
      "s19455": 3713,
      "s19401": 3714,
      "s19402": 3715,
      "s19403": 3716,
      "s19404": 3717,
      "s19405": 3718,
      "s19412": 3719,
      "s19413": 3720,
      "s19414": 3721,
      "s19415": 3722,
      "s19423": 3723,
      "s19424": 3724,
      "s19425": 3725,
      "s19434": 3726,
      "s19435": 3727,
      "s19410": 3728,
      "s19432": 3729,
      "s19420": 3730,
      "s19421": 3731,
      "s19430": 3732,
      "s19431": 3733,
      "s19500": 3734,
      "s19511": 3735,
      "s19522": 3736,
      "s19533": 3737,
      "s19544": 3738,
      "s19501": 3739,
      "s19502": 3740,
      "s19503": 3741,
      "s19504": 3742,
      "s19505": 3743,
      "s19512": 3744,
      "s19513": 3745,
      "s19514": 3746,
      "s19515": 3747,
      "s19523": 3748,
      "s19524": 3749,
      "s19525": 3750,
      "s19534": 3751,
      "s19535": 3752,
      "s19545": 3753,
      "s19510": 3754,
      "s19532": 3755,
      "s19520": 3756,
      "s19521": 3757,
      "s19530": 3758,
      "s19531": 3759,
      "s19120": 3760,
      "s19121": 3761,
      "s19123": 3762,
      "s19124": 3763,
      "s19125": 3764,
      "s19126": 3765,
      "s19127": 3766,
      "s19128": 3767,
      "s19129": 3768,
      "s1912a": 3769,
      "s1912b": 3770,
      "s1912c": 3771,
      "s1912d": 3772,
      "s1912e": 3773,
      "s1912f": 3774,
      "s19130": 3775,
      "s19131": 3776,
      "s19132": 3777,
      "s19134": 3778,
      "s19135": 3779,
      "s19136": 3780,
      "s19137": 3781,
      "s19138": 3782,
      "s19139": 3783,
      "s1913a": 3784,
      "s1913b": 3785,
      "s1913c": 3786,
      "s1913d": 3787,
      "s1913e": 3788,
      "s1913f": 3789,
      "s19140": 3790,
      "s19141": 3791,
      "s19142": 3792,
      "s19143": 3793,
      "s19145": 3794,
      "s19146": 3795,
      "s19147": 3796,
      "s19148": 3797,
      "s19149": 3798,
      "s1914a": 3799,
      "s1914b": 3800,
      "s1914c": 3801,
      "s1914d": 3802,
      "s1914e": 3803,
      "s1914f": 3804,
      "s19150": 3805,
      "s19151": 3806,
      "s19152": 3807,
      "s19153": 3808,
      "s19154": 3809,
      "s19156": 3810,
      "s19157": 3811,
      "s19158": 3812,
      "s19159": 3813,
      "s1915a": 3814,
      "s1915b": 3815,
      "s1915c": 3816,
      "s1915d": 3817,
      "s1915e": 3818,
      "s1915f": 3819,
      "s19230": 3820,
      "s19231": 3821,
      "s19232": 3822,
      "s19234": 3823,
      "s19235": 3824,
      "s19236": 3825,
      "s19237": 3826,
      "s19238": 3827,
      "s19239": 3828,
      "s1923a": 3829,
      "s1923b": 3830,
      "s1923c": 3831,
      "s1923d": 3832,
      "s1923e": 3833,
      "s1923f": 3834,
      "s19240": 3835,
      "s19241": 3836,
      "s19242": 3837,
      "s19243": 3838,
      "s19245": 3839,
      "s19246": 3840,
      "s19247": 3841,
      "s19248": 3842,
      "s19249": 3843,
      "s1924a": 3844,
      "s1924b": 3845,
      "s1924c": 3846,
      "s1924d": 3847,
      "s1924e": 3848,
      "s1924f": 3849,
      "s19250": 3850,
      "s19251": 3851,
      "s19252": 3852,
      "s19253": 3853,
      "s19254": 3854,
      "s19256": 3855,
      "s19257": 3856,
      "s19258": 3857,
      "s19259": 3858,
      "s1925a": 3859,
      "s1925b": 3860,
      "s1925c": 3861,
      "s1925d": 3862,
      "s1925e": 3863,
      "s1925f": 3864,
      "s19340": 3865,
      "s19341": 3866,
      "s19342": 3867,
      "s19343": 3868,
      "s19345": 3869,
      "s19346": 3870,
      "s19347": 3871,
      "s19348": 3872,
      "s19349": 3873,
      "s1934a": 3874,
      "s1934b": 3875,
      "s1934c": 3876,
      "s1934d": 3877,
      "s1934e": 3878,
      "s1934f": 3879,
      "s19350": 3880,
      "s19351": 3881,
      "s19352": 3882,
      "s19353": 3883,
      "s19354": 3884,
      "s19356": 3885,
      "s19357": 3886,
      "s19358": 3887,
      "s19359": 3888,
      "s1935a": 3889,
      "s1935b": 3890,
      "s1935c": 3891,
      "s1935d": 3892,
      "s1935e": 3893,
      "s1935f": 3894,
      "s19450": 3895,
      "s19451": 3896,
      "s19452": 3897,
      "s19453": 3898,
      "s19454": 3899,
      "s19456": 3900,
      "s19457": 3901,
      "s19458": 3902,
      "s19459": 3903,
      "s1945a": 3904,
      "s1945b": 3905,
      "s1945c": 3906,
      "s1945d": 3907,
      "s1945e": 3908,
      "s1945f": 3909,
      "s19106": 3910,
      "s19107": 3911,
      "s19108": 3912,
      "s19109": 3913,
      "s1910a": 3914,
      "s1910b": 3915,
      "s1910c": 3916,
      "s1910d": 3917,
      "s1910e": 3918,
      "s1910f": 3919,
      "s19320": 3920,
      "s19321": 3921,
      "s19326": 3922,
      "s19327": 3923,
      "s19328": 3924,
      "s19329": 3925,
      "s1932a": 3926,
      "s1932b": 3927,
      "s1932c": 3928,
      "s1932d": 3929,
      "s1932e": 3930,
      "s1932f": 3931,
      "s19540": 3932,
      "s19541": 3933,
      "s19542": 3934,
      "s19543": 3935,
      "s19546": 3936,
      "s19547": 3937,
      "s19548": 3938,
      "s19549": 3939,
      "s1954a": 3940,
      "s1954b": 3941,
      "s1954c": 3942,
      "s1954d": 3943,
      "s1954e": 3944,
      "s1954f": 3945,
      "s19206": 3946,
      "s19207": 3947,
      "s19208": 3948,
      "s19209": 3949,
      "s1920a": 3950,
      "s1920b": 3951,
      "s1920c": 3952,
      "s1920d": 3953,
      "s1920e": 3954,
      "s1920f": 3955,
      "s19216": 3956,
      "s19217": 3957,
      "s19218": 3958,
      "s19219": 3959,
      "s1921a": 3960,
      "s1921b": 3961,
      "s1921c": 3962,
      "s1921d": 3963,
      "s1921e": 3964,
      "s1921f": 3965,
      "s19306": 3966,
      "s19307": 3967,
      "s19308": 3968,
      "s19309": 3969,
      "s1930a": 3970,
      "s1930b": 3971,
      "s1930c": 3972,
      "s1930d": 3973,
      "s1930e": 3974,
      "s1930f": 3975,
      "s19316": 3976,
      "s19317": 3977,
      "s19318": 3978,
      "s19319": 3979,
      "s1931a": 3980,
      "s1931b": 3981,
      "s1931c": 3982,
      "s1931d": 3983,
      "s1931e": 3984,
      "s1931f": 3985,
      "s19406": 3986,
      "s19407": 3987,
      "s19408": 3988,
      "s19409": 3989,
      "s1940a": 3990,
      "s1940b": 3991,
      "s1940c": 3992,
      "s1940d": 3993,
      "s1940e": 3994,
      "s1940f": 3995,
      "s19416": 3996,
      "s19417": 3997,
      "s19418": 3998,
      "s19419": 3999,
      "s1941a": 4000,
      "s1941b": 4001,
      "s1941c": 4002,
      "s1941d": 4003,
      "s1941e": 4004,
      "s1941f": 4005,
      "s19426": 4006,
      "s19427": 4007,
      "s19428": 4008,
      "s19429": 4009,
      "s1942a": 4010,
      "s1942b": 4011,
      "s1942c": 4012,
      "s1942d": 4013,
      "s1942e": 4014,
      "s1942f": 4015,
      "s19436": 4016,
      "s19437": 4017,
      "s19438": 4018,
      "s19439": 4019,
      "s1943a": 4020,
      "s1943b": 4021,
      "s1943c": 4022,
      "s1943d": 4023,
      "s1943e": 4024,
      "s1943f": 4025,
      "s19506": 4026,
      "s19507": 4027,
      "s19508": 4028,
      "s19509": 4029,
      "s1950a": 4030,
      "s1950b": 4031,
      "s1950c": 4032,
      "s1950d": 4033,
      "s1950e": 4034,
      "s1950f": 4035,
      "s19516": 4036,
      "s19517": 4037,
      "s19518": 4038,
      "s19519": 4039,
      "s1951a": 4040,
      "s1951b": 4041,
      "s1951c": 4042,
      "s1951d": 4043,
      "s1951e": 4044,
      "s1951f": 4045,
      "s19526": 4046,
      "s19527": 4047,
      "s19528": 4048,
      "s19529": 4049,
      "s1952a": 4050,
      "s1952b": 4051,
      "s1952c": 4052,
      "s1952d": 4053,
      "s1952e": 4054,
      "s1952f": 4055,
      "s19536": 4056,
      "s19537": 4057,
      "s19538": 4058,
      "s19539": 4059,
      "s1953a": 4060,
      "s1953b": 4061,
      "s1953c": 4062,
      "s1953d": 4063,
      "s1953e": 4064,
      "s1953f": 4065,
      "s1a0": 4066,
      "s1a1": 4067,
      "s1a2": 4068,
      "s1a3": 4069,
      "s1a4": 4070,
      "s1a5": 4071,
      "s1a00": 4072,
      "s1a11": 4073,
      "s1a22": 4074,
      "s1a33": 4075,
      "s1a44": 4076,
      "s1a55": 4077,
      "s1a01": 4078,
      "s1a02": 4079,
      "s1a03": 4080,
      "s1a04": 4081,
      "s1a05": 4082,
      "s1a12": 4083,
      "s1a13": 4084,
      "s1a14": 4085,
      "s1a15": 4086,
      "s1a23": 4087,
      "s1a24": 4088,
      "s1a25": 4089,
      "s1a34": 4090,
      "s1a35": 4091,
      "s1a45": 4092,
      "s1a10": 4093,
      "s1a32": 4094,
      "s1a54": 4095,
      "s1a20": 4096,
      "s1a21": 4097,
      "s1a30": 4098,
      "s1a31": 4099,
      "s1a40": 4100,
      "s1a41": 4101,
      "s1a42": 4102,
      "s1a43": 4103,
      "s1a50": 4104,
      "s1a51": 4105,
      "s1a52": 4106,
      "s1a53": 4107,
      "s1a06": 4108,
      "s1a07": 4109,
      "s1a08": 4110,
      "s1a09": 4111,
      "s1a0a": 4112,
      "s1a0b": 4113,
      "s1a0c": 4114,
      "s1a0d": 4115,
      "s1a0e": 4116,
      "s1a0f": 4117,
      "s1a16": 4118,
      "s1a17": 4119,
      "s1a18": 4120,
      "s1a19": 4121,
      "s1a1a": 4122,
      "s1a1b": 4123,
      "s1a1c": 4124,
      "s1a1d": 4125,
      "s1a1e": 4126,
      "s1a1f": 4127,
      "s1a26": 4128,
      "s1a27": 4129,
      "s1a28": 4130,
      "s1a29": 4131,
      "s1a2a": 4132,
      "s1a2b": 4133,
      "s1a2c": 4134,
      "s1a2d": 4135,
      "s1a2e": 4136,
      "s1a2f": 4137,
      "s1a36": 4138,
      "s1a37": 4139,
      "s1a38": 4140,
      "s1a39": 4141,
      "s1a3a": 4142,
      "s1a3b": 4143,
      "s1a3c": 4144,
      "s1a3d": 4145,
      "s1a3e": 4146,
      "s1a3f": 4147,
      "s1a46": 4148,
      "s1a47": 4149,
      "s1a48": 4150,
      "s1a49": 4151,
      "s1a4a": 4152,
      "s1a4b": 4153,
      "s1a4c": 4154,
      "s1a4d": 4155,
      "s1a4e": 4156,
      "s1a4f": 4157,
      "s1a56": 4158,
      "s1a57": 4159,
      "s1a58": 4160,
      "s1a59": 4161,
      "s1a5a": 4162,
      "s1a5b": 4163,
      "s1a5c": 4164,
      "s1a5d": 4165,
      "s1a5e": 4166,
      "s1a5f": 4167,
      "s1a011": 4168,
      "s1a022": 4169,
      "s1a033": 4170,
      "s1a044": 4171,
      "s1a055": 4172,
      "s1a000": 4173,
      "s1a001": 4174,
      "s1a002": 4175,
      "s1a003": 4176,
      "s1a004": 4177,
      "s1a005": 4178,
      "s1a006": 4179,
      "s1a007": 4180,
      "s1a008": 4181,
      "s1a009": 4182,
      "s1a00a": 4183,
      "s1a00b": 4184,
      "s1a00c": 4185,
      "s1a00d": 4186,
      "s1a00e": 4187,
      "s1a00f": 4188,
      "s1a110": 4189,
      "s1a111": 4190,
      "s1a112": 4191,
      "s1a113": 4192,
      "s1a114": 4193,
      "s1a115": 4194,
      "s1a116": 4195,
      "s1a117": 4196,
      "s1a118": 4197,
      "s1a119": 4198,
      "s1a11a": 4199,
      "s1a11b": 4200,
      "s1a11c": 4201,
      "s1a11d": 4202,
      "s1a11e": 4203,
      "s1a11f": 4204,
      "s1a220": 4205,
      "s1a221": 4206,
      "s1a222": 4207,
      "s1a223": 4208,
      "s1a224": 4209,
      "s1a225": 4210,
      "s1a226": 4211,
      "s1a227": 4212,
      "s1a228": 4213,
      "s1a229": 4214,
      "s1a22a": 4215,
      "s1a22b": 4216,
      "s1a22c": 4217,
      "s1a22d": 4218,
      "s1a22e": 4219,
      "s1a22f": 4220,
      "s1a330": 4221,
      "s1a331": 4222,
      "s1a332": 4223,
      "s1a333": 4224,
      "s1a334": 4225,
      "s1a335": 4226,
      "s1a336": 4227,
      "s1a337": 4228,
      "s1a338": 4229,
      "s1a339": 4230,
      "s1a33a": 4231,
      "s1a33b": 4232,
      "s1a33c": 4233,
      "s1a33d": 4234,
      "s1a33e": 4235,
      "s1a33f": 4236,
      "s1a440": 4237,
      "s1a441": 4238,
      "s1a442": 4239,
      "s1a443": 4240,
      "s1a444": 4241,
      "s1a445": 4242,
      "s1a446": 4243,
      "s1a447": 4244,
      "s1a448": 4245,
      "s1a449": 4246,
      "s1a44a": 4247,
      "s1a44b": 4248,
      "s1a44c": 4249,
      "s1a44d": 4250,
      "s1a44e": 4251,
      "s1a44f": 4252,
      "s1a550": 4253,
      "s1a551": 4254,
      "s1a552": 4255,
      "s1a553": 4256,
      "s1a554": 4257,
      "s1a555": 4258,
      "s1a556": 4259,
      "s1a557": 4260,
      "s1a558": 4261,
      "s1a559": 4262,
      "s1a55a": 4263,
      "s1a55b": 4264,
      "s1a55c": 4265,
      "s1a55d": 4266,
      "s1a55e": 4267,
      "s1a55f": 4268,
      "s1a010": 4269,
      "s1a012": 4270,
      "s1a013": 4271,
      "s1a014": 4272,
      "s1a015": 4273,
      "s1a016": 4274,
      "s1a017": 4275,
      "s1a018": 4276,
      "s1a019": 4277,
      "s1a01a": 4278,
      "s1a01b": 4279,
      "s1a01c": 4280,
      "s1a01d": 4281,
      "s1a01e": 4282,
      "s1a01f": 4283,
      "s1a020": 4284,
      "s1a021": 4285,
      "s1a023": 4286,
      "s1a024": 4287,
      "s1a025": 4288,
      "s1a026": 4289,
      "s1a027": 4290,
      "s1a028": 4291,
      "s1a029": 4292,
      "s1a02a": 4293,
      "s1a02b": 4294,
      "s1a02c": 4295,
      "s1a02d": 4296,
      "s1a02e": 4297,
      "s1a02f": 4298,
      "s1a030": 4299,
      "s1a031": 4300,
      "s1a032": 4301,
      "s1a034": 4302,
      "s1a035": 4303,
      "s1a036": 4304,
      "s1a037": 4305,
      "s1a038": 4306,
      "s1a039": 4307,
      "s1a03a": 4308,
      "s1a03b": 4309,
      "s1a03c": 4310,
      "s1a03d": 4311,
      "s1a03e": 4312,
      "s1a03f": 4313,
      "s1a040": 4314,
      "s1a041": 4315,
      "s1a042": 4316,
      "s1a043": 4317,
      "s1a045": 4318,
      "s1a046": 4319,
      "s1a047": 4320,
      "s1a048": 4321,
      "s1a049": 4322,
      "s1a04a": 4323,
      "s1a04b": 4324,
      "s1a04c": 4325,
      "s1a04d": 4326,
      "s1a04e": 4327,
      "s1a04f": 4328,
      "s1a050": 4329,
      "s1a051": 4330,
      "s1a052": 4331,
      "s1a053": 4332,
      "s1a054": 4333,
      "s1a056": 4334,
      "s1a057": 4335,
      "s1a058": 4336,
      "s1a059": 4337,
      "s1a05a": 4338,
      "s1a05b": 4339,
      "s1a05c": 4340,
      "s1a05d": 4341,
      "s1a05e": 4342,
      "s1a05f": 4343,
      "s1a100": 4344,
      "s1a122": 4345,
      "s1a133": 4346,
      "s1a144": 4347,
      "s1a155": 4348,
      "s1a101": 4349,
      "s1a102": 4350,
      "s1a103": 4351,
      "s1a104": 4352,
      "s1a105": 4353,
      "s1a200": 4354,
      "s1a211": 4355,
      "s1a233": 4356,
      "s1a244": 4357,
      "s1a255": 4358,
      "s1a201": 4359,
      "s1a202": 4360,
      "s1a203": 4361,
      "s1a204": 4362,
      "s1a205": 4363,
      "s1a212": 4364,
      "s1a213": 4365,
      "s1a214": 4366,
      "s1a215": 4367,
      "s1a210": 4368,
      "s1a300": 4369,
      "s1a311": 4370,
      "s1a322": 4371,
      "s1a344": 4372,
      "s1a355": 4373,
      "s1a301": 4374,
      "s1a302": 4375,
      "s1a303": 4376,
      "s1a304": 4377,
      "s1a305": 4378,
      "s1a312": 4379,
      "s1a313": 4380,
      "s1a314": 4381,
      "s1a315": 4382,
      "s1a323": 4383,
      "s1a324": 4384,
      "s1a325": 4385,
      "s1a310": 4386,
      "s1a400": 4387,
      "s1a411": 4388,
      "s1a422": 4389,
      "s1a433": 4390,
      "s1a455": 4391,
      "s1a401": 4392,
      "s1a402": 4393,
      "s1a403": 4394,
      "s1a404": 4395,
      "s1a405": 4396,
      "s1a412": 4397,
      "s1a413": 4398,
      "s1a414": 4399,
      "s1a415": 4400,
      "s1a423": 4401,
      "s1a424": 4402,
      "s1a425": 4403,
      "s1a434": 4404,
      "s1a435": 4405,
      "s1a410": 4406,
      "s1a432": 4407,
      "s1a420": 4408,
      "s1a421": 4409,
      "s1a430": 4410,
      "s1a431": 4411,
      "s1a500": 4412,
      "s1a511": 4413,
      "s1a522": 4414,
      "s1a533": 4415,
      "s1a544": 4416,
      "s1a501": 4417,
      "s1a502": 4418,
      "s1a503": 4419,
      "s1a504": 4420,
      "s1a505": 4421,
      "s1a512": 4422,
      "s1a513": 4423,
      "s1a514": 4424,
      "s1a515": 4425,
      "s1a523": 4426,
      "s1a524": 4427,
      "s1a525": 4428,
      "s1a534": 4429,
      "s1a535": 4430,
      "s1a545": 4431,
      "s1a510": 4432,
      "s1a532": 4433,
      "s1a520": 4434,
      "s1a521": 4435,
      "s1a530": 4436,
      "s1a531": 4437,
      "s1a120": 4438,
      "s1a121": 4439,
      "s1a123": 4440,
      "s1a124": 4441,
      "s1a125": 4442,
      "s1a126": 4443,
      "s1a127": 4444,
      "s1a128": 4445,
      "s1a129": 4446,
      "s1a12a": 4447,
      "s1a12b": 4448,
      "s1a12c": 4449,
      "s1a12d": 4450,
      "s1a12e": 4451,
      "s1a12f": 4452,
      "s1a130": 4453,
      "s1a131": 4454,
      "s1a132": 4455,
      "s1a134": 4456,
      "s1a135": 4457,
      "s1a136": 4458,
      "s1a137": 4459,
      "s1a138": 4460,
      "s1a139": 4461,
      "s1a13a": 4462,
      "s1a13b": 4463,
      "s1a13c": 4464,
      "s1a13d": 4465,
      "s1a13e": 4466,
      "s1a13f": 4467,
      "s1a140": 4468,
      "s1a141": 4469,
      "s1a142": 4470,
      "s1a143": 4471,
      "s1a145": 4472,
      "s1a146": 4473,
      "s1a147": 4474,
      "s1a148": 4475,
      "s1a149": 4476,
      "s1a14a": 4477,
      "s1a14b": 4478,
      "s1a14c": 4479,
      "s1a14d": 4480,
      "s1a14e": 4481,
      "s1a14f": 4482,
      "s1a150": 4483,
      "s1a151": 4484,
      "s1a152": 4485,
      "s1a153": 4486,
      "s1a154": 4487,
      "s1a156": 4488,
      "s1a157": 4489,
      "s1a158": 4490,
      "s1a159": 4491,
      "s1a15a": 4492,
      "s1a15b": 4493,
      "s1a15c": 4494,
      "s1a15d": 4495,
      "s1a15e": 4496,
      "s1a15f": 4497,
      "s1a230": 4498,
      "s1a231": 4499,
      "s1a232": 4500,
      "s1a234": 4501,
      "s1a235": 4502,
      "s1a236": 4503,
      "s1a237": 4504,
      "s1a238": 4505,
      "s1a239": 4506,
      "s1a23a": 4507,
      "s1a23b": 4508,
      "s1a23c": 4509,
      "s1a23d": 4510,
      "s1a23e": 4511,
      "s1a23f": 4512,
      "s1a240": 4513,
      "s1a241": 4514,
      "s1a242": 4515,
      "s1a243": 4516,
      "s1a245": 4517,
      "s1a246": 4518,
      "s1a247": 4519,
      "s1a248": 4520,
      "s1a249": 4521,
      "s1a24a": 4522,
      "s1a24b": 4523,
      "s1a24c": 4524,
      "s1a24d": 4525,
      "s1a24e": 4526,
      "s1a24f": 4527,
      "s1a250": 4528,
      "s1a251": 4529,
      "s1a252": 4530,
      "s1a253": 4531,
      "s1a254": 4532,
      "s1a256": 4533,
      "s1a257": 4534,
      "s1a258": 4535,
      "s1a259": 4536,
      "s1a25a": 4537,
      "s1a25b": 4538,
      "s1a25c": 4539,
      "s1a25d": 4540,
      "s1a25e": 4541,
      "s1a25f": 4542,
      "s1a340": 4543,
      "s1a341": 4544,
      "s1a342": 4545,
      "s1a343": 4546,
      "s1a345": 4547,
      "s1a346": 4548,
      "s1a347": 4549,
      "s1a348": 4550,
      "s1a349": 4551,
      "s1a34a": 4552,
      "s1a34b": 4553,
      "s1a34c": 4554,
      "s1a34d": 4555,
      "s1a34e": 4556,
      "s1a34f": 4557,
      "s1a350": 4558,
      "s1a351": 4559,
      "s1a352": 4560,
      "s1a353": 4561,
      "s1a354": 4562,
      "s1a356": 4563,
      "s1a357": 4564,
      "s1a358": 4565,
      "s1a359": 4566,
      "s1a35a": 4567,
      "s1a35b": 4568,
      "s1a35c": 4569,
      "s1a35d": 4570,
      "s1a35e": 4571,
      "s1a35f": 4572,
      "s1a450": 4573,
      "s1a451": 4574,
      "s1a452": 4575,
      "s1a453": 4576,
      "s1a454": 4577,
      "s1a456": 4578,
      "s1a457": 4579,
      "s1a458": 4580,
      "s1a459": 4581,
      "s1a45a": 4582,
      "s1a45b": 4583,
      "s1a45c": 4584,
      "s1a45d": 4585,
      "s1a45e": 4586,
      "s1a45f": 4587,
      "s1a106": 4588,
      "s1a107": 4589,
      "s1a108": 4590,
      "s1a109": 4591,
      "s1a10a": 4592,
      "s1a10b": 4593,
      "s1a10c": 4594,
      "s1a10d": 4595,
      "s1a10e": 4596,
      "s1a10f": 4597,
      "s1a320": 4598,
      "s1a321": 4599,
      "s1a326": 4600,
      "s1a327": 4601,
      "s1a328": 4602,
      "s1a329": 4603,
      "s1a32a": 4604,
      "s1a32b": 4605,
      "s1a32c": 4606,
      "s1a32d": 4607,
      "s1a32e": 4608,
      "s1a32f": 4609,
      "s1a540": 4610,
      "s1a541": 4611,
      "s1a542": 4612,
      "s1a543": 4613,
      "s1a546": 4614,
      "s1a547": 4615,
      "s1a548": 4616,
      "s1a549": 4617,
      "s1a54a": 4618,
      "s1a54b": 4619,
      "s1a54c": 4620,
      "s1a54d": 4621,
      "s1a54e": 4622,
      "s1a54f": 4623,
      "s1a206": 4624,
      "s1a207": 4625,
      "s1a208": 4626,
      "s1a209": 4627,
      "s1a20a": 4628,
      "s1a20b": 4629,
      "s1a20c": 4630,
      "s1a20d": 4631,
      "s1a20e": 4632,
      "s1a20f": 4633,
      "s1a216": 4634,
      "s1a217": 4635,
      "s1a218": 4636,
      "s1a219": 4637,
      "s1a21a": 4638,
      "s1a21b": 4639,
      "s1a21c": 4640,
      "s1a21d": 4641,
      "s1a21e": 4642,
      "s1a21f": 4643,
      "s1a306": 4644,
      "s1a307": 4645,
      "s1a308": 4646,
      "s1a309": 4647,
      "s1a30a": 4648,
      "s1a30b": 4649,
      "s1a30c": 4650,
      "s1a30d": 4651,
      "s1a30e": 4652,
      "s1a30f": 4653,
      "s1a316": 4654,
      "s1a317": 4655,
      "s1a318": 4656,
      "s1a319": 4657,
      "s1a31a": 4658,
      "s1a31b": 4659,
      "s1a31c": 4660,
      "s1a31d": 4661,
      "s1a31e": 4662,
      "s1a31f": 4663,
      "s1a406": 4664,
      "s1a407": 4665,
      "s1a408": 4666,
      "s1a409": 4667,
      "s1a40a": 4668,
      "s1a40b": 4669,
      "s1a40c": 4670,
      "s1a40d": 4671,
      "s1a40e": 4672,
      "s1a40f": 4673,
      "s1a416": 4674,
      "s1a417": 4675,
      "s1a418": 4676,
      "s1a419": 4677,
      "s1a41a": 4678,
      "s1a41b": 4679,
      "s1a41c": 4680,
      "s1a41d": 4681,
      "s1a41e": 4682,
      "s1a41f": 4683,
      "s1a426": 4684,
      "s1a427": 4685,
      "s1a428": 4686,
      "s1a429": 4687,
      "s1a42a": 4688,
      "s1a42b": 4689,
      "s1a42c": 4690,
      "s1a42d": 4691,
      "s1a42e": 4692,
      "s1a42f": 4693,
      "s1a436": 4694,
      "s1a437": 4695,
      "s1a438": 4696,
      "s1a439": 4697,
      "s1a43a": 4698,
      "s1a43b": 4699,
      "s1a43c": 4700,
      "s1a43d": 4701,
      "s1a43e": 4702,
      "s1a43f": 4703,
      "s1a506": 4704,
      "s1a507": 4705,
      "s1a508": 4706,
      "s1a509": 4707,
      "s1a50a": 4708,
      "s1a50b": 4709,
      "s1a50c": 4710,
      "s1a50d": 4711,
      "s1a50e": 4712,
      "s1a50f": 4713,
      "s1a516": 4714,
      "s1a517": 4715,
      "s1a518": 4716,
      "s1a519": 4717,
      "s1a51a": 4718,
      "s1a51b": 4719,
      "s1a51c": 4720,
      "s1a51d": 4721,
      "s1a51e": 4722,
      "s1a51f": 4723,
      "s1a526": 4724,
      "s1a527": 4725,
      "s1a528": 4726,
      "s1a529": 4727,
      "s1a52a": 4728,
      "s1a52b": 4729,
      "s1a52c": 4730,
      "s1a52d": 4731,
      "s1a52e": 4732,
      "s1a52f": 4733,
      "s1a536": 4734,
      "s1a537": 4735,
      "s1a538": 4736,
      "s1a539": 4737,
      "s1a53a": 4738,
      "s1a53b": 4739,
      "s1a53c": 4740,
      "s1a53d": 4741,
      "s1a53e": 4742,
      "s1a53f": 4743,
      "s1b0": 4744,
      "s1b1": 4745,
      "s1b2": 4746,
      "s1b3": 4747,
      "s1b4": 4748,
      "s1b5": 4749,
      "s1b00": 4750,
      "s1b11": 4751,
      "s1b22": 4752,
      "s1b33": 4753,
      "s1b44": 4754,
      "s1b55": 4755,
      "s1b01": 4756,
      "s1b02": 4757,
      "s1b03": 4758,
      "s1b04": 4759,
      "s1b05": 4760,
      "s1b12": 4761,
      "s1b13": 4762,
      "s1b14": 4763,
      "s1b15": 4764,
      "s1b23": 4765,
      "s1b24": 4766,
      "s1b25": 4767,
      "s1b34": 4768,
      "s1b35": 4769,
      "s1b45": 4770,
      "s1b10": 4771,
      "s1b32": 4772,
      "s1b54": 4773,
      "s1b20": 4774,
      "s1b21": 4775,
      "s1b30": 4776,
      "s1b31": 4777,
      "s1b40": 4778,
      "s1b41": 4779,
      "s1b42": 4780,
      "s1b43": 4781,
      "s1b50": 4782,
      "s1b51": 4783,
      "s1b52": 4784,
      "s1b53": 4785,
      "s1b06": 4786,
      "s1b07": 4787,
      "s1b08": 4788,
      "s1b09": 4789,
      "s1b0a": 4790,
      "s1b0b": 4791,
      "s1b0c": 4792,
      "s1b0d": 4793,
      "s1b0e": 4794,
      "s1b0f": 4795,
      "s1b16": 4796,
      "s1b17": 4797,
      "s1b18": 4798,
      "s1b19": 4799,
      "s1b1a": 4800,
      "s1b1b": 4801,
      "s1b1c": 4802,
      "s1b1d": 4803,
      "s1b1e": 4804,
      "s1b1f": 4805,
      "s1b26": 4806,
      "s1b27": 4807,
      "s1b28": 4808,
      "s1b29": 4809,
      "s1b2a": 4810,
      "s1b2b": 4811,
      "s1b2c": 4812,
      "s1b2d": 4813,
      "s1b2e": 4814,
      "s1b2f": 4815,
      "s1b36": 4816,
      "s1b37": 4817,
      "s1b38": 4818,
      "s1b39": 4819,
      "s1b3a": 4820,
      "s1b3b": 4821,
      "s1b3c": 4822,
      "s1b3d": 4823,
      "s1b3e": 4824,
      "s1b3f": 4825,
      "s1b46": 4826,
      "s1b47": 4827,
      "s1b48": 4828,
      "s1b49": 4829,
      "s1b4a": 4830,
      "s1b4b": 4831,
      "s1b4c": 4832,
      "s1b4d": 4833,
      "s1b4e": 4834,
      "s1b4f": 4835,
      "s1b56": 4836,
      "s1b57": 4837,
      "s1b58": 4838,
      "s1b59": 4839,
      "s1b5a": 4840,
      "s1b5b": 4841,
      "s1b5c": 4842,
      "s1b5d": 4843,
      "s1b5e": 4844,
      "s1b5f": 4845,
      "s1b011": 4846,
      "s1b022": 4847,
      "s1b033": 4848,
      "s1b044": 4849,
      "s1b055": 4850,
      "s1b000": 4851,
      "s1b001": 4852,
      "s1b002": 4853,
      "s1b003": 4854,
      "s1b004": 4855,
      "s1b005": 4856,
      "s1b006": 4857,
      "s1b007": 4858,
      "s1b008": 4859,
      "s1b009": 4860,
      "s1b00a": 4861,
      "s1b00b": 4862,
      "s1b00c": 4863,
      "s1b00d": 4864,
      "s1b00e": 4865,
      "s1b00f": 4866,
      "s1b110": 4867,
      "s1b111": 4868,
      "s1b112": 4869,
      "s1b113": 4870,
      "s1b114": 4871,
      "s1b115": 4872,
      "s1b116": 4873,
      "s1b117": 4874,
      "s1b118": 4875,
      "s1b119": 4876,
      "s1b11a": 4877,
      "s1b11b": 4878,
      "s1b11c": 4879,
      "s1b11d": 4880,
      "s1b11e": 4881,
      "s1b11f": 4882,
      "s1b220": 4883,
      "s1b221": 4884,
      "s1b222": 4885,
      "s1b223": 4886,
      "s1b224": 4887,
      "s1b225": 4888,
      "s1b226": 4889,
      "s1b227": 4890,
      "s1b228": 4891,
      "s1b229": 4892,
      "s1b22a": 4893,
      "s1b22b": 4894,
      "s1b22c": 4895,
      "s1b22d": 4896,
      "s1b22e": 4897,
      "s1b22f": 4898,
      "s1b330": 4899,
      "s1b331": 4900,
      "s1b332": 4901,
      "s1b333": 4902,
      "s1b334": 4903,
      "s1b335": 4904,
      "s1b336": 4905,
      "s1b337": 4906,
      "s1b338": 4907,
      "s1b339": 4908,
      "s1b33a": 4909,
      "s1b33b": 4910,
      "s1b33c": 4911,
      "s1b33d": 4912,
      "s1b33e": 4913,
      "s1b33f": 4914,
      "s1b440": 4915,
      "s1b441": 4916,
      "s1b442": 4917,
      "s1b443": 4918,
      "s1b444": 4919,
      "s1b445": 4920,
      "s1b446": 4921,
      "s1b447": 4922,
      "s1b448": 4923,
      "s1b449": 4924,
      "s1b44a": 4925,
      "s1b44b": 4926,
      "s1b44c": 4927,
      "s1b44d": 4928,
      "s1b44e": 4929,
      "s1b44f": 4930,
      "s1b550": 4931,
      "s1b551": 4932,
      "s1b552": 4933,
      "s1b553": 4934,
      "s1b554": 4935,
      "s1b555": 4936,
      "s1b556": 4937,
      "s1b557": 4938,
      "s1b558": 4939,
      "s1b559": 4940,
      "s1b55a": 4941,
      "s1b55b": 4942,
      "s1b55c": 4943,
      "s1b55d": 4944,
      "s1b55e": 4945,
      "s1b55f": 4946,
      "s1b010": 4947,
      "s1b012": 4948,
      "s1b013": 4949,
      "s1b014": 4950,
      "s1b015": 4951,
      "s1b016": 4952,
      "s1b017": 4953,
      "s1b018": 4954,
      "s1b019": 4955,
      "s1b01a": 4956,
      "s1b01b": 4957,
      "s1b01c": 4958,
      "s1b01d": 4959,
      "s1b01e": 4960,
      "s1b01f": 4961,
      "s1b020": 4962,
      "s1b021": 4963,
      "s1b023": 4964,
      "s1b024": 4965,
      "s1b025": 4966,
      "s1b026": 4967,
      "s1b027": 4968,
      "s1b028": 4969,
      "s1b029": 4970,
      "s1b02a": 4971,
      "s1b02b": 4972,
      "s1b02c": 4973,
      "s1b02d": 4974,
      "s1b02e": 4975,
      "s1b02f": 4976,
      "s1b030": 4977,
      "s1b031": 4978,
      "s1b032": 4979,
      "s1b034": 4980,
      "s1b035": 4981,
      "s1b036": 4982,
      "s1b037": 4983,
      "s1b038": 4984,
      "s1b039": 4985,
      "s1b03a": 4986,
      "s1b03b": 4987,
      "s1b03c": 4988,
      "s1b03d": 4989,
      "s1b03e": 4990,
      "s1b03f": 4991,
      "s1b040": 4992,
      "s1b041": 4993,
      "s1b042": 4994,
      "s1b043": 4995,
      "s1b045": 4996,
      "s1b046": 4997,
      "s1b047": 4998,
      "s1b048": 4999,
      "s1b049": 5000,
      "s1b04a": 5001,
      "s1b04b": 5002,
      "s1b04c": 5003,
      "s1b04d": 5004,
      "s1b04e": 5005,
      "s1b04f": 5006,
      "s1b050": 5007,
      "s1b051": 5008,
      "s1b052": 5009,
      "s1b053": 5010,
      "s1b054": 5011,
      "s1b056": 5012,
      "s1b057": 5013,
      "s1b058": 5014,
      "s1b059": 5015,
      "s1b05a": 5016,
      "s1b05b": 5017,
      "s1b05c": 5018,
      "s1b05d": 5019,
      "s1b05e": 5020,
      "s1b05f": 5021,
      "s1b100": 5022,
      "s1b122": 5023,
      "s1b133": 5024,
      "s1b144": 5025,
      "s1b155": 5026,
      "s1b101": 5027,
      "s1b102": 5028,
      "s1b103": 5029,
      "s1b104": 5030,
      "s1b105": 5031,
      "s1b200": 5032,
      "s1b211": 5033,
      "s1b233": 5034,
      "s1b244": 5035,
      "s1b255": 5036,
      "s1b201": 5037,
      "s1b202": 5038,
      "s1b203": 5039,
      "s1b204": 5040,
      "s1b205": 5041,
      "s1b212": 5042,
      "s1b213": 5043,
      "s1b214": 5044,
      "s1b215": 5045,
      "s1b210": 5046,
      "s1b300": 5047,
      "s1b311": 5048,
      "s1b322": 5049,
      "s1b344": 5050,
      "s1b355": 5051,
      "s1b301": 5052,
      "s1b302": 5053,
      "s1b303": 5054,
      "s1b304": 5055,
      "s1b305": 5056,
      "s1b312": 5057,
      "s1b313": 5058,
      "s1b314": 5059,
      "s1b315": 5060,
      "s1b323": 5061,
      "s1b324": 5062,
      "s1b325": 5063,
      "s1b310": 5064,
      "s1b400": 5065,
      "s1b411": 5066,
      "s1b422": 5067,
      "s1b433": 5068,
      "s1b455": 5069,
      "s1b401": 5070,
      "s1b402": 5071,
      "s1b403": 5072,
      "s1b404": 5073,
      "s1b405": 5074,
      "s1b412": 5075,
      "s1b413": 5076,
      "s1b414": 5077,
      "s1b415": 5078,
      "s1b423": 5079,
      "s1b424": 5080,
      "s1b425": 5081,
      "s1b434": 5082,
      "s1b435": 5083,
      "s1b410": 5084,
      "s1b432": 5085,
      "s1b420": 5086,
      "s1b421": 5087,
      "s1b430": 5088,
      "s1b431": 5089,
      "s1b500": 5090,
      "s1b511": 5091,
      "s1b522": 5092,
      "s1b533": 5093,
      "s1b544": 5094,
      "s1b501": 5095,
      "s1b502": 5096,
      "s1b503": 5097,
      "s1b504": 5098,
      "s1b505": 5099,
      "s1b512": 5100,
      "s1b513": 5101,
      "s1b514": 5102,
      "s1b515": 5103,
      "s1b523": 5104,
      "s1b524": 5105,
      "s1b525": 5106,
      "s1b534": 5107,
      "s1b535": 5108,
      "s1b545": 5109,
      "s1b510": 5110,
      "s1b532": 5111,
      "s1b520": 5112,
      "s1b521": 5113,
      "s1b530": 5114,
      "s1b531": 5115,
      "s1b120": 5116,
      "s1b121": 5117,
      "s1b123": 5118,
      "s1b124": 5119,
      "s1b125": 5120,
      "s1b126": 5121,
      "s1b127": 5122,
      "s1b128": 5123,
      "s1b129": 5124,
      "s1b12a": 5125,
      "s1b12b": 5126,
      "s1b12c": 5127,
      "s1b12d": 5128,
      "s1b12e": 5129,
      "s1b12f": 5130,
      "s1b130": 5131,
      "s1b131": 5132,
      "s1b132": 5133,
      "s1b134": 5134,
      "s1b135": 5135,
      "s1b136": 5136,
      "s1b137": 5137,
      "s1b138": 5138,
      "s1b139": 5139,
      "s1b13a": 5140,
      "s1b13b": 5141,
      "s1b13c": 5142,
      "s1b13d": 5143,
      "s1b13e": 5144,
      "s1b13f": 5145,
      "s1b140": 5146,
      "s1b141": 5147,
      "s1b142": 5148,
      "s1b143": 5149,
      "s1b145": 5150,
      "s1b146": 5151,
      "s1b147": 5152,
      "s1b148": 5153,
      "s1b149": 5154,
      "s1b14a": 5155,
      "s1b14b": 5156,
      "s1b14c": 5157,
      "s1b14d": 5158,
      "s1b14e": 5159,
      "s1b14f": 5160,
      "s1b150": 5161,
      "s1b151": 5162,
      "s1b152": 5163,
      "s1b153": 5164,
      "s1b154": 5165,
      "s1b156": 5166,
      "s1b157": 5167,
      "s1b158": 5168,
      "s1b159": 5169,
      "s1b15a": 5170,
      "s1b15b": 5171,
      "s1b15c": 5172,
      "s1b15d": 5173,
      "s1b15e": 5174,
      "s1b15f": 5175,
      "s1b230": 5176,
      "s1b231": 5177,
      "s1b232": 5178,
      "s1b234": 5179,
      "s1b235": 5180,
      "s1b236": 5181,
      "s1b237": 5182,
      "s1b238": 5183,
      "s1b239": 5184,
      "s1b23a": 5185,
      "s1b23b": 5186,
      "s1b23c": 5187,
      "s1b23d": 5188,
      "s1b23e": 5189,
      "s1b23f": 5190,
      "s1b240": 5191,
      "s1b241": 5192,
      "s1b242": 5193,
      "s1b243": 5194,
      "s1b245": 5195,
      "s1b246": 5196,
      "s1b247": 5197,
      "s1b248": 5198,
      "s1b249": 5199,
      "s1b24a": 5200,
      "s1b24b": 5201,
      "s1b24c": 5202,
      "s1b24d": 5203,
      "s1b24e": 5204,
      "s1b24f": 5205,
      "s1b250": 5206,
      "s1b251": 5207,
      "s1b252": 5208,
      "s1b253": 5209,
      "s1b254": 5210,
      "s1b256": 5211,
      "s1b257": 5212,
      "s1b258": 5213,
      "s1b259": 5214,
      "s1b25a": 5215,
      "s1b25b": 5216,
      "s1b25c": 5217,
      "s1b25d": 5218,
      "s1b25e": 5219,
      "s1b25f": 5220,
      "s1b340": 5221,
      "s1b341": 5222,
      "s1b342": 5223,
      "s1b343": 5224,
      "s1b345": 5225,
      "s1b346": 5226,
      "s1b347": 5227,
      "s1b348": 5228,
      "s1b349": 5229,
      "s1b34a": 5230,
      "s1b34b": 5231,
      "s1b34c": 5232,
      "s1b34d": 5233,
      "s1b34e": 5234,
      "s1b34f": 5235,
      "s1b350": 5236,
      "s1b351": 5237,
      "s1b352": 5238,
      "s1b353": 5239,
      "s1b354": 5240,
      "s1b356": 5241,
      "s1b357": 5242,
      "s1b358": 5243,
      "s1b359": 5244,
      "s1b35a": 5245,
      "s1b35b": 5246,
      "s1b35c": 5247,
      "s1b35d": 5248,
      "s1b35e": 5249,
      "s1b35f": 5250,
      "s1b450": 5251,
      "s1b451": 5252,
      "s1b452": 5253,
      "s1b453": 5254,
      "s1b454": 5255,
      "s1b456": 5256,
      "s1b457": 5257,
      "s1b458": 5258,
      "s1b459": 5259,
      "s1b45a": 5260,
      "s1b45b": 5261,
      "s1b45c": 5262,
      "s1b45d": 5263,
      "s1b45e": 5264,
      "s1b45f": 5265,
      "s1b106": 5266,
      "s1b107": 5267,
      "s1b108": 5268,
      "s1b109": 5269,
      "s1b10a": 5270,
      "s1b10b": 5271,
      "s1b10c": 5272,
      "s1b10d": 5273,
      "s1b10e": 5274,
      "s1b10f": 5275,
      "s1b320": 5276,
      "s1b321": 5277,
      "s1b326": 5278,
      "s1b327": 5279,
      "s1b328": 5280,
      "s1b329": 5281,
      "s1b32a": 5282,
      "s1b32b": 5283,
      "s1b32c": 5284,
      "s1b32d": 5285,
      "s1b32e": 5286,
      "s1b32f": 5287,
      "s1b540": 5288,
      "s1b541": 5289,
      "s1b542": 5290,
      "s1b543": 5291,
      "s1b546": 5292,
      "s1b547": 5293,
      "s1b548": 5294,
      "s1b549": 5295,
      "s1b54a": 5296,
      "s1b54b": 5297,
      "s1b54c": 5298,
      "s1b54d": 5299,
      "s1b54e": 5300,
      "s1b54f": 5301,
      "s1b206": 5302,
      "s1b207": 5303,
      "s1b208": 5304,
      "s1b209": 5305,
      "s1b20a": 5306,
      "s1b20b": 5307,
      "s1b20c": 5308,
      "s1b20d": 5309,
      "s1b20e": 5310,
      "s1b20f": 5311,
      "s1b216": 5312,
      "s1b217": 5313,
      "s1b218": 5314,
      "s1b219": 5315,
      "s1b21a": 5316,
      "s1b21b": 5317,
      "s1b21c": 5318,
      "s1b21d": 5319,
      "s1b21e": 5320,
      "s1b21f": 5321,
      "s1b306": 5322,
      "s1b307": 5323,
      "s1b308": 5324,
      "s1b309": 5325,
      "s1b30a": 5326,
      "s1b30b": 5327,
      "s1b30c": 5328,
      "s1b30d": 5329,
      "s1b30e": 5330,
      "s1b30f": 5331,
      "s1b316": 5332,
      "s1b317": 5333,
      "s1b318": 5334,
      "s1b319": 5335,
      "s1b31a": 5336,
      "s1b31b": 5337,
      "s1b31c": 5338,
      "s1b31d": 5339,
      "s1b31e": 5340,
      "s1b31f": 5341,
      "s1b406": 5342,
      "s1b407": 5343,
      "s1b408": 5344,
      "s1b409": 5345,
      "s1b40a": 5346,
      "s1b40b": 5347,
      "s1b40c": 5348,
      "s1b40d": 5349,
      "s1b40e": 5350,
      "s1b40f": 5351,
      "s1b416": 5352,
      "s1b417": 5353,
      "s1b418": 5354,
      "s1b419": 5355,
      "s1b41a": 5356,
      "s1b41b": 5357,
      "s1b41c": 5358,
      "s1b41d": 5359,
      "s1b41e": 5360,
      "s1b41f": 5361,
      "s1b426": 5362,
      "s1b427": 5363,
      "s1b428": 5364,
      "s1b429": 5365,
      "s1b42a": 5366,
      "s1b42b": 5367,
      "s1b42c": 5368,
      "s1b42d": 5369,
      "s1b42e": 5370,
      "s1b42f": 5371,
      "s1b436": 5372,
      "s1b437": 5373,
      "s1b438": 5374,
      "s1b439": 5375,
      "s1b43a": 5376,
      "s1b43b": 5377,
      "s1b43c": 5378,
      "s1b43d": 5379,
      "s1b43e": 5380,
      "s1b43f": 5381,
      "s1b506": 5382,
      "s1b507": 5383,
      "s1b508": 5384,
      "s1b509": 5385,
      "s1b50a": 5386,
      "s1b50b": 5387,
      "s1b50c": 5388,
      "s1b50d": 5389,
      "s1b50e": 5390,
      "s1b50f": 5391,
      "s1b516": 5392,
      "s1b517": 5393,
      "s1b518": 5394,
      "s1b519": 5395,
      "s1b51a": 5396,
      "s1b51b": 5397,
      "s1b51c": 5398,
      "s1b51d": 5399,
      "s1b51e": 5400,
      "s1b51f": 5401,
      "s1b526": 5402,
      "s1b527": 5403,
      "s1b528": 5404,
      "s1b529": 5405,
      "s1b52a": 5406,
      "s1b52b": 5407,
      "s1b52c": 5408,
      "s1b52d": 5409,
      "s1b52e": 5410,
      "s1b52f": 5411,
      "s1b536": 5412,
      "s1b537": 5413,
      "s1b538": 5414,
      "s1b539": 5415,
      "s1b53a": 5416,
      "s1b53b": 5417,
      "s1b53c": 5418,
      "s1b53d": 5419,
      "s1b53e": 5420,
      "s1b53f": 5421,
      "s1c0": 5422,
      "s1c1": 5423,
      "s1c2": 5424,
      "s1c3": 5425,
      "s1c4": 5426,
      "s1c5": 5427,
      "s1c00": 5428,
      "s1c11": 5429,
      "s1c22": 5430,
      "s1c33": 5431,
      "s1c44": 5432,
      "s1c55": 5433,
      "s1c01": 5434,
      "s1c02": 5435,
      "s1c03": 5436,
      "s1c04": 5437,
      "s1c05": 5438,
      "s1c12": 5439,
      "s1c13": 5440,
      "s1c14": 5441,
      "s1c15": 5442,
      "s1c23": 5443,
      "s1c24": 5444,
      "s1c25": 5445,
      "s1c34": 5446,
      "s1c35": 5447,
      "s1c45": 5448,
      "s1c10": 5449,
      "s1c32": 5450,
      "s1c54": 5451,
      "s1c20": 5452,
      "s1c21": 5453,
      "s1c30": 5454,
      "s1c31": 5455,
      "s1c40": 5456,
      "s1c41": 5457,
      "s1c42": 5458,
      "s1c43": 5459,
      "s1c50": 5460,
      "s1c51": 5461,
      "s1c52": 5462,
      "s1c53": 5463,
      "s1c06": 5464,
      "s1c07": 5465,
      "s1c08": 5466,
      "s1c09": 5467,
      "s1c0a": 5468,
      "s1c0b": 5469,
      "s1c0c": 5470,
      "s1c0d": 5471,
      "s1c0e": 5472,
      "s1c0f": 5473,
      "s1c16": 5474,
      "s1c17": 5475,
      "s1c18": 5476,
      "s1c19": 5477,
      "s1c1a": 5478,
      "s1c1b": 5479,
      "s1c1c": 5480,
      "s1c1d": 5481,
      "s1c1e": 5482,
      "s1c1f": 5483,
      "s1c26": 5484,
      "s1c27": 5485,
      "s1c28": 5486,
      "s1c29": 5487,
      "s1c2a": 5488,
      "s1c2b": 5489,
      "s1c2c": 5490,
      "s1c2d": 5491,
      "s1c2e": 5492,
      "s1c2f": 5493,
      "s1c36": 5494,
      "s1c37": 5495,
      "s1c38": 5496,
      "s1c39": 5497,
      "s1c3a": 5498,
      "s1c3b": 5499,
      "s1c3c": 5500,
      "s1c3d": 5501,
      "s1c3e": 5502,
      "s1c3f": 5503,
      "s1c46": 5504,
      "s1c47": 5505,
      "s1c48": 5506,
      "s1c49": 5507,
      "s1c4a": 5508,
      "s1c4b": 5509,
      "s1c4c": 5510,
      "s1c4d": 5511,
      "s1c4e": 5512,
      "s1c4f": 5513,
      "s1c56": 5514,
      "s1c57": 5515,
      "s1c58": 5516,
      "s1c59": 5517,
      "s1c5a": 5518,
      "s1c5b": 5519,
      "s1c5c": 5520,
      "s1c5d": 5521,
      "s1c5e": 5522,
      "s1c5f": 5523,
      "s1c011": 5524,
      "s1c022": 5525,
      "s1c033": 5526,
      "s1c044": 5527,
      "s1c055": 5528,
      "s1c000": 5529,
      "s1c001": 5530,
      "s1c002": 5531,
      "s1c003": 5532,
      "s1c004": 5533,
      "s1c005": 5534,
      "s1c006": 5535,
      "s1c007": 5536,
      "s1c008": 5537,
      "s1c009": 5538,
      "s1c00a": 5539,
      "s1c00b": 5540,
      "s1c00c": 5541,
      "s1c00d": 5542,
      "s1c00e": 5543,
      "s1c00f": 5544,
      "s1c110": 5545,
      "s1c111": 5546,
      "s1c112": 5547,
      "s1c113": 5548,
      "s1c114": 5549,
      "s1c115": 5550,
      "s1c116": 5551,
      "s1c117": 5552,
      "s1c118": 5553,
      "s1c119": 5554,
      "s1c11a": 5555,
      "s1c11b": 5556,
      "s1c11c": 5557,
      "s1c11d": 5558,
      "s1c11e": 5559,
      "s1c11f": 5560,
      "s1c220": 5561,
      "s1c221": 5562,
      "s1c222": 5563,
      "s1c223": 5564,
      "s1c224": 5565,
      "s1c225": 5566,
      "s1c226": 5567,
      "s1c227": 5568,
      "s1c228": 5569,
      "s1c229": 5570,
      "s1c22a": 5571,
      "s1c22b": 5572,
      "s1c22c": 5573,
      "s1c22d": 5574,
      "s1c22e": 5575,
      "s1c22f": 5576,
      "s1c330": 5577,
      "s1c331": 5578,
      "s1c332": 5579,
      "s1c333": 5580,
      "s1c334": 5581,
      "s1c335": 5582,
      "s1c336": 5583,
      "s1c337": 5584,
      "s1c338": 5585,
      "s1c339": 5586,
      "s1c33a": 5587,
      "s1c33b": 5588,
      "s1c33c": 5589,
      "s1c33d": 5590,
      "s1c33e": 5591,
      "s1c33f": 5592,
      "s1c440": 5593,
      "s1c441": 5594,
      "s1c442": 5595,
      "s1c443": 5596,
      "s1c444": 5597,
      "s1c445": 5598,
      "s1c446": 5599,
      "s1c447": 5600,
      "s1c448": 5601,
      "s1c449": 5602,
      "s1c44a": 5603,
      "s1c44b": 5604,
      "s1c44c": 5605,
      "s1c44d": 5606,
      "s1c44e": 5607,
      "s1c44f": 5608,
      "s1c550": 5609,
      "s1c551": 5610,
      "s1c552": 5611,
      "s1c553": 5612,
      "s1c554": 5613,
      "s1c555": 5614,
      "s1c556": 5615,
      "s1c557": 5616,
      "s1c558": 5617,
      "s1c559": 5618,
      "s1c55a": 5619,
      "s1c55b": 5620,
      "s1c55c": 5621,
      "s1c55d": 5622,
      "s1c55e": 5623,
      "s1c55f": 5624,
      "s1c010": 5625,
      "s1c012": 5626,
      "s1c013": 5627,
      "s1c014": 5628,
      "s1c015": 5629,
      "s1c016": 5630,
      "s1c017": 5631,
      "s1c018": 5632,
      "s1c019": 5633,
      "s1c01a": 5634,
      "s1c01b": 5635,
      "s1c01c": 5636,
      "s1c01d": 5637,
      "s1c01e": 5638,
      "s1c01f": 5639,
      "s1c020": 5640,
      "s1c021": 5641,
      "s1c023": 5642,
      "s1c024": 5643,
      "s1c025": 5644,
      "s1c026": 5645,
      "s1c027": 5646,
      "s1c028": 5647,
      "s1c029": 5648,
      "s1c02a": 5649,
      "s1c02b": 5650,
      "s1c02c": 5651,
      "s1c02d": 5652,
      "s1c02e": 5653,
      "s1c02f": 5654,
      "s1c030": 5655,
      "s1c031": 5656,
      "s1c032": 5657,
      "s1c034": 5658,
      "s1c035": 5659,
      "s1c036": 5660,
      "s1c037": 5661,
      "s1c038": 5662,
      "s1c039": 5663,
      "s1c03a": 5664,
      "s1c03b": 5665,
      "s1c03c": 5666,
      "s1c03d": 5667,
      "s1c03e": 5668,
      "s1c03f": 5669,
      "s1c040": 5670,
      "s1c041": 5671,
      "s1c042": 5672,
      "s1c043": 5673,
      "s1c045": 5674,
      "s1c046": 5675,
      "s1c047": 5676,
      "s1c048": 5677,
      "s1c049": 5678,
      "s1c04a": 5679,
      "s1c04b": 5680,
      "s1c04c": 5681,
      "s1c04d": 5682,
      "s1c04e": 5683,
      "s1c04f": 5684,
      "s1c050": 5685,
      "s1c051": 5686,
      "s1c052": 5687,
      "s1c053": 5688,
      "s1c054": 5689,
      "s1c056": 5690,
      "s1c057": 5691,
      "s1c058": 5692,
      "s1c059": 5693,
      "s1c05a": 5694,
      "s1c05b": 5695,
      "s1c05c": 5696,
      "s1c05d": 5697,
      "s1c05e": 5698,
      "s1c05f": 5699,
      "s1c100": 5700,
      "s1c122": 5701,
      "s1c133": 5702,
      "s1c144": 5703,
      "s1c155": 5704,
      "s1c101": 5705,
      "s1c102": 5706,
      "s1c103": 5707,
      "s1c104": 5708,
      "s1c105": 5709,
      "s1c200": 5710,
      "s1c211": 5711,
      "s1c233": 5712,
      "s1c244": 5713,
      "s1c255": 5714,
      "s1c201": 5715,
      "s1c202": 5716,
      "s1c203": 5717,
      "s1c204": 5718,
      "s1c205": 5719,
      "s1c212": 5720,
      "s1c213": 5721,
      "s1c214": 5722,
      "s1c215": 5723,
      "s1c210": 5724,
      "s1c300": 5725,
      "s1c311": 5726,
      "s1c322": 5727,
      "s1c344": 5728,
      "s1c355": 5729,
      "s1c301": 5730,
      "s1c302": 5731,
      "s1c303": 5732,
      "s1c304": 5733,
      "s1c305": 5734,
      "s1c312": 5735,
      "s1c313": 5736,
      "s1c314": 5737,
      "s1c315": 5738,
      "s1c323": 5739,
      "s1c324": 5740,
      "s1c325": 5741,
      "s1c310": 5742,
      "s1c400": 5743,
      "s1c411": 5744,
      "s1c422": 5745,
      "s1c433": 5746,
      "s1c455": 5747,
      "s1c401": 5748,
      "s1c402": 5749,
      "s1c403": 5750,
      "s1c404": 5751,
      "s1c405": 5752,
      "s1c412": 5753,
      "s1c413": 5754,
      "s1c414": 5755,
      "s1c415": 5756,
      "s1c423": 5757,
      "s1c424": 5758,
      "s1c425": 5759,
      "s1c434": 5760,
      "s1c435": 5761,
      "s1c410": 5762,
      "s1c432": 5763,
      "s1c420": 5764,
      "s1c421": 5765,
      "s1c430": 5766,
      "s1c431": 5767,
      "s1c500": 5768,
      "s1c511": 5769,
      "s1c522": 5770,
      "s1c533": 5771,
      "s1c544": 5772,
      "s1c501": 5773,
      "s1c502": 5774,
      "s1c503": 5775,
      "s1c504": 5776,
      "s1c505": 5777,
      "s1c512": 5778,
      "s1c513": 5779,
      "s1c514": 5780,
      "s1c515": 5781,
      "s1c523": 5782,
      "s1c524": 5783,
      "s1c525": 5784,
      "s1c534": 5785,
      "s1c535": 5786,
      "s1c545": 5787,
      "s1c510": 5788,
      "s1c532": 5789,
      "s1c520": 5790,
      "s1c521": 5791,
      "s1c530": 5792,
      "s1c531": 5793,
      "s1c120": 5794,
      "s1c121": 5795,
      "s1c123": 5796,
      "s1c124": 5797,
      "s1c125": 5798,
      "s1c126": 5799,
      "s1c127": 5800,
      "s1c128": 5801,
      "s1c129": 5802,
      "s1c12a": 5803,
      "s1c12b": 5804,
      "s1c12c": 5805,
      "s1c12d": 5806,
      "s1c12e": 5807,
      "s1c12f": 5808,
      "s1c130": 5809,
      "s1c131": 5810,
      "s1c132": 5811,
      "s1c134": 5812,
      "s1c135": 5813,
      "s1c136": 5814,
      "s1c137": 5815,
      "s1c138": 5816,
      "s1c139": 5817,
      "s1c13a": 5818,
      "s1c13b": 5819,
      "s1c13c": 5820,
      "s1c13d": 5821,
      "s1c13e": 5822,
      "s1c13f": 5823,
      "s1c140": 5824,
      "s1c141": 5825,
      "s1c142": 5826,
      "s1c143": 5827,
      "s1c145": 5828,
      "s1c146": 5829,
      "s1c147": 5830,
      "s1c148": 5831,
      "s1c149": 5832,
      "s1c14a": 5833,
      "s1c14b": 5834,
      "s1c14c": 5835,
      "s1c14d": 5836,
      "s1c14e": 5837,
      "s1c14f": 5838,
      "s1c150": 5839,
      "s1c151": 5840,
      "s1c152": 5841,
      "s1c153": 5842,
      "s1c154": 5843,
      "s1c156": 5844,
      "s1c157": 5845,
      "s1c158": 5846,
      "s1c159": 5847,
      "s1c15a": 5848,
      "s1c15b": 5849,
      "s1c15c": 5850,
      "s1c15d": 5851,
      "s1c15e": 5852,
      "s1c15f": 5853,
      "s1c230": 5854,
      "s1c231": 5855,
      "s1c232": 5856,
      "s1c234": 5857,
      "s1c235": 5858,
      "s1c236": 5859,
      "s1c237": 5860,
      "s1c238": 5861,
      "s1c239": 5862,
      "s1c23a": 5863,
      "s1c23b": 5864,
      "s1c23c": 5865,
      "s1c23d": 5866,
      "s1c23e": 5867,
      "s1c23f": 5868,
      "s1c240": 5869,
      "s1c241": 5870,
      "s1c242": 5871,
      "s1c243": 5872,
      "s1c245": 5873,
      "s1c246": 5874,
      "s1c247": 5875,
      "s1c248": 5876,
      "s1c249": 5877,
      "s1c24a": 5878,
      "s1c24b": 5879,
      "s1c24c": 5880,
      "s1c24d": 5881,
      "s1c24e": 5882,
      "s1c24f": 5883,
      "s1c250": 5884,
      "s1c251": 5885,
      "s1c252": 5886,
      "s1c253": 5887,
      "s1c254": 5888,
      "s1c256": 5889,
      "s1c257": 5890,
      "s1c258": 5891,
      "s1c259": 5892,
      "s1c25a": 5893,
      "s1c25b": 5894,
      "s1c25c": 5895,
      "s1c25d": 5896,
      "s1c25e": 5897,
      "s1c25f": 5898,
      "s1c340": 5899,
      "s1c341": 5900,
      "s1c342": 5901,
      "s1c343": 5902,
      "s1c345": 5903,
      "s1c346": 5904,
      "s1c347": 5905,
      "s1c348": 5906,
      "s1c349": 5907,
      "s1c34a": 5908,
      "s1c34b": 5909,
      "s1c34c": 5910,
      "s1c34d": 5911,
      "s1c34e": 5912,
      "s1c34f": 5913,
      "s1c350": 5914,
      "s1c351": 5915,
      "s1c352": 5916,
      "s1c353": 5917,
      "s1c354": 5918,
      "s1c356": 5919,
      "s1c357": 5920,
      "s1c358": 5921,
      "s1c359": 5922,
      "s1c35a": 5923,
      "s1c35b": 5924,
      "s1c35c": 5925,
      "s1c35d": 5926,
      "s1c35e": 5927,
      "s1c35f": 5928,
      "s1c450": 5929,
      "s1c451": 5930,
      "s1c452": 5931,
      "s1c453": 5932,
      "s1c454": 5933,
      "s1c456": 5934,
      "s1c457": 5935,
      "s1c458": 5936,
      "s1c459": 5937,
      "s1c45a": 5938,
      "s1c45b": 5939,
      "s1c45c": 5940,
      "s1c45d": 5941,
      "s1c45e": 5942,
      "s1c45f": 5943,
      "s1c106": 5944,
      "s1c107": 5945,
      "s1c108": 5946,
      "s1c109": 5947,
      "s1c10a": 5948,
      "s1c10b": 5949,
      "s1c10c": 5950,
      "s1c10d": 5951,
      "s1c10e": 5952,
      "s1c10f": 5953,
      "s1c320": 5954,
      "s1c321": 5955,
      "s1c326": 5956,
      "s1c327": 5957,
      "s1c328": 5958,
      "s1c329": 5959,
      "s1c32a": 5960,
      "s1c32b": 5961,
      "s1c32c": 5962,
      "s1c32d": 5963,
      "s1c32e": 5964,
      "s1c32f": 5965,
      "s1c540": 5966,
      "s1c541": 5967,
      "s1c542": 5968,
      "s1c543": 5969,
      "s1c546": 5970,
      "s1c547": 5971,
      "s1c548": 5972,
      "s1c549": 5973,
      "s1c54a": 5974,
      "s1c54b": 5975,
      "s1c54c": 5976,
      "s1c54d": 5977,
      "s1c54e": 5978,
      "s1c54f": 5979,
      "s1c206": 5980,
      "s1c207": 5981,
      "s1c208": 5982,
      "s1c209": 5983,
      "s1c20a": 5984,
      "s1c20b": 5985,
      "s1c20c": 5986,
      "s1c20d": 5987,
      "s1c20e": 5988,
      "s1c20f": 5989,
      "s1c216": 5990,
      "s1c217": 5991,
      "s1c218": 5992,
      "s1c219": 5993,
      "s1c21a": 5994,
      "s1c21b": 5995,
      "s1c21c": 5996,
      "s1c21d": 5997,
      "s1c21e": 5998,
      "s1c21f": 5999,
      "s1c306": 6000,
      "s1c307": 6001,
      "s1c308": 6002,
      "s1c309": 6003,
      "s1c30a": 6004,
      "s1c30b": 6005,
      "s1c30c": 6006,
      "s1c30d": 6007,
      "s1c30e": 6008,
      "s1c30f": 6009,
      "s1c316": 6010,
      "s1c317": 6011,
      "s1c318": 6012,
      "s1c319": 6013,
      "s1c31a": 6014,
      "s1c31b": 6015,
      "s1c31c": 6016,
      "s1c31d": 6017,
      "s1c31e": 6018,
      "s1c31f": 6019,
      "s1c406": 6020,
      "s1c407": 6021,
      "s1c408": 6022,
      "s1c409": 6023,
      "s1c40a": 6024,
      "s1c40b": 6025,
      "s1c40c": 6026,
      "s1c40d": 6027,
      "s1c40e": 6028,
      "s1c40f": 6029,
      "s1c416": 6030,
      "s1c417": 6031,
      "s1c418": 6032,
      "s1c419": 6033,
      "s1c41a": 6034,
      "s1c41b": 6035,
      "s1c41c": 6036,
      "s1c41d": 6037,
      "s1c41e": 6038,
      "s1c41f": 6039,
      "s1c426": 6040,
      "s1c427": 6041,
      "s1c428": 6042,
      "s1c429": 6043,
      "s1c42a": 6044,
      "s1c42b": 6045,
      "s1c42c": 6046,
      "s1c42d": 6047,
      "s1c42e": 6048,
      "s1c42f": 6049,
      "s1c436": 6050,
      "s1c437": 6051,
      "s1c438": 6052,
      "s1c439": 6053,
      "s1c43a": 6054,
      "s1c43b": 6055,
      "s1c43c": 6056,
      "s1c43d": 6057,
      "s1c43e": 6058,
      "s1c43f": 6059,
      "s1c506": 6060,
      "s1c507": 6061,
      "s1c508": 6062,
      "s1c509": 6063,
      "s1c50a": 6064,
      "s1c50b": 6065,
      "s1c50c": 6066,
      "s1c50d": 6067,
      "s1c50e": 6068,
      "s1c50f": 6069,
      "s1c516": 6070,
      "s1c517": 6071,
      "s1c518": 6072,
      "s1c519": 6073,
      "s1c51a": 6074,
      "s1c51b": 6075,
      "s1c51c": 6076,
      "s1c51d": 6077,
      "s1c51e": 6078,
      "s1c51f": 6079,
      "s1c526": 6080,
      "s1c527": 6081,
      "s1c528": 6082,
      "s1c529": 6083,
      "s1c52a": 6084,
      "s1c52b": 6085,
      "s1c52c": 6086,
      "s1c52d": 6087,
      "s1c52e": 6088,
      "s1c52f": 6089,
      "s1c536": 6090,
      "s1c537": 6091,
      "s1c538": 6092,
      "s1c539": 6093,
      "s1c53a": 6094,
      "s1c53b": 6095,
      "s1c53c": 6096,
      "s1c53d": 6097,
      "s1c53e": 6098,
      "s1c53f": 6099,
      "s1d0": 6100,
      "s1d1": 6101,
      "s1d2": 6102,
      "s1d3": 6103,
      "s1d4": 6104,
      "s1d5": 6105,
      "s1d00": 6106,
      "s1d11": 6107,
      "s1d22": 6108,
      "s1d33": 6109,
      "s1d44": 6110,
      "s1d55": 6111,
      "s1d01": 6112,
      "s1d02": 6113,
      "s1d03": 6114,
      "s1d04": 6115,
      "s1d05": 6116,
      "s1d12": 6117,
      "s1d13": 6118,
      "s1d14": 6119,
      "s1d15": 6120,
      "s1d23": 6121,
      "s1d24": 6122,
      "s1d25": 6123,
      "s1d34": 6124,
      "s1d35": 6125,
      "s1d45": 6126,
      "s1d10": 6127,
      "s1d32": 6128,
      "s1d54": 6129,
      "s1d20": 6130,
      "s1d21": 6131,
      "s1d30": 6132,
      "s1d31": 6133,
      "s1d40": 6134,
      "s1d41": 6135,
      "s1d42": 6136,
      "s1d43": 6137,
      "s1d50": 6138,
      "s1d51": 6139,
      "s1d52": 6140,
      "s1d53": 6141,
      "s1d06": 6142,
      "s1d07": 6143,
      "s1d08": 6144,
      "s1d09": 6145,
      "s1d0a": 6146,
      "s1d0b": 6147,
      "s1d0c": 6148,
      "s1d0d": 6149,
      "s1d0e": 6150,
      "s1d0f": 6151,
      "s1d16": 6152,
      "s1d17": 6153,
      "s1d18": 6154,
      "s1d19": 6155,
      "s1d1a": 6156,
      "s1d1b": 6157,
      "s1d1c": 6158,
      "s1d1d": 6159,
      "s1d1e": 6160,
      "s1d1f": 6161,
      "s1d26": 6162,
      "s1d27": 6163,
      "s1d28": 6164,
      "s1d29": 6165,
      "s1d2a": 6166,
      "s1d2b": 6167,
      "s1d2c": 6168,
      "s1d2d": 6169,
      "s1d2e": 6170,
      "s1d2f": 6171,
      "s1d36": 6172,
      "s1d37": 6173,
      "s1d38": 6174,
      "s1d39": 6175,
      "s1d3a": 6176,
      "s1d3b": 6177,
      "s1d3c": 6178,
      "s1d3d": 6179,
      "s1d3e": 6180,
      "s1d3f": 6181,
      "s1d46": 6182,
      "s1d47": 6183,
      "s1d48": 6184,
      "s1d49": 6185,
      "s1d4a": 6186,
      "s1d4b": 6187,
      "s1d4c": 6188,
      "s1d4d": 6189,
      "s1d4e": 6190,
      "s1d4f": 6191,
      "s1d56": 6192,
      "s1d57": 6193,
      "s1d58": 6194,
      "s1d59": 6195,
      "s1d5a": 6196,
      "s1d5b": 6197,
      "s1d5c": 6198,
      "s1d5d": 6199,
      "s1d5e": 6200,
      "s1d5f": 6201,
      "s1d011": 6202,
      "s1d022": 6203,
      "s1d033": 6204,
      "s1d044": 6205,
      "s1d055": 6206,
      "s1d000": 6207,
      "s1d001": 6208,
      "s1d002": 6209,
      "s1d003": 6210,
      "s1d004": 6211,
      "s1d005": 6212,
      "s1d006": 6213,
      "s1d007": 6214,
      "s1d008": 6215,
      "s1d009": 6216,
      "s1d00a": 6217,
      "s1d00b": 6218,
      "s1d00c": 6219,
      "s1d00d": 6220,
      "s1d00e": 6221,
      "s1d00f": 6222,
      "s1d110": 6223,
      "s1d111": 6224,
      "s1d112": 6225,
      "s1d113": 6226,
      "s1d114": 6227,
      "s1d115": 6228,
      "s1d116": 6229,
      "s1d117": 6230,
      "s1d118": 6231,
      "s1d119": 6232,
      "s1d11a": 6233,
      "s1d11b": 6234,
      "s1d11c": 6235,
      "s1d11d": 6236,
      "s1d11e": 6237,
      "s1d11f": 6238,
      "s1d220": 6239,
      "s1d221": 6240,
      "s1d222": 6241,
      "s1d223": 6242,
      "s1d224": 6243,
      "s1d225": 6244,
      "s1d226": 6245,
      "s1d227": 6246,
      "s1d228": 6247,
      "s1d229": 6248,
      "s1d22a": 6249,
      "s1d22b": 6250,
      "s1d22c": 6251,
      "s1d22d": 6252,
      "s1d22e": 6253,
      "s1d22f": 6254,
      "s1d330": 6255,
      "s1d331": 6256,
      "s1d332": 6257,
      "s1d333": 6258,
      "s1d334": 6259,
      "s1d335": 6260,
      "s1d336": 6261,
      "s1d337": 6262,
      "s1d338": 6263,
      "s1d339": 6264,
      "s1d33a": 6265,
      "s1d33b": 6266,
      "s1d33c": 6267,
      "s1d33d": 6268,
      "s1d33e": 6269,
      "s1d33f": 6270,
      "s1d440": 6271,
      "s1d441": 6272,
      "s1d442": 6273,
      "s1d443": 6274,
      "s1d444": 6275,
      "s1d445": 6276,
      "s1d446": 6277,
      "s1d447": 6278,
      "s1d448": 6279,
      "s1d449": 6280,
      "s1d44a": 6281,
      "s1d44b": 6282,
      "s1d44c": 6283,
      "s1d44d": 6284,
      "s1d44e": 6285,
      "s1d44f": 6286,
      "s1d550": 6287,
      "s1d551": 6288,
      "s1d552": 6289,
      "s1d553": 6290,
      "s1d554": 6291,
      "s1d555": 6292,
      "s1d556": 6293,
      "s1d557": 6294,
      "s1d558": 6295,
      "s1d559": 6296,
      "s1d55a": 6297,
      "s1d55b": 6298,
      "s1d55c": 6299,
      "s1d55d": 6300,
      "s1d55e": 6301,
      "s1d55f": 6302,
      "s1d010": 6303,
      "s1d012": 6304,
      "s1d013": 6305,
      "s1d014": 6306,
      "s1d015": 6307,
      "s1d016": 6308,
      "s1d017": 6309,
      "s1d018": 6310,
      "s1d019": 6311,
      "s1d01a": 6312,
      "s1d01b": 6313,
      "s1d01c": 6314,
      "s1d01d": 6315,
      "s1d01e": 6316,
      "s1d01f": 6317,
      "s1d020": 6318,
      "s1d021": 6319,
      "s1d023": 6320,
      "s1d024": 6321,
      "s1d025": 6322,
      "s1d026": 6323,
      "s1d027": 6324,
      "s1d028": 6325,
      "s1d029": 6326,
      "s1d02a": 6327,
      "s1d02b": 6328,
      "s1d02c": 6329,
      "s1d02d": 6330,
      "s1d02e": 6331,
      "s1d02f": 6332,
      "s1d030": 6333,
      "s1d031": 6334,
      "s1d032": 6335,
      "s1d034": 6336,
      "s1d035": 6337,
      "s1d036": 6338,
      "s1d037": 6339,
      "s1d038": 6340,
      "s1d039": 6341,
      "s1d03a": 6342,
      "s1d03b": 6343,
      "s1d03c": 6344,
      "s1d03d": 6345,
      "s1d03e": 6346,
      "s1d03f": 6347,
      "s1d040": 6348,
      "s1d041": 6349,
      "s1d042": 6350,
      "s1d043": 6351,
      "s1d045": 6352,
      "s1d046": 6353,
      "s1d047": 6354,
      "s1d048": 6355,
      "s1d049": 6356,
      "s1d04a": 6357,
      "s1d04b": 6358,
      "s1d04c": 6359,
      "s1d04d": 6360,
      "s1d04e": 6361,
      "s1d04f": 6362,
      "s1d050": 6363,
      "s1d051": 6364,
      "s1d052": 6365,
      "s1d053": 6366,
      "s1d054": 6367,
      "s1d056": 6368,
      "s1d057": 6369,
      "s1d058": 6370,
      "s1d059": 6371,
      "s1d05a": 6372,
      "s1d05b": 6373,
      "s1d05c": 6374,
      "s1d05d": 6375,
      "s1d05e": 6376,
      "s1d05f": 6377,
      "s1d100": 6378,
      "s1d122": 6379,
      "s1d133": 6380,
      "s1d144": 6381,
      "s1d155": 6382,
      "s1d101": 6383,
      "s1d102": 6384,
      "s1d103": 6385,
      "s1d104": 6386,
      "s1d105": 6387,
      "s1d200": 6388,
      "s1d211": 6389,
      "s1d233": 6390,
      "s1d244": 6391,
      "s1d255": 6392,
      "s1d201": 6393,
      "s1d202": 6394,
      "s1d203": 6395,
      "s1d204": 6396,
      "s1d205": 6397,
      "s1d212": 6398,
      "s1d213": 6399,
      "s1d214": 6400,
      "s1d215": 6401,
      "s1d210": 6402,
      "s1d300": 6403,
      "s1d311": 6404,
      "s1d322": 6405,
      "s1d344": 6406,
      "s1d355": 6407,
      "s1d301": 6408,
      "s1d302": 6409,
      "s1d303": 6410,
      "s1d304": 6411,
      "s1d305": 6412,
      "s1d312": 6413,
      "s1d313": 6414,
      "s1d314": 6415,
      "s1d315": 6416,
      "s1d323": 6417,
      "s1d324": 6418,
      "s1d325": 6419,
      "s1d310": 6420,
      "s1d400": 6421,
      "s1d411": 6422,
      "s1d422": 6423,
      "s1d433": 6424,
      "s1d455": 6425,
      "s1d401": 6426,
      "s1d402": 6427,
      "s1d403": 6428,
      "s1d404": 6429,
      "s1d405": 6430,
      "s1d412": 6431,
      "s1d413": 6432,
      "s1d414": 6433,
      "s1d415": 6434,
      "s1d423": 6435,
      "s1d424": 6436,
      "s1d425": 6437,
      "s1d434": 6438,
      "s1d435": 6439,
      "s1d410": 6440,
      "s1d432": 6441,
      "s1d420": 6442,
      "s1d421": 6443,
      "s1d430": 6444,
      "s1d431": 6445,
      "s1d500": 6446,
      "s1d511": 6447,
      "s1d522": 6448,
      "s1d533": 6449,
      "s1d544": 6450,
      "s1d501": 6451,
      "s1d502": 6452,
      "s1d503": 6453,
      "s1d504": 6454,
      "s1d505": 6455,
      "s1d512": 6456,
      "s1d513": 6457,
      "s1d514": 6458,
      "s1d515": 6459,
      "s1d523": 6460,
      "s1d524": 6461,
      "s1d525": 6462,
      "s1d534": 6463,
      "s1d535": 6464,
      "s1d545": 6465,
      "s1d510": 6466,
      "s1d532": 6467,
      "s1d520": 6468,
      "s1d521": 6469,
      "s1d530": 6470,
      "s1d531": 6471,
      "s1d120": 6472,
      "s1d121": 6473,
      "s1d123": 6474,
      "s1d124": 6475,
      "s1d125": 6476,
      "s1d126": 6477,
      "s1d127": 6478,
      "s1d128": 6479,
      "s1d129": 6480,
      "s1d12a": 6481,
      "s1d12b": 6482,
      "s1d12c": 6483,
      "s1d12d": 6484,
      "s1d12e": 6485,
      "s1d12f": 6486,
      "s1d130": 6487,
      "s1d131": 6488,
      "s1d132": 6489,
      "s1d134": 6490,
      "s1d135": 6491,
      "s1d136": 6492,
      "s1d137": 6493,
      "s1d138": 6494,
      "s1d139": 6495,
      "s1d13a": 6496,
      "s1d13b": 6497,
      "s1d13c": 6498,
      "s1d13d": 6499,
      "s1d13e": 6500,
      "s1d13f": 6501,
      "s1d140": 6502,
      "s1d141": 6503,
      "s1d142": 6504,
      "s1d143": 6505,
      "s1d145": 6506,
      "s1d146": 6507,
      "s1d147": 6508,
      "s1d148": 6509,
      "s1d149": 6510,
      "s1d14a": 6511,
      "s1d14b": 6512,
      "s1d14c": 6513,
      "s1d14d": 6514,
      "s1d14e": 6515,
      "s1d14f": 6516,
      "s1d150": 6517,
      "s1d151": 6518,
      "s1d152": 6519,
      "s1d153": 6520,
      "s1d154": 6521,
      "s1d156": 6522,
      "s1d157": 6523,
      "s1d158": 6524,
      "s1d159": 6525,
      "s1d15a": 6526,
      "s1d15b": 6527,
      "s1d15c": 6528,
      "s1d15d": 6529,
      "s1d15e": 6530,
      "s1d15f": 6531,
      "s1d230": 6532,
      "s1d231": 6533,
      "s1d232": 6534,
      "s1d234": 6535,
      "s1d235": 6536,
      "s1d236": 6537,
      "s1d237": 6538,
      "s1d238": 6539,
      "s1d239": 6540,
      "s1d23a": 6541,
      "s1d23b": 6542,
      "s1d23c": 6543,
      "s1d23d": 6544,
      "s1d23e": 6545,
      "s1d23f": 6546,
      "s1d240": 6547,
      "s1d241": 6548,
      "s1d242": 6549,
      "s1d243": 6550,
      "s1d245": 6551,
      "s1d246": 6552,
      "s1d247": 6553,
      "s1d248": 6554,
      "s1d249": 6555,
      "s1d24a": 6556,
      "s1d24b": 6557,
      "s1d24c": 6558,
      "s1d24d": 6559,
      "s1d24e": 6560,
      "s1d24f": 6561,
      "s1d250": 6562,
      "s1d251": 6563,
      "s1d252": 6564,
      "s1d253": 6565,
      "s1d254": 6566,
      "s1d256": 6567,
      "s1d257": 6568,
      "s1d258": 6569,
      "s1d259": 6570,
      "s1d25a": 6571,
      "s1d25b": 6572,
      "s1d25c": 6573,
      "s1d25d": 6574,
      "s1d25e": 6575,
      "s1d25f": 6576,
      "s1d340": 6577,
      "s1d341": 6578,
      "s1d342": 6579,
      "s1d343": 6580,
      "s1d345": 6581,
      "s1d346": 6582,
      "s1d347": 6583,
      "s1d348": 6584,
      "s1d349": 6585,
      "s1d34a": 6586,
      "s1d34b": 6587,
      "s1d34c": 6588,
      "s1d34d": 6589,
      "s1d34e": 6590,
      "s1d34f": 6591,
      "s1d350": 6592,
      "s1d351": 6593,
      "s1d352": 6594,
      "s1d353": 6595,
      "s1d354": 6596,
      "s1d356": 6597,
      "s1d357": 6598,
      "s1d358": 6599,
      "s1d359": 6600,
      "s1d35a": 6601,
      "s1d35b": 6602,
      "s1d35c": 6603,
      "s1d35d": 6604,
      "s1d35e": 6605,
      "s1d35f": 6606,
      "s1d450": 6607,
      "s1d451": 6608,
      "s1d452": 6609,
      "s1d453": 6610,
      "s1d454": 6611,
      "s1d456": 6612,
      "s1d457": 6613,
      "s1d458": 6614,
      "s1d459": 6615,
      "s1d45a": 6616,
      "s1d45b": 6617,
      "s1d45c": 6618,
      "s1d45d": 6619,
      "s1d45e": 6620,
      "s1d45f": 6621,
      "s1d106": 6622,
      "s1d107": 6623,
      "s1d108": 6624,
      "s1d109": 6625,
      "s1d10a": 6626,
      "s1d10b": 6627,
      "s1d10c": 6628,
      "s1d10d": 6629,
      "s1d10e": 6630,
      "s1d10f": 6631,
      "s1d320": 6632,
      "s1d321": 6633,
      "s1d326": 6634,
      "s1d327": 6635,
      "s1d328": 6636,
      "s1d329": 6637,
      "s1d32a": 6638,
      "s1d32b": 6639,
      "s1d32c": 6640,
      "s1d32d": 6641,
      "s1d32e": 6642,
      "s1d32f": 6643,
      "s1d540": 6644,
      "s1d541": 6645,
      "s1d542": 6646,
      "s1d543": 6647,
      "s1d546": 6648,
      "s1d547": 6649,
      "s1d548": 6650,
      "s1d549": 6651,
      "s1d54a": 6652,
      "s1d54b": 6653,
      "s1d54c": 6654,
      "s1d54d": 6655,
      "s1d54e": 6656,
      "s1d54f": 6657,
      "s1d206": 6658,
      "s1d207": 6659,
      "s1d208": 6660,
      "s1d209": 6661,
      "s1d20a": 6662,
      "s1d20b": 6663,
      "s1d20c": 6664,
      "s1d20d": 6665,
      "s1d20e": 6666,
      "s1d20f": 6667,
      "s1d216": 6668,
      "s1d217": 6669,
      "s1d218": 6670,
      "s1d219": 6671,
      "s1d21a": 6672,
      "s1d21b": 6673,
      "s1d21c": 6674,
      "s1d21d": 6675,
      "s1d21e": 6676,
      "s1d21f": 6677,
      "s1d306": 6678,
      "s1d307": 6679,
      "s1d308": 6680,
      "s1d309": 6681,
      "s1d30a": 6682,
      "s1d30b": 6683,
      "s1d30c": 6684,
      "s1d30d": 6685,
      "s1d30e": 6686,
      "s1d30f": 6687,
      "s1d316": 6688,
      "s1d317": 6689,
      "s1d318": 6690,
      "s1d319": 6691,
      "s1d31a": 6692,
      "s1d31b": 6693,
      "s1d31c": 6694,
      "s1d31d": 6695,
      "s1d31e": 6696,
      "s1d31f": 6697,
      "s1d406": 6698,
      "s1d407": 6699,
      "s1d408": 6700,
      "s1d409": 6701,
      "s1d40a": 6702,
      "s1d40b": 6703,
      "s1d40c": 6704,
      "s1d40d": 6705,
      "s1d40e": 6706,
      "s1d40f": 6707,
      "s1d416": 6708,
      "s1d417": 6709,
      "s1d418": 6710,
      "s1d419": 6711,
      "s1d41a": 6712,
      "s1d41b": 6713,
      "s1d41c": 6714,
      "s1d41d": 6715,
      "s1d41e": 6716,
      "s1d41f": 6717,
      "s1d426": 6718,
      "s1d427": 6719,
      "s1d428": 6720,
      "s1d429": 6721,
      "s1d42a": 6722,
      "s1d42b": 6723,
      "s1d42c": 6724,
      "s1d42d": 6725,
      "s1d42e": 6726,
      "s1d42f": 6727,
      "s1d436": 6728,
      "s1d437": 6729,
      "s1d438": 6730,
      "s1d439": 6731,
      "s1d43a": 6732,
      "s1d43b": 6733,
      "s1d43c": 6734,
      "s1d43d": 6735,
      "s1d43e": 6736,
      "s1d43f": 6737,
      "s1d506": 6738,
      "s1d507": 6739,
      "s1d508": 6740,
      "s1d509": 6741,
      "s1d50a": 6742,
      "s1d50b": 6743,
      "s1d50c": 6744,
      "s1d50d": 6745,
      "s1d50e": 6746,
      "s1d50f": 6747,
      "s1d516": 6748,
      "s1d517": 6749,
      "s1d518": 6750,
      "s1d519": 6751,
      "s1d51a": 6752,
      "s1d51b": 6753,
      "s1d51c": 6754,
      "s1d51d": 6755,
      "s1d51e": 6756,
      "s1d51f": 6757,
      "s1d526": 6758,
      "s1d527": 6759,
      "s1d528": 6760,
      "s1d529": 6761,
      "s1d52a": 6762,
      "s1d52b": 6763,
      "s1d52c": 6764,
      "s1d52d": 6765,
      "s1d52e": 6766,
      "s1d52f": 6767,
      "s1d536": 6768,
      "s1d537": 6769,
      "s1d538": 6770,
      "s1d539": 6771,
      "s1d53a": 6772,
      "s1d53b": 6773,
      "s1d53c": 6774,
      "s1d53d": 6775,
      "s1d53e": 6776,
      "s1d53f": 6777,
      "s1e0": 6778,
      "s1e1": 6779,
      "s1e2": 6780,
      "s1e3": 6781,
      "s1e4": 6782,
      "s1e5": 6783,
      "s1e00": 6784,
      "s1e11": 6785,
      "s1e22": 6786,
      "s1e33": 6787,
      "s1e44": 6788,
      "s1e55": 6789,
      "s1e01": 6790,
      "s1e02": 6791,
      "s1e03": 6792,
      "s1e04": 6793,
      "s1e05": 6794,
      "s1e12": 6795,
      "s1e13": 6796,
      "s1e14": 6797,
      "s1e15": 6798,
      "s1e23": 6799,
      "s1e24": 6800,
      "s1e25": 6801,
      "s1e34": 6802,
      "s1e35": 6803,
      "s1e45": 6804,
      "s1e10": 6805,
      "s1e32": 6806,
      "s1e54": 6807,
      "s1e20": 6808,
      "s1e21": 6809,
      "s1e30": 6810,
      "s1e31": 6811,
      "s1e40": 6812,
      "s1e41": 6813,
      "s1e42": 6814,
      "s1e43": 6815,
      "s1e50": 6816,
      "s1e51": 6817,
      "s1e52": 6818,
      "s1e53": 6819,
      "s1e06": 6820,
      "s1e07": 6821,
      "s1e08": 6822,
      "s1e09": 6823,
      "s1e0a": 6824,
      "s1e0b": 6825,
      "s1e0c": 6826,
      "s1e0d": 6827,
      "s1e0e": 6828,
      "s1e0f": 6829,
      "s1e16": 6830,
      "s1e17": 6831,
      "s1e18": 6832,
      "s1e19": 6833,
      "s1e1a": 6834,
      "s1e1b": 6835,
      "s1e1c": 6836,
      "s1e1d": 6837,
      "s1e1e": 6838,
      "s1e1f": 6839,
      "s1e26": 6840,
      "s1e27": 6841,
      "s1e28": 6842,
      "s1e29": 6843,
      "s1e2a": 6844,
      "s1e2b": 6845,
      "s1e2c": 6846,
      "s1e2d": 6847,
      "s1e2e": 6848,
      "s1e2f": 6849,
      "s1e36": 6850,
      "s1e37": 6851,
      "s1e38": 6852,
      "s1e39": 6853,
      "s1e3a": 6854,
      "s1e3b": 6855,
      "s1e3c": 6856,
      "s1e3d": 6857,
      "s1e3e": 6858,
      "s1e3f": 6859,
      "s1e46": 6860,
      "s1e47": 6861,
      "s1e48": 6862,
      "s1e49": 6863,
      "s1e4a": 6864,
      "s1e4b": 6865,
      "s1e4c": 6866,
      "s1e4d": 6867,
      "s1e4e": 6868,
      "s1e4f": 6869,
      "s1e56": 6870,
      "s1e57": 6871,
      "s1e58": 6872,
      "s1e59": 6873,
      "s1e5a": 6874,
      "s1e5b": 6875,
      "s1e5c": 6876,
      "s1e5d": 6877,
      "s1e5e": 6878,
      "s1e5f": 6879,
      "s1e011": 6880,
      "s1e022": 6881,
      "s1e033": 6882,
      "s1e044": 6883,
      "s1e055": 6884,
      "s1e000": 6885,
      "s1e001": 6886,
      "s1e002": 6887,
      "s1e003": 6888,
      "s1e004": 6889,
      "s1e005": 6890,
      "s1e006": 6891,
      "s1e007": 6892,
      "s1e008": 6893,
      "s1e009": 6894,
      "s1e00a": 6895,
      "s1e00b": 6896,
      "s1e00c": 6897,
      "s1e00d": 6898,
      "s1e00e": 6899,
      "s1e00f": 6900,
      "s1e110": 6901,
      "s1e111": 6902,
      "s1e112": 6903,
      "s1e113": 6904,
      "s1e114": 6905,
      "s1e115": 6906,
      "s1e116": 6907,
      "s1e117": 6908,
      "s1e118": 6909,
      "s1e119": 6910,
      "s1e11a": 6911,
      "s1e11b": 6912,
      "s1e11c": 6913,
      "s1e11d": 6914,
      "s1e11e": 6915,
      "s1e11f": 6916,
      "s1e220": 6917,
      "s1e221": 6918,
      "s1e222": 6919,
      "s1e223": 6920,
      "s1e224": 6921,
      "s1e225": 6922,
      "s1e226": 6923,
      "s1e227": 6924,
      "s1e228": 6925,
      "s1e229": 6926,
      "s1e22a": 6927,
      "s1e22b": 6928,
      "s1e22c": 6929,
      "s1e22d": 6930,
      "s1e22e": 6931,
      "s1e22f": 6932,
      "s1e330": 6933,
      "s1e331": 6934,
      "s1e332": 6935,
      "s1e333": 6936,
      "s1e334": 6937,
      "s1e335": 6938,
      "s1e336": 6939,
      "s1e337": 6940,
      "s1e338": 6941,
      "s1e339": 6942,
      "s1e33a": 6943,
      "s1e33b": 6944,
      "s1e33c": 6945,
      "s1e33d": 6946,
      "s1e33e": 6947,
      "s1e33f": 6948,
      "s1e440": 6949,
      "s1e441": 6950,
      "s1e442": 6951,
      "s1e443": 6952,
      "s1e444": 6953,
      "s1e445": 6954,
      "s1e446": 6955,
      "s1e447": 6956,
      "s1e448": 6957,
      "s1e449": 6958,
      "s1e44a": 6959,
      "s1e44b": 6960,
      "s1e44c": 6961,
      "s1e44d": 6962,
      "s1e44e": 6963,
      "s1e44f": 6964,
      "s1e550": 6965,
      "s1e551": 6966,
      "s1e552": 6967,
      "s1e553": 6968,
      "s1e554": 6969,
      "s1e555": 6970,
      "s1e556": 6971,
      "s1e557": 6972,
      "s1e558": 6973,
      "s1e559": 6974,
      "s1e55a": 6975,
      "s1e55b": 6976,
      "s1e55c": 6977,
      "s1e55d": 6978,
      "s1e55e": 6979,
      "s1e55f": 6980,
      "s1e010": 6981,
      "s1e012": 6982,
      "s1e013": 6983,
      "s1e014": 6984,
      "s1e015": 6985,
      "s1e016": 6986,
      "s1e017": 6987,
      "s1e018": 6988,
      "s1e019": 6989,
      "s1e01a": 6990,
      "s1e01b": 6991,
      "s1e01c": 6992,
      "s1e01d": 6993,
      "s1e01e": 6994,
      "s1e01f": 6995,
      "s1e020": 6996,
      "s1e021": 6997,
      "s1e023": 6998,
      "s1e024": 6999,
      "s1e025": 7000,
      "s1e026": 7001,
      "s1e027": 7002,
      "s1e028": 7003,
      "s1e029": 7004,
      "s1e02a": 7005,
      "s1e02b": 7006,
      "s1e02c": 7007,
      "s1e02d": 7008,
      "s1e02e": 7009,
      "s1e02f": 7010,
      "s1e030": 7011,
      "s1e031": 7012,
      "s1e032": 7013,
      "s1e034": 7014,
      "s1e035": 7015,
      "s1e036": 7016,
      "s1e037": 7017,
      "s1e038": 7018,
      "s1e039": 7019,
      "s1e03a": 7020,
      "s1e03b": 7021,
      "s1e03c": 7022,
      "s1e03d": 7023,
      "s1e03e": 7024,
      "s1e03f": 7025,
      "s1e040": 7026,
      "s1e041": 7027,
      "s1e042": 7028,
      "s1e043": 7029,
      "s1e045": 7030,
      "s1e046": 7031,
      "s1e047": 7032,
      "s1e048": 7033,
      "s1e049": 7034,
      "s1e04a": 7035,
      "s1e04b": 7036,
      "s1e04c": 7037,
      "s1e04d": 7038,
      "s1e04e": 7039,
      "s1e04f": 7040,
      "s1e050": 7041,
      "s1e051": 7042,
      "s1e052": 7043,
      "s1e053": 7044,
      "s1e054": 7045,
      "s1e056": 7046,
      "s1e057": 7047,
      "s1e058": 7048,
      "s1e059": 7049,
      "s1e05a": 7050,
      "s1e05b": 7051,
      "s1e05c": 7052,
      "s1e05d": 7053,
      "s1e05e": 7054,
      "s1e05f": 7055,
      "s1e100": 7056,
      "s1e122": 7057,
      "s1e133": 7058,
      "s1e144": 7059,
      "s1e155": 7060,
      "s1e101": 7061,
      "s1e102": 7062,
      "s1e103": 7063,
      "s1e104": 7064,
      "s1e105": 7065,
      "s1e200": 7066,
      "s1e211": 7067,
      "s1e233": 7068,
      "s1e244": 7069,
      "s1e255": 7070,
      "s1e201": 7071,
      "s1e202": 7072,
      "s1e203": 7073,
      "s1e204": 7074,
      "s1e205": 7075,
      "s1e212": 7076,
      "s1e213": 7077,
      "s1e214": 7078,
      "s1e215": 7079,
      "s1e210": 7080,
      "s1e300": 7081,
      "s1e311": 7082,
      "s1e322": 7083,
      "s1e344": 7084,
      "s1e355": 7085,
      "s1e301": 7086,
      "s1e302": 7087,
      "s1e303": 7088,
      "s1e304": 7089,
      "s1e305": 7090,
      "s1e312": 7091,
      "s1e313": 7092,
      "s1e314": 7093,
      "s1e315": 7094,
      "s1e323": 7095,
      "s1e324": 7096,
      "s1e325": 7097,
      "s1e310": 7098,
      "s1e400": 7099,
      "s1e411": 7100,
      "s1e422": 7101,
      "s1e433": 7102,
      "s1e455": 7103,
      "s1e401": 7104,
      "s1e402": 7105,
      "s1e403": 7106,
      "s1e404": 7107,
      "s1e405": 7108,
      "s1e412": 7109,
      "s1e413": 7110,
      "s1e414": 7111,
      "s1e415": 7112,
      "s1e423": 7113,
      "s1e424": 7114,
      "s1e425": 7115,
      "s1e434": 7116,
      "s1e435": 7117,
      "s1e410": 7118,
      "s1e432": 7119,
      "s1e420": 7120,
      "s1e421": 7121,
      "s1e430": 7122,
      "s1e431": 7123,
      "s1e500": 7124,
      "s1e511": 7125,
      "s1e522": 7126,
      "s1e533": 7127,
      "s1e544": 7128,
      "s1e501": 7129,
      "s1e502": 7130,
      "s1e503": 7131,
      "s1e504": 7132,
      "s1e505": 7133,
      "s1e512": 7134,
      "s1e513": 7135,
      "s1e514": 7136,
      "s1e515": 7137,
      "s1e523": 7138,
      "s1e524": 7139,
      "s1e525": 7140,
      "s1e534": 7141,
      "s1e535": 7142,
      "s1e545": 7143,
      "s1e510": 7144,
      "s1e532": 7145,
      "s1e520": 7146,
      "s1e521": 7147,
      "s1e530": 7148,
      "s1e531": 7149,
      "s1e120": 7150,
      "s1e121": 7151,
      "s1e123": 7152,
      "s1e124": 7153,
      "s1e125": 7154,
      "s1e126": 7155,
      "s1e127": 7156,
      "s1e128": 7157,
      "s1e129": 7158,
      "s1e12a": 7159,
      "s1e12b": 7160,
      "s1e12c": 7161,
      "s1e12d": 7162,
      "s1e12e": 7163,
      "s1e12f": 7164,
      "s1e130": 7165,
      "s1e131": 7166,
      "s1e132": 7167,
      "s1e134": 7168,
      "s1e135": 7169,
      "s1e136": 7170,
      "s1e137": 7171,
      "s1e138": 7172,
      "s1e139": 7173,
      "s1e13a": 7174,
      "s1e13b": 7175,
      "s1e13c": 7176,
      "s1e13d": 7177,
      "s1e13e": 7178,
      "s1e13f": 7179,
      "s1e140": 7180,
      "s1e141": 7181,
      "s1e142": 7182,
      "s1e143": 7183,
      "s1e145": 7184,
      "s1e146": 7185,
      "s1e147": 7186,
      "s1e148": 7187,
      "s1e149": 7188,
      "s1e14a": 7189,
      "s1e14b": 7190,
      "s1e14c": 7191,
      "s1e14d": 7192,
      "s1e14e": 7193,
      "s1e14f": 7194,
      "s1e150": 7195,
      "s1e151": 7196,
      "s1e152": 7197,
      "s1e153": 7198,
      "s1e154": 7199,
      "s1e156": 7200,
      "s1e157": 7201,
      "s1e158": 7202,
      "s1e159": 7203,
      "s1e15a": 7204,
      "s1e15b": 7205,
      "s1e15c": 7206,
      "s1e15d": 7207,
      "s1e15e": 7208,
      "s1e15f": 7209,
      "s1e230": 7210,
      "s1e231": 7211,
      "s1e232": 7212,
      "s1e234": 7213,
      "s1e235": 7214,
      "s1e236": 7215,
      "s1e237": 7216,
      "s1e238": 7217,
      "s1e239": 7218,
      "s1e23a": 7219,
      "s1e23b": 7220,
      "s1e23c": 7221,
      "s1e23d": 7222,
      "s1e23e": 7223,
      "s1e23f": 7224,
      "s1e240": 7225,
      "s1e241": 7226,
      "s1e242": 7227,
      "s1e243": 7228,
      "s1e245": 7229,
      "s1e246": 7230,
      "s1e247": 7231,
      "s1e248": 7232,
      "s1e249": 7233,
      "s1e24a": 7234,
      "s1e24b": 7235,
      "s1e24c": 7236,
      "s1e24d": 7237,
      "s1e24e": 7238,
      "s1e24f": 7239,
      "s1e250": 7240,
      "s1e251": 7241,
      "s1e252": 7242,
      "s1e253": 7243,
      "s1e254": 7244,
      "s1e256": 7245,
      "s1e257": 7246,
      "s1e258": 7247,
      "s1e259": 7248,
      "s1e25a": 7249,
      "s1e25b": 7250,
      "s1e25c": 7251,
      "s1e25d": 7252,
      "s1e25e": 7253,
      "s1e25f": 7254,
      "s1e340": 7255,
      "s1e341": 7256,
      "s1e342": 7257,
      "s1e343": 7258,
      "s1e345": 7259,
      "s1e346": 7260,
      "s1e347": 7261,
      "s1e348": 7262,
      "s1e349": 7263,
      "s1e34a": 7264,
      "s1e34b": 7265,
      "s1e34c": 7266,
      "s1e34d": 7267,
      "s1e34e": 7268,
      "s1e34f": 7269,
      "s1e350": 7270,
      "s1e351": 7271,
      "s1e352": 7272,
      "s1e353": 7273,
      "s1e354": 7274,
      "s1e356": 7275,
      "s1e357": 7276,
      "s1e358": 7277,
      "s1e359": 7278,
      "s1e35a": 7279,
      "s1e35b": 7280,
      "s1e35c": 7281,
      "s1e35d": 7282,
      "s1e35e": 7283,
      "s1e35f": 7284,
      "s1e450": 7285,
      "s1e451": 7286,
      "s1e452": 7287,
      "s1e453": 7288,
      "s1e454": 7289,
      "s1e456": 7290,
      "s1e457": 7291,
      "s1e458": 7292,
      "s1e459": 7293,
      "s1e45a": 7294,
      "s1e45b": 7295,
      "s1e45c": 7296,
      "s1e45d": 7297,
      "s1e45e": 7298,
      "s1e45f": 7299,
      "s1e106": 7300,
      "s1e107": 7301,
      "s1e108": 7302,
      "s1e109": 7303,
      "s1e10a": 7304,
      "s1e10b": 7305,
      "s1e10c": 7306,
      "s1e10d": 7307,
      "s1e10e": 7308,
      "s1e10f": 7309,
      "s1e320": 7310,
      "s1e321": 7311,
      "s1e326": 7312,
      "s1e327": 7313,
      "s1e328": 7314,
      "s1e329": 7315,
      "s1e32a": 7316,
      "s1e32b": 7317,
      "s1e32c": 7318,
      "s1e32d": 7319,
      "s1e32e": 7320,
      "s1e32f": 7321,
      "s1e540": 7322,
      "s1e541": 7323,
      "s1e542": 7324,
      "s1e543": 7325,
      "s1e546": 7326,
      "s1e547": 7327,
      "s1e548": 7328,
      "s1e549": 7329,
      "s1e54a": 7330,
      "s1e54b": 7331,
      "s1e54c": 7332,
      "s1e54d": 7333,
      "s1e54e": 7334,
      "s1e54f": 7335,
      "s1e206": 7336,
      "s1e207": 7337,
      "s1e208": 7338,
      "s1e209": 7339,
      "s1e20a": 7340,
      "s1e20b": 7341,
      "s1e20c": 7342,
      "s1e20d": 7343,
      "s1e20e": 7344,
      "s1e20f": 7345,
      "s1e216": 7346,
      "s1e217": 7347,
      "s1e218": 7348,
      "s1e219": 7349,
      "s1e21a": 7350,
      "s1e21b": 7351,
      "s1e21c": 7352,
      "s1e21d": 7353,
      "s1e21e": 7354,
      "s1e21f": 7355,
      "s1e306": 7356,
      "s1e307": 7357,
      "s1e308": 7358,
      "s1e309": 7359,
      "s1e30a": 7360,
      "s1e30b": 7361,
      "s1e30c": 7362,
      "s1e30d": 7363,
      "s1e30e": 7364,
      "s1e30f": 7365,
      "s1e316": 7366,
      "s1e317": 7367,
      "s1e318": 7368,
      "s1e319": 7369,
      "s1e31a": 7370,
      "s1e31b": 7371,
      "s1e31c": 7372,
      "s1e31d": 7373,
      "s1e31e": 7374,
      "s1e31f": 7375,
      "s1e406": 7376,
      "s1e407": 7377,
      "s1e408": 7378,
      "s1e409": 7379,
      "s1e40a": 7380,
      "s1e40b": 7381,
      "s1e40c": 7382,
      "s1e40d": 7383,
      "s1e40e": 7384,
      "s1e40f": 7385,
      "s1e416": 7386,
      "s1e417": 7387,
      "s1e418": 7388,
      "s1e419": 7389,
      "s1e41a": 7390,
      "s1e41b": 7391,
      "s1e41c": 7392,
      "s1e41d": 7393,
      "s1e41e": 7394,
      "s1e41f": 7395,
      "s1e426": 7396,
      "s1e427": 7397,
      "s1e428": 7398,
      "s1e429": 7399,
      "s1e42a": 7400,
      "s1e42b": 7401,
      "s1e42c": 7402,
      "s1e42d": 7403,
      "s1e42e": 7404,
      "s1e42f": 7405,
      "s1e436": 7406,
      "s1e437": 7407,
      "s1e438": 7408,
      "s1e439": 7409,
      "s1e43a": 7410,
      "s1e43b": 7411,
      "s1e43c": 7412,
      "s1e43d": 7413,
      "s1e43e": 7414,
      "s1e43f": 7415,
      "s1e506": 7416,
      "s1e507": 7417,
      "s1e508": 7418,
      "s1e509": 7419,
      "s1e50a": 7420,
      "s1e50b": 7421,
      "s1e50c": 7422,
      "s1e50d": 7423,
      "s1e50e": 7424,
      "s1e50f": 7425,
      "s1e516": 7426,
      "s1e517": 7427,
      "s1e518": 7428,
      "s1e519": 7429,
      "s1e51a": 7430,
      "s1e51b": 7431,
      "s1e51c": 7432,
      "s1e51d": 7433,
      "s1e51e": 7434,
      "s1e51f": 7435,
      "s1e526": 7436,
      "s1e527": 7437,
      "s1e528": 7438,
      "s1e529": 7439,
      "s1e52a": 7440,
      "s1e52b": 7441,
      "s1e52c": 7442,
      "s1e52d": 7443,
      "s1e52e": 7444,
      "s1e52f": 7445,
      "s1e536": 7446,
      "s1e537": 7447,
      "s1e538": 7448,
      "s1e539": 7449,
      "s1e53a": 7450,
      "s1e53b": 7451,
      "s1e53c": 7452,
      "s1e53d": 7453,
      "s1e53e": 7454,
      "s1e53f": 7455,
      "s1f0": 7456,
      "s1f1": 7457,
      "s1f2": 7458,
      "s1f3": 7459,
      "s1f4": 7460,
      "s1f5": 7461,
      "s1f00": 7462,
      "s1f11": 7463,
      "s1f22": 7464,
      "s1f33": 7465,
      "s1f44": 7466,
      "s1f55": 7467,
      "s1f01": 7468,
      "s1f02": 7469,
      "s1f03": 7470,
      "s1f04": 7471,
      "s1f05": 7472,
      "s1f12": 7473,
      "s1f13": 7474,
      "s1f14": 7475,
      "s1f15": 7476,
      "s1f23": 7477,
      "s1f24": 7478,
      "s1f25": 7479,
      "s1f34": 7480,
      "s1f35": 7481,
      "s1f45": 7482,
      "s1f10": 7483,
      "s1f32": 7484,
      "s1f54": 7485,
      "s1f20": 7486,
      "s1f21": 7487,
      "s1f30": 7488,
      "s1f31": 7489,
      "s1f40": 7490,
      "s1f41": 7491,
      "s1f42": 7492,
      "s1f43": 7493,
      "s1f50": 7494,
      "s1f51": 7495,
      "s1f52": 7496,
      "s1f53": 7497,
      "s1f06": 7498,
      "s1f07": 7499,
      "s1f08": 7500,
      "s1f09": 7501,
      "s1f0a": 7502,
      "s1f0b": 7503,
      "s1f0c": 7504,
      "s1f0d": 7505,
      "s1f0e": 7506,
      "s1f0f": 7507,
      "s1f16": 7508,
      "s1f17": 7509,
      "s1f18": 7510,
      "s1f19": 7511,
      "s1f1a": 7512,
      "s1f1b": 7513,
      "s1f1c": 7514,
      "s1f1d": 7515,
      "s1f1e": 7516,
      "s1f1f": 7517,
      "s1f26": 7518,
      "s1f27": 7519,
      "s1f28": 7520,
      "s1f29": 7521,
      "s1f2a": 7522,
      "s1f2b": 7523,
      "s1f2c": 7524,
      "s1f2d": 7525,
      "s1f2e": 7526,
      "s1f2f": 7527,
      "s1f36": 7528,
      "s1f37": 7529,
      "s1f38": 7530,
      "s1f39": 7531,
      "s1f3a": 7532,
      "s1f3b": 7533,
      "s1f3c": 7534,
      "s1f3d": 7535,
      "s1f3e": 7536,
      "s1f3f": 7537,
      "s1f46": 7538,
      "s1f47": 7539,
      "s1f48": 7540,
      "s1f49": 7541,
      "s1f4a": 7542,
      "s1f4b": 7543,
      "s1f4c": 7544,
      "s1f4d": 7545,
      "s1f4e": 7546,
      "s1f4f": 7547,
      "s1f56": 7548,
      "s1f57": 7549,
      "s1f58": 7550,
      "s1f59": 7551,
      "s1f5a": 7552,
      "s1f5b": 7553,
      "s1f5c": 7554,
      "s1f5d": 7555,
      "s1f5e": 7556,
      "s1f5f": 7557,
      "s1f011": 7558,
      "s1f022": 7559,
      "s1f033": 7560,
      "s1f044": 7561,
      "s1f055": 7562,
      "s1f000": 7563,
      "s1f001": 7564,
      "s1f002": 7565,
      "s1f003": 7566,
      "s1f004": 7567,
      "s1f005": 7568,
      "s1f006": 7569,
      "s1f007": 7570,
      "s1f008": 7571,
      "s1f009": 7572,
      "s1f00a": 7573,
      "s1f00b": 7574,
      "s1f00c": 7575,
      "s1f00d": 7576,
      "s1f00e": 7577,
      "s1f00f": 7578,
      "s1f110": 7579,
      "s1f111": 7580,
      "s1f112": 7581,
      "s1f113": 7582,
      "s1f114": 7583,
      "s1f115": 7584,
      "s1f116": 7585,
      "s1f117": 7586,
      "s1f118": 7587,
      "s1f119": 7588,
      "s1f11a": 7589,
      "s1f11b": 7590,
      "s1f11c": 7591,
      "s1f11d": 7592,
      "s1f11e": 7593,
      "s1f11f": 7594,
      "s1f220": 7595,
      "s1f221": 7596,
      "s1f222": 7597,
      "s1f223": 7598,
      "s1f224": 7599,
      "s1f225": 7600,
      "s1f226": 7601,
      "s1f227": 7602,
      "s1f228": 7603,
      "s1f229": 7604,
      "s1f22a": 7605,
      "s1f22b": 7606,
      "s1f22c": 7607,
      "s1f22d": 7608,
      "s1f22e": 7609,
      "s1f22f": 7610,
      "s1f330": 7611,
      "s1f331": 7612,
      "s1f332": 7613,
      "s1f333": 7614,
      "s1f334": 7615,
      "s1f335": 7616,
      "s1f336": 7617,
      "s1f337": 7618,
      "s1f338": 7619,
      "s1f339": 7620,
      "s1f33a": 7621,
      "s1f33b": 7622,
      "s1f33c": 7623,
      "s1f33d": 7624,
      "s1f33e": 7625,
      "s1f33f": 7626,
      "s1f440": 7627,
      "s1f441": 7628,
      "s1f442": 7629,
      "s1f443": 7630,
      "s1f444": 7631,
      "s1f445": 7632,
      "s1f446": 7633,
      "s1f447": 7634,
      "s1f448": 7635,
      "s1f449": 7636,
      "s1f44a": 7637,
      "s1f44b": 7638,
      "s1f44c": 7639,
      "s1f44d": 7640,
      "s1f44e": 7641,
      "s1f44f": 7642,
      "s1f550": 7643,
      "s1f551": 7644,
      "s1f552": 7645,
      "s1f553": 7646,
      "s1f554": 7647,
      "s1f555": 7648,
      "s1f556": 7649,
      "s1f557": 7650,
      "s1f558": 7651,
      "s1f559": 7652,
      "s1f55a": 7653,
      "s1f55b": 7654,
      "s1f55c": 7655,
      "s1f55d": 7656,
      "s1f55e": 7657,
      "s1f55f": 7658,
      "s1f010": 7659,
      "s1f012": 7660,
      "s1f013": 7661,
      "s1f014": 7662,
      "s1f015": 7663,
      "s1f016": 7664,
      "s1f017": 7665,
      "s1f018": 7666,
      "s1f019": 7667,
      "s1f01a": 7668,
      "s1f01b": 7669,
      "s1f01c": 7670,
      "s1f01d": 7671,
      "s1f01e": 7672,
      "s1f01f": 7673,
      "s1f020": 7674,
      "s1f021": 7675,
      "s1f023": 7676,
      "s1f024": 7677,
      "s1f025": 7678,
      "s1f026": 7679,
      "s1f027": 7680,
      "s1f028": 7681,
      "s1f029": 7682,
      "s1f02a": 7683,
      "s1f02b": 7684,
      "s1f02c": 7685,
      "s1f02d": 7686,
      "s1f02e": 7687,
      "s1f02f": 7688,
      "s1f030": 7689,
      "s1f031": 7690,
      "s1f032": 7691,
      "s1f034": 7692,
      "s1f035": 7693,
      "s1f036": 7694,
      "s1f037": 7695,
      "s1f038": 7696,
      "s1f039": 7697,
      "s1f03a": 7698,
      "s1f03b": 7699,
      "s1f03c": 7700,
      "s1f03d": 7701,
      "s1f03e": 7702,
      "s1f03f": 7703,
      "s1f040": 7704,
      "s1f041": 7705,
      "s1f042": 7706,
      "s1f043": 7707,
      "s1f045": 7708,
      "s1f046": 7709,
      "s1f047": 7710,
      "s1f048": 7711,
      "s1f049": 7712,
      "s1f04a": 7713,
      "s1f04b": 7714,
      "s1f04c": 7715,
      "s1f04d": 7716,
      "s1f04e": 7717,
      "s1f04f": 7718,
      "s1f050": 7719,
      "s1f051": 7720,
      "s1f052": 7721,
      "s1f053": 7722,
      "s1f054": 7723,
      "s1f056": 7724,
      "s1f057": 7725,
      "s1f058": 7726,
      "s1f059": 7727,
      "s1f05a": 7728,
      "s1f05b": 7729,
      "s1f05c": 7730,
      "s1f05d": 7731,
      "s1f05e": 7732,
      "s1f05f": 7733,
      "s1f100": 7734,
      "s1f122": 7735,
      "s1f133": 7736,
      "s1f144": 7737,
      "s1f155": 7738,
      "s1f101": 7739,
      "s1f102": 7740,
      "s1f103": 7741,
      "s1f104": 7742,
      "s1f105": 7743,
      "s1f200": 7744,
      "s1f211": 7745,
      "s1f233": 7746,
      "s1f244": 7747,
      "s1f255": 7748,
      "s1f201": 7749,
      "s1f202": 7750,
      "s1f203": 7751,
      "s1f204": 7752,
      "s1f205": 7753,
      "s1f212": 7754,
      "s1f213": 7755,
      "s1f214": 7756,
      "s1f215": 7757,
      "s1f210": 7758,
      "s1f300": 7759,
      "s1f311": 7760,
      "s1f322": 7761,
      "s1f344": 7762,
      "s1f355": 7763,
      "s1f301": 7764,
      "s1f302": 7765,
      "s1f303": 7766,
      "s1f304": 7767,
      "s1f305": 7768,
      "s1f312": 7769,
      "s1f313": 7770,
      "s1f314": 7771,
      "s1f315": 7772,
      "s1f323": 7773,
      "s1f324": 7774,
      "s1f325": 7775,
      "s1f310": 7776,
      "s1f400": 7777,
      "s1f411": 7778,
      "s1f422": 7779,
      "s1f433": 7780,
      "s1f455": 7781,
      "s1f401": 7782,
      "s1f402": 7783,
      "s1f403": 7784,
      "s1f404": 7785,
      "s1f405": 7786,
      "s1f412": 7787,
      "s1f413": 7788,
      "s1f414": 7789,
      "s1f415": 7790,
      "s1f423": 7791,
      "s1f424": 7792,
      "s1f425": 7793,
      "s1f434": 7794,
      "s1f435": 7795,
      "s1f410": 7796,
      "s1f432": 7797,
      "s1f420": 7798,
      "s1f421": 7799,
      "s1f430": 7800,
      "s1f431": 7801,
      "s1f500": 7802,
      "s1f511": 7803,
      "s1f522": 7804,
      "s1f533": 7805,
      "s1f544": 7806,
      "s1f501": 7807,
      "s1f502": 7808,
      "s1f503": 7809,
      "s1f504": 7810,
      "s1f505": 7811,
      "s1f512": 7812,
      "s1f513": 7813,
      "s1f514": 7814,
      "s1f515": 7815,
      "s1f523": 7816,
      "s1f524": 7817,
      "s1f525": 7818,
      "s1f534": 7819,
      "s1f535": 7820,
      "s1f545": 7821,
      "s1f510": 7822,
      "s1f532": 7823,
      "s1f520": 7824,
      "s1f521": 7825,
      "s1f530": 7826,
      "s1f531": 7827,
      "s1f120": 7828,
      "s1f121": 7829,
      "s1f123": 7830,
      "s1f124": 7831,
      "s1f125": 7832,
      "s1f126": 7833,
      "s1f127": 7834,
      "s1f128": 7835,
      "s1f129": 7836,
      "s1f12a": 7837,
      "s1f12b": 7838,
      "s1f12c": 7839,
      "s1f12d": 7840,
      "s1f12e": 7841,
      "s1f12f": 7842,
      "s1f130": 7843,
      "s1f131": 7844,
      "s1f132": 7845,
      "s1f134": 7846,
      "s1f135": 7847,
      "s1f136": 7848,
      "s1f137": 7849,
      "s1f138": 7850,
      "s1f139": 7851,
      "s1f13a": 7852,
      "s1f13b": 7853,
      "s1f13c": 7854,
      "s1f13d": 7855,
      "s1f13e": 7856,
      "s1f13f": 7857,
      "s1f140": 7858,
      "s1f141": 7859,
      "s1f142": 7860,
      "s1f143": 7861,
      "s1f145": 7862,
      "s1f146": 7863,
      "s1f147": 7864,
      "s1f148": 7865,
      "s1f149": 7866,
      "s1f14a": 7867,
      "s1f14b": 7868,
      "s1f14c": 7869,
      "s1f14d": 7870,
      "s1f14e": 7871,
      "s1f14f": 7872,
      "s1f150": 7873,
      "s1f151": 7874,
      "s1f152": 7875,
      "s1f153": 7876,
      "s1f154": 7877,
      "s1f156": 7878,
      "s1f157": 7879,
      "s1f158": 7880,
      "s1f159": 7881,
      "s1f15a": 7882,
      "s1f15b": 7883,
      "s1f15c": 7884,
      "s1f15d": 7885,
      "s1f15e": 7886,
      "s1f15f": 7887,
      "s1f230": 7888,
      "s1f231": 7889,
      "s1f232": 7890,
      "s1f234": 7891,
      "s1f235": 7892,
      "s1f236": 7893,
      "s1f237": 7894,
      "s1f238": 7895,
      "s1f239": 7896,
      "s1f23a": 7897,
      "s1f23b": 7898,
      "s1f23c": 7899,
      "s1f23d": 7900,
      "s1f23e": 7901,
      "s1f23f": 7902,
      "s1f240": 7903,
      "s1f241": 7904,
      "s1f242": 7905,
      "s1f243": 7906,
      "s1f245": 7907,
      "s1f246": 7908,
      "s1f247": 7909,
      "s1f248": 7910,
      "s1f249": 7911,
      "s1f24a": 7912,
      "s1f24b": 7913,
      "s1f24c": 7914,
      "s1f24d": 7915,
      "s1f24e": 7916,
      "s1f24f": 7917,
      "s1f250": 7918,
      "s1f251": 7919,
      "s1f252": 7920,
      "s1f253": 7921,
      "s1f254": 7922,
      "s1f256": 7923,
      "s1f257": 7924,
      "s1f258": 7925,
      "s1f259": 7926,
      "s1f25a": 7927,
      "s1f25b": 7928,
      "s1f25c": 7929,
      "s1f25d": 7930,
      "s1f25e": 7931,
      "s1f25f": 7932,
      "s1f340": 7933,
      "s1f341": 7934,
      "s1f342": 7935,
      "s1f343": 7936,
      "s1f345": 7937,
      "s1f346": 7938,
      "s1f347": 7939,
      "s1f348": 7940,
      "s1f349": 7941,
      "s1f34a": 7942,
      "s1f34b": 7943,
      "s1f34c": 7944,
      "s1f34d": 7945,
      "s1f34e": 7946,
      "s1f34f": 7947,
      "s1f350": 7948,
      "s1f351": 7949,
      "s1f352": 7950,
      "s1f353": 7951,
      "s1f354": 7952,
      "s1f356": 7953,
      "s1f357": 7954,
      "s1f358": 7955,
      "s1f359": 7956,
      "s1f35a": 7957,
      "s1f35b": 7958,
      "s1f35c": 7959,
      "s1f35d": 7960,
      "s1f35e": 7961,
      "s1f35f": 7962,
      "s1f450": 7963,
      "s1f451": 7964,
      "s1f452": 7965,
      "s1f453": 7966,
      "s1f454": 7967,
      "s1f456": 7968,
      "s1f457": 7969,
      "s1f458": 7970,
      "s1f459": 7971,
      "s1f45a": 7972,
      "s1f45b": 7973,
      "s1f45c": 7974,
      "s1f45d": 7975,
      "s1f45e": 7976,
      "s1f45f": 7977,
      "s1f106": 7978,
      "s1f107": 7979,
      "s1f108": 7980,
      "s1f109": 7981,
      "s1f10a": 7982,
      "s1f10b": 7983,
      "s1f10c": 7984,
      "s1f10d": 7985,
      "s1f10e": 7986,
      "s1f10f": 7987,
      "s1f320": 7988,
      "s1f321": 7989,
      "s1f326": 7990,
      "s1f327": 7991,
      "s1f328": 7992,
      "s1f329": 7993,
      "s1f32a": 7994,
      "s1f32b": 7995,
      "s1f32c": 7996,
      "s1f32d": 7997,
      "s1f32e": 7998,
      "s1f32f": 7999,
      "s1f540": 8000,
      "s1f541": 8001,
      "s1f542": 8002,
      "s1f543": 8003,
      "s1f546": 8004,
      "s1f547": 8005,
      "s1f548": 8006,
      "s1f549": 8007,
      "s1f54a": 8008,
      "s1f54b": 8009,
      "s1f54c": 8010,
      "s1f54d": 8011,
      "s1f54e": 8012,
      "s1f54f": 8013,
      "s1f206": 8014,
      "s1f207": 8015,
      "s1f208": 8016,
      "s1f209": 8017,
      "s1f20a": 8018,
      "s1f20b": 8019,
      "s1f20c": 8020,
      "s1f20d": 8021,
      "s1f20e": 8022,
      "s1f20f": 8023,
      "s1f216": 8024,
      "s1f217": 8025,
      "s1f218": 8026,
      "s1f219": 8027,
      "s1f21a": 8028,
      "s1f21b": 8029,
      "s1f21c": 8030,
      "s1f21d": 8031,
      "s1f21e": 8032,
      "s1f21f": 8033,
      "s1f306": 8034,
      "s1f307": 8035,
      "s1f308": 8036,
      "s1f309": 8037,
      "s1f30a": 8038,
      "s1f30b": 8039,
      "s1f30c": 8040,
      "s1f30d": 8041,
      "s1f30e": 8042,
      "s1f30f": 8043,
      "s1f316": 8044,
      "s1f317": 8045,
      "s1f318": 8046,
      "s1f319": 8047,
      "s1f31a": 8048,
      "s1f31b": 8049,
      "s1f31c": 8050,
      "s1f31d": 8051,
      "s1f31e": 8052,
      "s1f31f": 8053,
      "s1f406": 8054,
      "s1f407": 8055,
      "s1f408": 8056,
      "s1f409": 8057,
      "s1f40a": 8058,
      "s1f40b": 8059,
      "s1f40c": 8060,
      "s1f40d": 8061,
      "s1f40e": 8062,
      "s1f40f": 8063,
      "s1f416": 8064,
      "s1f417": 8065,
      "s1f418": 8066,
      "s1f419": 8067,
      "s1f41a": 8068,
      "s1f41b": 8069,
      "s1f41c": 8070,
      "s1f41d": 8071,
      "s1f41e": 8072,
      "s1f41f": 8073,
      "s1f426": 8074,
      "s1f427": 8075,
      "s1f428": 8076,
      "s1f429": 8077,
      "s1f42a": 8078,
      "s1f42b": 8079,
      "s1f42c": 8080,
      "s1f42d": 8081,
      "s1f42e": 8082,
      "s1f42f": 8083,
      "s1f436": 8084,
      "s1f437": 8085,
      "s1f438": 8086,
      "s1f439": 8087,
      "s1f43a": 8088,
      "s1f43b": 8089,
      "s1f43c": 8090,
      "s1f43d": 8091,
      "s1f43e": 8092,
      "s1f43f": 8093,
      "s1f506": 8094,
      "s1f507": 8095,
      "s1f508": 8096,
      "s1f509": 8097,
      "s1f50a": 8098,
      "s1f50b": 8099,
      "s1f50c": 8100,
      "s1f50d": 8101,
      "s1f50e": 8102,
      "s1f50f": 8103,
      "s1f516": 8104,
      "s1f517": 8105,
      "s1f518": 8106,
      "s1f519": 8107,
      "s1f51a": 8108,
      "s1f51b": 8109,
      "s1f51c": 8110,
      "s1f51d": 8111,
      "s1f51e": 8112,
      "s1f51f": 8113,
      "s1f526": 8114,
      "s1f527": 8115,
      "s1f528": 8116,
      "s1f529": 8117,
      "s1f52a": 8118,
      "s1f52b": 8119,
      "s1f52c": 8120,
      "s1f52d": 8121,
      "s1f52e": 8122,
      "s1f52f": 8123,
      "s1f536": 8124,
      "s1f537": 8125,
      "s1f538": 8126,
      "s1f539": 8127,
      "s1f53a": 8128,
      "s1f53b": 8129,
      "s1f53c": 8130,
      "s1f53d": 8131,
      "s1f53e": 8132,
      "s1f53f": 8133,
      "s260": 8134,
      "s261": 8135,
      "s262": 8136,
      "s263": 8137,
      "s264": 8138,
      "s265": 8139,
      "s2600": 8140,
      "s2611": 8141,
      "s2622": 8142,
      "s2633": 8143,
      "s2644": 8144,
      "s2655": 8145,
      "s2601": 8146,
      "s2602": 8147,
      "s2603": 8148,
      "s2604": 8149,
      "s2605": 8150,
      "s2612": 8151,
      "s2613": 8152,
      "s2614": 8153,
      "s2615": 8154,
      "s2623": 8155,
      "s2624": 8156,
      "s2625": 8157,
      "s2634": 8158,
      "s2635": 8159,
      "s2645": 8160,
      "s2610": 8161,
      "s2632": 8162,
      "s2654": 8163,
      "s2620": 8164,
      "s2621": 8165,
      "s2630": 8166,
      "s2631": 8167,
      "s2640": 8168,
      "s2641": 8169,
      "s2642": 8170,
      "s2643": 8171,
      "s2650": 8172,
      "s2651": 8173,
      "s2652": 8174,
      "s2653": 8175,
      "s2606": 8176,
      "s2607": 8177,
      "s2608": 8178,
      "s2609": 8179,
      "s260a": 8180,
      "s260b": 8181,
      "s260c": 8182,
      "s260d": 8183,
      "s260e": 8184,
      "s260f": 8185,
      "s2616": 8186,
      "s2617": 8187,
      "s2618": 8188,
      "s2619": 8189,
      "s261a": 8190,
      "s261b": 8191,
      "s261c": 8192,
      "s261d": 8193,
      "s261e": 8194,
      "s261f": 8195,
      "s2626": 8196,
      "s2627": 8197,
      "s2628": 8198,
      "s2629": 8199,
      "s262a": 8200,
      "s262b": 8201,
      "s262c": 8202,
      "s262d": 8203,
      "s262e": 8204,
      "s262f": 8205,
      "s2636": 8206,
      "s2637": 8207,
      "s2638": 8208,
      "s2639": 8209,
      "s263a": 8210,
      "s263b": 8211,
      "s263c": 8212,
      "s263d": 8213,
      "s263e": 8214,
      "s263f": 8215,
      "s2646": 8216,
      "s2647": 8217,
      "s2648": 8218,
      "s2649": 8219,
      "s264a": 8220,
      "s264b": 8221,
      "s264c": 8222,
      "s264d": 8223,
      "s264e": 8224,
      "s264f": 8225,
      "s2656": 8226,
      "s2657": 8227,
      "s2658": 8228,
      "s2659": 8229,
      "s265a": 8230,
      "s265b": 8231,
      "s265c": 8232,
      "s265d": 8233,
      "s265e": 8234,
      "s265f": 8235,
      "s26011": 8236,
      "s26022": 8237,
      "s26033": 8238,
      "s26044": 8239,
      "s26055": 8240,
      "s26000": 8241,
      "s26001": 8242,
      "s26002": 8243,
      "s26003": 8244,
      "s26004": 8245,
      "s26005": 8246,
      "s26006": 8247,
      "s26007": 8248,
      "s26008": 8249,
      "s26009": 8250,
      "s2600a": 8251,
      "s2600b": 8252,
      "s2600c": 8253,
      "s2600d": 8254,
      "s2600e": 8255,
      "s2600f": 8256,
      "s26110": 8257,
      "s26111": 8258,
      "s26112": 8259,
      "s26113": 8260,
      "s26114": 8261,
      "s26115": 8262,
      "s26116": 8263,
      "s26117": 8264,
      "s26118": 8265,
      "s26119": 8266,
      "s2611a": 8267,
      "s2611b": 8268,
      "s2611c": 8269,
      "s2611d": 8270,
      "s2611e": 8271,
      "s2611f": 8272,
      "s26220": 8273,
      "s26221": 8274,
      "s26222": 8275,
      "s26223": 8276,
      "s26224": 8277,
      "s26225": 8278,
      "s26226": 8279,
      "s26227": 8280,
      "s26228": 8281,
      "s26229": 8282,
      "s2622a": 8283,
      "s2622b": 8284,
      "s2622c": 8285,
      "s2622d": 8286,
      "s2622e": 8287,
      "s2622f": 8288,
      "s26330": 8289,
      "s26331": 8290,
      "s26332": 8291,
      "s26333": 8292,
      "s26334": 8293,
      "s26335": 8294,
      "s26336": 8295,
      "s26337": 8296,
      "s26338": 8297,
      "s26339": 8298,
      "s2633a": 8299,
      "s2633b": 8300,
      "s2633c": 8301,
      "s2633d": 8302,
      "s2633e": 8303,
      "s2633f": 8304,
      "s26440": 8305,
      "s26441": 8306,
      "s26442": 8307,
      "s26443": 8308,
      "s26444": 8309,
      "s26445": 8310,
      "s26446": 8311,
      "s26447": 8312,
      "s26448": 8313,
      "s26449": 8314,
      "s2644a": 8315,
      "s2644b": 8316,
      "s2644c": 8317,
      "s2644d": 8318,
      "s2644e": 8319,
      "s2644f": 8320,
      "s26550": 8321,
      "s26551": 8322,
      "s26552": 8323,
      "s26553": 8324,
      "s26554": 8325,
      "s26555": 8326,
      "s26556": 8327,
      "s26557": 8328,
      "s26558": 8329,
      "s26559": 8330,
      "s2655a": 8331,
      "s2655b": 8332,
      "s2655c": 8333,
      "s2655d": 8334,
      "s2655e": 8335,
      "s2655f": 8336,
      "s26010": 8337,
      "s26012": 8338,
      "s26013": 8339,
      "s26014": 8340,
      "s26015": 8341,
      "s26016": 8342,
      "s26017": 8343,
      "s26018": 8344,
      "s26019": 8345,
      "s2601a": 8346,
      "s2601b": 8347,
      "s2601c": 8348,
      "s2601d": 8349,
      "s2601e": 8350,
      "s2601f": 8351,
      "s26020": 8352,
      "s26021": 8353,
      "s26023": 8354,
      "s26024": 8355,
      "s26025": 8356,
      "s26026": 8357,
      "s26027": 8358,
      "s26028": 8359,
      "s26029": 8360,
      "s2602a": 8361,
      "s2602b": 8362,
      "s2602c": 8363,
      "s2602d": 8364,
      "s2602e": 8365,
      "s2602f": 8366,
      "s26030": 8367,
      "s26031": 8368,
      "s26032": 8369,
      "s26034": 8370,
      "s26035": 8371,
      "s26036": 8372,
      "s26037": 8373,
      "s26038": 8374,
      "s26039": 8375,
      "s2603a": 8376,
      "s2603b": 8377,
      "s2603c": 8378,
      "s2603d": 8379,
      "s2603e": 8380,
      "s2603f": 8381,
      "s26040": 8382,
      "s26041": 8383,
      "s26042": 8384,
      "s26043": 8385,
      "s26045": 8386,
      "s26046": 8387,
      "s26047": 8388,
      "s26048": 8389,
      "s26049": 8390,
      "s2604a": 8391,
      "s2604b": 8392,
      "s2604c": 8393,
      "s2604d": 8394,
      "s2604e": 8395,
      "s2604f": 8396,
      "s26050": 8397,
      "s26051": 8398,
      "s26052": 8399,
      "s26053": 8400,
      "s26054": 8401,
      "s26056": 8402,
      "s26057": 8403,
      "s26058": 8404,
      "s26059": 8405,
      "s2605a": 8406,
      "s2605b": 8407,
      "s2605c": 8408,
      "s2605d": 8409,
      "s2605e": 8410,
      "s2605f": 8411,
      "s26100": 8412,
      "s26122": 8413,
      "s26133": 8414,
      "s26144": 8415,
      "s26155": 8416,
      "s26101": 8417,
      "s26102": 8418,
      "s26103": 8419,
      "s26104": 8420,
      "s26105": 8421,
      "s26200": 8422,
      "s26211": 8423,
      "s26233": 8424,
      "s26244": 8425,
      "s26255": 8426,
      "s26201": 8427,
      "s26202": 8428,
      "s26203": 8429,
      "s26204": 8430,
      "s26205": 8431,
      "s26212": 8432,
      "s26213": 8433,
      "s26214": 8434,
      "s26215": 8435,
      "s26210": 8436,
      "s26300": 8437,
      "s26311": 8438,
      "s26322": 8439,
      "s26344": 8440,
      "s26355": 8441,
      "s26301": 8442,
      "s26302": 8443,
      "s26303": 8444,
      "s26304": 8445,
      "s26305": 8446,
      "s26312": 8447,
      "s26313": 8448,
      "s26314": 8449,
      "s26315": 8450,
      "s26323": 8451,
      "s26324": 8452,
      "s26325": 8453,
      "s26310": 8454,
      "s26400": 8455,
      "s26411": 8456,
      "s26422": 8457,
      "s26433": 8458,
      "s26455": 8459,
      "s26401": 8460,
      "s26402": 8461,
      "s26403": 8462,
      "s26404": 8463,
      "s26405": 8464,
      "s26412": 8465,
      "s26413": 8466,
      "s26414": 8467,
      "s26415": 8468,
      "s26423": 8469,
      "s26424": 8470,
      "s26425": 8471,
      "s26434": 8472,
      "s26435": 8473,
      "s26410": 8474,
      "s26432": 8475,
      "s26420": 8476,
      "s26421": 8477,
      "s26430": 8478,
      "s26431": 8479,
      "s26500": 8480,
      "s26511": 8481,
      "s26522": 8482,
      "s26533": 8483,
      "s26544": 8484,
      "s26501": 8485,
      "s26502": 8486,
      "s26503": 8487,
      "s26504": 8488,
      "s26505": 8489,
      "s26512": 8490,
      "s26513": 8491,
      "s26514": 8492,
      "s26515": 8493,
      "s26523": 8494,
      "s26524": 8495,
      "s26525": 8496,
      "s26534": 8497,
      "s26535": 8498,
      "s26545": 8499,
      "s26510": 8500,
      "s26532": 8501,
      "s26520": 8502,
      "s26521": 8503,
      "s26530": 8504,
      "s26531": 8505,
      "s26120": 8506,
      "s26121": 8507,
      "s26123": 8508,
      "s26124": 8509,
      "s26125": 8510,
      "s26126": 8511,
      "s26127": 8512,
      "s26128": 8513,
      "s26129": 8514,
      "s2612a": 8515,
      "s2612b": 8516,
      "s2612c": 8517,
      "s2612d": 8518,
      "s2612e": 8519,
      "s2612f": 8520,
      "s26130": 8521,
      "s26131": 8522,
      "s26132": 8523,
      "s26134": 8524,
      "s26135": 8525,
      "s26136": 8526,
      "s26137": 8527,
      "s26138": 8528,
      "s26139": 8529,
      "s2613a": 8530,
      "s2613b": 8531,
      "s2613c": 8532,
      "s2613d": 8533,
      "s2613e": 8534,
      "s2613f": 8535,
      "s26140": 8536,
      "s26141": 8537,
      "s26142": 8538,
      "s26143": 8539,
      "s26145": 8540,
      "s26146": 8541,
      "s26147": 8542,
      "s26148": 8543,
      "s26149": 8544,
      "s2614a": 8545,
      "s2614b": 8546,
      "s2614c": 8547,
      "s2614d": 8548,
      "s2614e": 8549,
      "s2614f": 8550,
      "s26150": 8551,
      "s26151": 8552,
      "s26152": 8553,
      "s26153": 8554,
      "s26154": 8555,
      "s26156": 8556,
      "s26157": 8557,
      "s26158": 8558,
      "s26159": 8559,
      "s2615a": 8560,
      "s2615b": 8561,
      "s2615c": 8562,
      "s2615d": 8563,
      "s2615e": 8564,
      "s2615f": 8565,
      "s26230": 8566,
      "s26231": 8567,
      "s26232": 8568,
      "s26234": 8569,
      "s26235": 8570,
      "s26236": 8571,
      "s26237": 8572,
      "s26238": 8573,
      "s26239": 8574,
      "s2623a": 8575,
      "s2623b": 8576,
      "s2623c": 8577,
      "s2623d": 8578,
      "s2623e": 8579,
      "s2623f": 8580,
      "s26240": 8581,
      "s26241": 8582,
      "s26242": 8583,
      "s26243": 8584,
      "s26245": 8585,
      "s26246": 8586,
      "s26247": 8587,
      "s26248": 8588,
      "s26249": 8589,
      "s2624a": 8590,
      "s2624b": 8591,
      "s2624c": 8592,
      "s2624d": 8593,
      "s2624e": 8594,
      "s2624f": 8595,
      "s26250": 8596,
      "s26251": 8597,
      "s26252": 8598,
      "s26253": 8599,
      "s26254": 8600,
      "s26256": 8601,
      "s26257": 8602,
      "s26258": 8603,
      "s26259": 8604,
      "s2625a": 8605,
      "s2625b": 8606,
      "s2625c": 8607,
      "s2625d": 8608,
      "s2625e": 8609,
      "s2625f": 8610,
      "s26340": 8611,
      "s26341": 8612,
      "s26342": 8613,
      "s26343": 8614,
      "s26345": 8615,
      "s26346": 8616,
      "s26347": 8617,
      "s26348": 8618,
      "s26349": 8619,
      "s2634a": 8620,
      "s2634b": 8621,
      "s2634c": 8622,
      "s2634d": 8623,
      "s2634e": 8624,
      "s2634f": 8625,
      "s26350": 8626,
      "s26351": 8627,
      "s26352": 8628,
      "s26353": 8629,
      "s26354": 8630,
      "s26356": 8631,
      "s26357": 8632,
      "s26358": 8633,
      "s26359": 8634,
      "s2635a": 8635,
      "s2635b": 8636,
      "s2635c": 8637,
      "s2635d": 8638,
      "s2635e": 8639,
      "s2635f": 8640,
      "s26450": 8641,
      "s26451": 8642,
      "s26452": 8643,
      "s26453": 8644,
      "s26454": 8645,
      "s26456": 8646,
      "s26457": 8647,
      "s26458": 8648,
      "s26459": 8649,
      "s2645a": 8650,
      "s2645b": 8651,
      "s2645c": 8652,
      "s2645d": 8653,
      "s2645e": 8654,
      "s2645f": 8655,
      "s26106": 8656,
      "s26107": 8657,
      "s26108": 8658,
      "s26109": 8659,
      "s2610a": 8660,
      "s2610b": 8661,
      "s2610c": 8662,
      "s2610d": 8663,
      "s2610e": 8664,
      "s2610f": 8665,
      "s26320": 8666,
      "s26321": 8667,
      "s26326": 8668,
      "s26327": 8669,
      "s26328": 8670,
      "s26329": 8671,
      "s2632a": 8672,
      "s2632b": 8673,
      "s2632c": 8674,
      "s2632d": 8675,
      "s2632e": 8676,
      "s2632f": 8677,
      "s26540": 8678,
      "s26541": 8679,
      "s26542": 8680,
      "s26543": 8681,
      "s26546": 8682,
      "s26547": 8683,
      "s26548": 8684,
      "s26549": 8685,
      "s2654a": 8686,
      "s2654b": 8687,
      "s2654c": 8688,
      "s2654d": 8689,
      "s2654e": 8690,
      "s2654f": 8691,
      "s26206": 8692,
      "s26207": 8693,
      "s26208": 8694,
      "s26209": 8695,
      "s2620a": 8696,
      "s2620b": 8697,
      "s2620c": 8698,
      "s2620d": 8699,
      "s2620e": 8700,
      "s2620f": 8701,
      "s26216": 8702,
      "s26217": 8703,
      "s26218": 8704,
      "s26219": 8705,
      "s2621a": 8706,
      "s2621b": 8707,
      "s2621c": 8708,
      "s2621d": 8709,
      "s2621e": 8710,
      "s2621f": 8711,
      "s26306": 8712,
      "s26307": 8713,
      "s26308": 8714,
      "s26309": 8715,
      "s2630a": 8716,
      "s2630b": 8717,
      "s2630c": 8718,
      "s2630d": 8719,
      "s2630e": 8720,
      "s2630f": 8721,
      "s26316": 8722,
      "s26317": 8723,
      "s26318": 8724,
      "s26319": 8725,
      "s2631a": 8726,
      "s2631b": 8727,
      "s2631c": 8728,
      "s2631d": 8729,
      "s2631e": 8730,
      "s2631f": 8731,
      "s26406": 8732,
      "s26407": 8733,
      "s26408": 8734,
      "s26409": 8735,
      "s2640a": 8736,
      "s2640b": 8737,
      "s2640c": 8738,
      "s2640d": 8739,
      "s2640e": 8740,
      "s2640f": 8741,
      "s26416": 8742,
      "s26417": 8743,
      "s26418": 8744,
      "s26419": 8745,
      "s2641a": 8746,
      "s2641b": 8747,
      "s2641c": 8748,
      "s2641d": 8749,
      "s2641e": 8750,
      "s2641f": 8751,
      "s26426": 8752,
      "s26427": 8753,
      "s26428": 8754,
      "s26429": 8755,
      "s2642a": 8756,
      "s2642b": 8757,
      "s2642c": 8758,
      "s2642d": 8759,
      "s2642e": 8760,
      "s2642f": 8761,
      "s26436": 8762,
      "s26437": 8763,
      "s26438": 8764,
      "s26439": 8765,
      "s2643a": 8766,
      "s2643b": 8767,
      "s2643c": 8768,
      "s2643d": 8769,
      "s2643e": 8770,
      "s2643f": 8771,
      "s26506": 8772,
      "s26507": 8773,
      "s26508": 8774,
      "s26509": 8775,
      "s2650a": 8776,
      "s2650b": 8777,
      "s2650c": 8778,
      "s2650d": 8779,
      "s2650e": 8780,
      "s2650f": 8781,
      "s26516": 8782,
      "s26517": 8783,
      "s26518": 8784,
      "s26519": 8785,
      "s2651a": 8786,
      "s2651b": 8787,
      "s2651c": 8788,
      "s2651d": 8789,
      "s2651e": 8790,
      "s2651f": 8791,
      "s26526": 8792,
      "s26527": 8793,
      "s26528": 8794,
      "s26529": 8795,
      "s2652a": 8796,
      "s2652b": 8797,
      "s2652c": 8798,
      "s2652d": 8799,
      "s2652e": 8800,
      "s2652f": 8801,
      "s26536": 8802,
      "s26537": 8803,
      "s26538": 8804,
      "s26539": 8805,
      "s2653a": 8806,
      "s2653b": 8807,
      "s2653c": 8808,
      "s2653d": 8809,
      "s2653e": 8810,
      "s2653f": 8811,
      "s270": 8812,
      "s271": 8813,
      "s272": 8814,
      "s273": 8815,
      "s274": 8816,
      "s275": 8817,
      "s2700": 8818,
      "s2711": 8819,
      "s2722": 8820,
      "s2733": 8821,
      "s2744": 8822,
      "s2755": 8823,
      "s2701": 8824,
      "s2702": 8825,
      "s2703": 8826,
      "s2704": 8827,
      "s2705": 8828,
      "s2712": 8829,
      "s2713": 8830,
      "s2714": 8831,
      "s2715": 8832,
      "s2723": 8833,
      "s2724": 8834,
      "s2725": 8835,
      "s2734": 8836,
      "s2735": 8837,
      "s2745": 8838,
      "s2710": 8839,
      "s2732": 8840,
      "s2754": 8841,
      "s2720": 8842,
      "s2721": 8843,
      "s2730": 8844,
      "s2731": 8845,
      "s2740": 8846,
      "s2741": 8847,
      "s2742": 8848,
      "s2743": 8849,
      "s2750": 8850,
      "s2751": 8851,
      "s2752": 8852,
      "s2753": 8853,
      "s2706": 8854,
      "s2707": 8855,
      "s2708": 8856,
      "s2709": 8857,
      "s270a": 8858,
      "s270b": 8859,
      "s270c": 8860,
      "s270d": 8861,
      "s270e": 8862,
      "s270f": 8863,
      "s2716": 8864,
      "s2717": 8865,
      "s2718": 8866,
      "s2719": 8867,
      "s271a": 8868,
      "s271b": 8869,
      "s271c": 8870,
      "s271d": 8871,
      "s271e": 8872,
      "s271f": 8873,
      "s2726": 8874,
      "s2727": 8875,
      "s2728": 8876,
      "s2729": 8877,
      "s272a": 8878,
      "s272b": 8879,
      "s272c": 8880,
      "s272d": 8881,
      "s272e": 8882,
      "s272f": 8883,
      "s2736": 8884,
      "s2737": 8885,
      "s2738": 8886,
      "s2739": 8887,
      "s273a": 8888,
      "s273b": 8889,
      "s273c": 8890,
      "s273d": 8891,
      "s273e": 8892,
      "s273f": 8893,
      "s2746": 8894,
      "s2747": 8895,
      "s2748": 8896,
      "s2749": 8897,
      "s274a": 8898,
      "s274b": 8899,
      "s274c": 8900,
      "s274d": 8901,
      "s274e": 8902,
      "s274f": 8903,
      "s2756": 8904,
      "s2757": 8905,
      "s2758": 8906,
      "s2759": 8907,
      "s275a": 8908,
      "s275b": 8909,
      "s275c": 8910,
      "s275d": 8911,
      "s275e": 8912,
      "s275f": 8913,
      "s27011": 8914,
      "s27022": 8915,
      "s27033": 8916,
      "s27044": 8917,
      "s27055": 8918,
      "s27000": 8919,
      "s27001": 8920,
      "s27002": 8921,
      "s27003": 8922,
      "s27004": 8923,
      "s27005": 8924,
      "s27006": 8925,
      "s27007": 8926,
      "s27008": 8927,
      "s27009": 8928,
      "s2700a": 8929,
      "s2700b": 8930,
      "s2700c": 8931,
      "s2700d": 8932,
      "s2700e": 8933,
      "s2700f": 8934,
      "s27110": 8935,
      "s27111": 8936,
      "s27112": 8937,
      "s27113": 8938,
      "s27114": 8939,
      "s27115": 8940,
      "s27116": 8941,
      "s27117": 8942,
      "s27118": 8943,
      "s27119": 8944,
      "s2711a": 8945,
      "s2711b": 8946,
      "s2711c": 8947,
      "s2711d": 8948,
      "s2711e": 8949,
      "s2711f": 8950,
      "s27220": 8951,
      "s27221": 8952,
      "s27222": 8953,
      "s27223": 8954,
      "s27224": 8955,
      "s27225": 8956,
      "s27226": 8957,
      "s27227": 8958,
      "s27228": 8959,
      "s27229": 8960,
      "s2722a": 8961,
      "s2722b": 8962,
      "s2722c": 8963,
      "s2722d": 8964,
      "s2722e": 8965,
      "s2722f": 8966,
      "s27330": 8967,
      "s27331": 8968,
      "s27332": 8969,
      "s27333": 8970,
      "s27334": 8971,
      "s27335": 8972,
      "s27336": 8973,
      "s27337": 8974,
      "s27338": 8975,
      "s27339": 8976,
      "s2733a": 8977,
      "s2733b": 8978,
      "s2733c": 8979,
      "s2733d": 8980,
      "s2733e": 8981,
      "s2733f": 8982,
      "s27440": 8983,
      "s27441": 8984,
      "s27442": 8985,
      "s27443": 8986,
      "s27444": 8987,
      "s27445": 8988,
      "s27446": 8989,
      "s27447": 8990,
      "s27448": 8991,
      "s27449": 8992,
      "s2744a": 8993,
      "s2744b": 8994,
      "s2744c": 8995,
      "s2744d": 8996,
      "s2744e": 8997,
      "s2744f": 8998,
      "s27550": 8999,
      "s27551": 9000,
      "s27552": 9001,
      "s27553": 9002,
      "s27554": 9003,
      "s27555": 9004,
      "s27556": 9005,
      "s27557": 9006,
      "s27558": 9007,
      "s27559": 9008,
      "s2755a": 9009,
      "s2755b": 9010,
      "s2755c": 9011,
      "s2755d": 9012,
      "s2755e": 9013,
      "s2755f": 9014,
      "s27010": 9015,
      "s27012": 9016,
      "s27013": 9017,
      "s27014": 9018,
      "s27015": 9019,
      "s27016": 9020,
      "s27017": 9021,
      "s27018": 9022,
      "s27019": 9023,
      "s2701a": 9024,
      "s2701b": 9025,
      "s2701c": 9026,
      "s2701d": 9027,
      "s2701e": 9028,
      "s2701f": 9029,
      "s27020": 9030,
      "s27021": 9031,
      "s27023": 9032,
      "s27024": 9033,
      "s27025": 9034,
      "s27026": 9035,
      "s27027": 9036,
      "s27028": 9037,
      "s27029": 9038,
      "s2702a": 9039,
      "s2702b": 9040,
      "s2702c": 9041,
      "s2702d": 9042,
      "s2702e": 9043,
      "s2702f": 9044,
      "s27030": 9045,
      "s27031": 9046,
      "s27032": 9047,
      "s27034": 9048,
      "s27035": 9049,
      "s27036": 9050,
      "s27037": 9051,
      "s27038": 9052,
      "s27039": 9053,
      "s2703a": 9054,
      "s2703b": 9055,
      "s2703c": 9056,
      "s2703d": 9057,
      "s2703e": 9058,
      "s2703f": 9059,
      "s27040": 9060,
      "s27041": 9061,
      "s27042": 9062,
      "s27043": 9063,
      "s27045": 9064,
      "s27046": 9065,
      "s27047": 9066,
      "s27048": 9067,
      "s27049": 9068,
      "s2704a": 9069,
      "s2704b": 9070,
      "s2704c": 9071,
      "s2704d": 9072,
      "s2704e": 9073,
      "s2704f": 9074,
      "s27050": 9075,
      "s27051": 9076,
      "s27052": 9077,
      "s27053": 9078,
      "s27054": 9079,
      "s27056": 9080,
      "s27057": 9081,
      "s27058": 9082,
      "s27059": 9083,
      "s2705a": 9084,
      "s2705b": 9085,
      "s2705c": 9086,
      "s2705d": 9087,
      "s2705e": 9088,
      "s2705f": 9089,
      "s27100": 9090,
      "s27122": 9091,
      "s27133": 9092,
      "s27144": 9093,
      "s27155": 9094,
      "s27101": 9095,
      "s27102": 9096,
      "s27103": 9097,
      "s27104": 9098,
      "s27105": 9099,
      "s27200": 9100,
      "s27211": 9101,
      "s27233": 9102,
      "s27244": 9103,
      "s27255": 9104,
      "s27201": 9105,
      "s27202": 9106,
      "s27203": 9107,
      "s27204": 9108,
      "s27205": 9109,
      "s27212": 9110,
      "s27213": 9111,
      "s27214": 9112,
      "s27215": 9113,
      "s27210": 9114,
      "s27300": 9115,
      "s27311": 9116,
      "s27322": 9117,
      "s27344": 9118,
      "s27355": 9119,
      "s27301": 9120,
      "s27302": 9121,
      "s27303": 9122,
      "s27304": 9123,
      "s27305": 9124,
      "s27312": 9125,
      "s27313": 9126,
      "s27314": 9127,
      "s27315": 9128,
      "s27323": 9129,
      "s27324": 9130,
      "s27325": 9131,
      "s27310": 9132,
      "s27400": 9133,
      "s27411": 9134,
      "s27422": 9135,
      "s27433": 9136,
      "s27455": 9137,
      "s27401": 9138,
      "s27402": 9139,
      "s27403": 9140,
      "s27404": 9141,
      "s27405": 9142,
      "s27412": 9143,
      "s27413": 9144,
      "s27414": 9145,
      "s27415": 9146,
      "s27423": 9147,
      "s27424": 9148,
      "s27425": 9149,
      "s27434": 9150,
      "s27435": 9151,
      "s27410": 9152,
      "s27432": 9153,
      "s27420": 9154,
      "s27421": 9155,
      "s27430": 9156,
      "s27431": 9157,
      "s27500": 9158,
      "s27511": 9159,
      "s27522": 9160,
      "s27533": 9161,
      "s27544": 9162,
      "s27501": 9163,
      "s27502": 9164,
      "s27503": 9165,
      "s27504": 9166,
      "s27505": 9167,
      "s27512": 9168,
      "s27513": 9169,
      "s27514": 9170,
      "s27515": 9171,
      "s27523": 9172,
      "s27524": 9173,
      "s27525": 9174,
      "s27534": 9175,
      "s27535": 9176,
      "s27545": 9177,
      "s27510": 9178,
      "s27532": 9179,
      "s27520": 9180,
      "s27521": 9181,
      "s27530": 9182,
      "s27531": 9183,
      "s27120": 9184,
      "s27121": 9185,
      "s27123": 9186,
      "s27124": 9187,
      "s27125": 9188,
      "s27126": 9189,
      "s27127": 9190,
      "s27128": 9191,
      "s27129": 9192,
      "s2712a": 9193,
      "s2712b": 9194,
      "s2712c": 9195,
      "s2712d": 9196,
      "s2712e": 9197,
      "s2712f": 9198,
      "s27130": 9199,
      "s27131": 9200,
      "s27132": 9201,
      "s27134": 9202,
      "s27135": 9203,
      "s27136": 9204,
      "s27137": 9205,
      "s27138": 9206,
      "s27139": 9207,
      "s2713a": 9208,
      "s2713b": 9209,
      "s2713c": 9210,
      "s2713d": 9211,
      "s2713e": 9212,
      "s2713f": 9213,
      "s27140": 9214,
      "s27141": 9215,
      "s27142": 9216,
      "s27143": 9217,
      "s27145": 9218,
      "s27146": 9219,
      "s27147": 9220,
      "s27148": 9221,
      "s27149": 9222,
      "s2714a": 9223,
      "s2714b": 9224,
      "s2714c": 9225,
      "s2714d": 9226,
      "s2714e": 9227,
      "s2714f": 9228,
      "s27150": 9229,
      "s27151": 9230,
      "s27152": 9231,
      "s27153": 9232,
      "s27154": 9233,
      "s27156": 9234,
      "s27157": 9235,
      "s27158": 9236,
      "s27159": 9237,
      "s2715a": 9238,
      "s2715b": 9239,
      "s2715c": 9240,
      "s2715d": 9241,
      "s2715e": 9242,
      "s2715f": 9243,
      "s27230": 9244,
      "s27231": 9245,
      "s27232": 9246,
      "s27234": 9247,
      "s27235": 9248,
      "s27236": 9249,
      "s27237": 9250,
      "s27238": 9251,
      "s27239": 9252,
      "s2723a": 9253,
      "s2723b": 9254,
      "s2723c": 9255,
      "s2723d": 9256,
      "s2723e": 9257,
      "s2723f": 9258,
      "s27240": 9259,
      "s27241": 9260,
      "s27242": 9261,
      "s27243": 9262,
      "s27245": 9263,
      "s27246": 9264,
      "s27247": 9265,
      "s27248": 9266,
      "s27249": 9267,
      "s2724a": 9268,
      "s2724b": 9269,
      "s2724c": 9270,
      "s2724d": 9271,
      "s2724e": 9272,
      "s2724f": 9273,
      "s27250": 9274,
      "s27251": 9275,
      "s27252": 9276,
      "s27253": 9277,
      "s27254": 9278,
      "s27256": 9279,
      "s27257": 9280,
      "s27258": 9281,
      "s27259": 9282,
      "s2725a": 9283,
      "s2725b": 9284,
      "s2725c": 9285,
      "s2725d": 9286,
      "s2725e": 9287,
      "s2725f": 9288,
      "s27340": 9289,
      "s27341": 9290,
      "s27342": 9291,
      "s27343": 9292,
      "s27345": 9293,
      "s27346": 9294,
      "s27347": 9295,
      "s27348": 9296,
      "s27349": 9297,
      "s2734a": 9298,
      "s2734b": 9299,
      "s2734c": 9300,
      "s2734d": 9301,
      "s2734e": 9302,
      "s2734f": 9303,
      "s27350": 9304,
      "s27351": 9305,
      "s27352": 9306,
      "s27353": 9307,
      "s27354": 9308,
      "s27356": 9309,
      "s27357": 9310,
      "s27358": 9311,
      "s27359": 9312,
      "s2735a": 9313,
      "s2735b": 9314,
      "s2735c": 9315,
      "s2735d": 9316,
      "s2735e": 9317,
      "s2735f": 9318,
      "s27450": 9319,
      "s27451": 9320,
      "s27452": 9321,
      "s27453": 9322,
      "s27454": 9323,
      "s27456": 9324,
      "s27457": 9325,
      "s27458": 9326,
      "s27459": 9327,
      "s2745a": 9328,
      "s2745b": 9329,
      "s2745c": 9330,
      "s2745d": 9331,
      "s2745e": 9332,
      "s2745f": 9333,
      "s27106": 9334,
      "s27107": 9335,
      "s27108": 9336,
      "s27109": 9337,
      "s2710a": 9338,
      "s2710b": 9339,
      "s2710c": 9340,
      "s2710d": 9341,
      "s2710e": 9342,
      "s2710f": 9343,
      "s27320": 9344,
      "s27321": 9345,
      "s27326": 9346,
      "s27327": 9347,
      "s27328": 9348,
      "s27329": 9349,
      "s2732a": 9350,
[...]
