[PAD]
[UNK]
[CLS]
[SEP]
[MASK]
.
0
1
2
3
4
5
6
7
8
9
[
]
_
a
b
c
d
e
f
g
h
i
k
l
m
n
o
p
q
r
s
t
u
v
y
##3
##d
##b
##8
##5
##2
##0
##a
##f
##1
##6
##4
##7
##e
##9
##c
##s
##t
##i
##r
##l
##p
##u
##n
##o
##y
##m
##v
##g
##h
##k
s3
s2
s1
##33
##55
##22
##00
##11
##44
s3d
s3b
s38
s3a
s3f
s36
s37
s3e
s39
s3c
s2d
s2b
s28
s2a
s2f
s26
s27
s2e
s29
s2c
s1d
s1b
s18
s1a
s1f
s16
s17
s1e
s19
s1c
##35
##32
##30
##31
##34
s35
s32
s30
s31
s34
s25
s22
s20
s21
s24
s15
s12
s10
s11
s14
##52
##50
##51
##54
##20
##21
##24
##01
##04
##14
s33
s23
s13
##53
##02
##41
##23
##25
##03
##05
##13
##15
##12
##10
##43
##45
##42
##40
##3d
##3b
##38
##3a
##3f
##36
##37
##3e
##39
##3c
##5d
##5b
##58
##5a
##5f
##56
##57
##5e
##59
##5c
##2d
##2b
##28
##2a
##2f
##26
##27
##2e
##29
##2c
##0d
##0b
##08
##0a
##0f
##06
##07
##0e
##09
##0c
##1d
##1b
##18
##1a
##1f
##16
##17
##1e
##19
##1c
##4d
##4b
##48
##4a
##4f
##46
##47
##4e
##49
##4c
s333
s355
s322
s300
s311
s344
s233
s255
s222
s200
s211
s244
s133
s155
s122
s100
s111
s144
s3dd
s3db
s3d8
s3da
s3df
s3d6
s3d7
s3de
s3d9
s3dc
s3bd
s3bb
s3b8
s3ba
s3bf
s3b6
s3b7
s3be
s3b9
s3bc
s38d
s38b
s388
s38a
s38f
s386
s387
s38e
s389
s38c
s3ad
s3ab
s3a8
s3aa
s3af
s3a6
s3a7
s3ae
s3a9
s3ac
s3fd
s3fb
s3f8
s3fa
s3ff
s3f6
s3f7
s3fe
s3f9
s3fc
s36d
s36b
s368
s36a
s36f
s366
s367
s36e
s369
s36c
s37d
s37b
s378
s37a
s37f
s376
s377
s37e
s379
s37c
s3ed
s3eb
s3e8
s3ea
s3ef
s3e6
s3e7
s3ee
s3e9
s3ec
s39d
s39b
s398
s39a
s39f
s396
s397
s39e
s399
s39c
s3cd
s3cb
s3c8
s3ca
s3cf
s3c6
s3c7
s3ce
s3c9
s3cc
s2dd
s2db
s2d8
s2da
s2df
s2d6
s2d7
s2de
s2d9
s2dc
s2bd
s2bb
s2b8
s2ba
s2bf
s2b6
s2b7
s2be
s2b9
s2bc
s28d
s28b
s288
s28a
s28f
s286
s287
s28e
s289
s28c
s2ad
s2ab
s2a8
s2aa
s2af
s2a6
s2a7
s2ae
s2a9
s2ac
s2fd
s2fb
s2f8
s2fa
s2ff
s2f6
s2f7
s2fe
s2f9
s2fc
s26d
s26b
s268
s26a
s26f
s266
s267
s26e
s269
s26c
s27d
s27b
s278
s27a
s27f
s276
s277
s27e
s279
s27c
s2ed
s2eb
s2e8
s2ea
s2ef
s2e6
s2e7
s2ee
s2e9
s2ec
s29d
s29b
s298
s29a
s29f
s296
s297
s29e
s299
s29c
s2cd
s2cb
s2c8
s2ca
s2cf
s2c6
s2c7
s2ce
s2c9
s2cc
s1dd
s1db
s1d8
s1da
s1df
s1d6
s1d7
s1de
s1d9
s1dc
s1bd
s1bb
s1b8
s1ba
s1bf
s1b6
s1b7
s1be
s1b9
s1bc
s18d
s18b
s188
s18a
s18f
s186
s187
s18e
s189
s18c
s1ad
s1ab
s1a8
s1aa
s1af
s1a6
s1a7
s1ae
s1a9
s1ac
s1fd
s1fb
s1f8
s1fa
s1ff
s1f6
s1f7
s1fe
s1f9
s1fc
s16d
s16b
s168
s16a
s16f
s166
s167
s16e
s169
s16c
s17d
s17b
s178
s17a
s17f
s176
s177
s17e
s179
s17c
s1ed
s1eb
s1e8
s1ea
s1ef
s1e6
s1e7
s1ee
s1e9
s1ec
s19d
s19b
s198
s19a
s19f
s196
s197
s19e
s199
s19c
s1cd
s1cb
s1c8
s1ca
s1cf
s1c6
s1c7
s1ce
s1c9
s1cc
s35d
s35b
s358
s35a
s35f
s356
s357
s35e
s359
s35c
s32d
s32b
s328
s32a
s32f
s326
s327
s32e
s329
s32c
s30d
s30b
s308
s30a
s30f
s306
s307
s30e
s309
s30c
s31d
s31b
s318
s31a
s31f
s316
s317
s31e
s319
s31c
s34d
s34b
s348
s34a
s34f
s346
s347
s34e
s349
s34c
s25d
s25b
s258
s25a
s25f
s256
s257
s25e
s259
s25c
s22d
s22b
s228
s22a
s22f
s226
s227
s22e
s229
s22c
s20d
s20b
s208
s20a
s20f
s206
s207
s20e
s209
s20c
s21d
s21b
s218
s21a
s21f
s216
s217
s21e
s219
s21c
s24d
s24b
s248
s24a
s24f
s246
s247
s24e
s249
s24c
s15d
s15b
s158
s15a
s15f
s156
s157
s15e
s159
s15c
s12d
s12b
s128
s12a
s12f
s126
s127
s12e
s129
s12c
s10d
s10b
s108
s10a
s10f
s106
s107
s10e
s109
s10c
s11d
s11b
s118
s11a
s11f
s116
s117
s11e
s119
s11c
s14d
s14b
s148
s14a
s14f
s146
s147
s14e
s149
s14c
s33d
s33b
s338
s33a
s33f
s336
s337
s33e
s339
s33c
s23d
s23b
s238
s23a
s23f
s236
s237
s23e
s239
s23c
s13d
s13b
s138
s13a
s13f
s136
s137
s13e
s139
s13c
s335
s332
s330
s331
s334
s235
s232
s230
s231
s234
s135
s132
s130
s131
s134
##355
##322
##300
##311
##344
##333
##33d
##33b
##338
##335
##332
##330
##33a
##33f
##331
##336
##334
##337
##33e
##339
##33c
##553
##55d
##55b
##558
##555
##552
##550
##55a
##55f
##551
##556
##554
##557
##55e
##559
##55c
##223
##22d
##22b
##228
##225
##222
##220
##22a
##22f
##221
##226
##224
##227
##22e
##229
##22c
##003
##00d
##00b
##008
##005
##002
##000
##00a
##00f
##001
##006
##004
##007
##00e
##009
##00c
##113
##11d
##11b
##118
##115
##112
##110
##11a
##11f
##111
##116
##114
##117
##11e
##119
##11c
##443
##44d
##44b
##448
##445
##442
##440
##44a
##44f
##441
##446
##444
##447
##44e
##449
##44c
##353
##35d
##35b
##358
##352
##350
##35a
##35f
##351
##356
##354
##357
##35e
##359
##35c
##323
##32d
##32b
##328
##325
##320
##32a
##32f
##321
##326
##324
##327
##32e
##329
##32c
##303
##30d
##30b
##308
##305
##302
##30a
##30f
##301
##306
##304
##307
##30e
##309
##30c
##313
##31d
##31b
##318
##315
##312
##310
##31a
##31f
##316
##314
##317
##31e
##319
##31c
##343
##34d
##34b
##348
##345
##342
##340
##34a
##34f
##341
##346
##347
##34e
##349
##34c
##533
##522
##500
##511
##544
##535
##532
##530
##531
##534
##233
##255
##200
##211
##244
##235
##232
##230
##231
##234
##252
##250
##251
##254
##253
##033
##055
##022
##011
##044
##035
##032
##030
##031
##034
##052
##050
##051
##054
##020
##021
##024
##053
##133
##155
##122
##100
##144
##135
##132
##130
##131
##134
##152
##150
##151
##154
##120
##121
##124
##101
##104
##153
##102
##123
##125
##103
##105
##433
##455
##422
##400
##411
##435
##432
##430
##431
##434
##452
##450
##451
##454
##420
##421
##424
##401
##404
##414
##453
##402
##423
##425
##403
##405
##523
##52d
##52b
##528
##525
##520
##52a
##52f
##521
##526
##524
##527
##52e
##529
##52c
##503
##50d
##50b
##508
##505
##502
##50a
##50f
##501
##506
##504
##507
##50e
##509
##50c
##513
##51d
##51b
##518
##515
##512
##510
##51a
##51f
##516
##514
##517
##51e
##519
##51c
##543
##54d
##54b
##548
##545
##542
##540
##54a
##54f
##541
##546
##547
##54e
##549
##54c
##203
##20d
##20b
##208
##205
##202
##20a
##20f
##201
##206
##204
##207
##20e
##209
##20c
##213
##21d
##21b
##218
##215
##212
##210
##21a
##21f
##216
##214
##217
##21e
##219
##21c
##243
##24d
##24b
##248
##245
##242
##240
##24a
##24f
##241
##246
##247
##24e
##249
##24c
##013
##01d
##01b
##018
##015
##012
##010
##01a
##01f
##016
##014
##017
##01e
##019
##01c
##043
##04d
##04b
##048
##045
##042
##040
##04a
##04f
##041
##046
##047
##04e
##049
##04c
##143
##14d
##14b
##148
##145
##142
##140
##14a
##14f
##141
##146
##147
##14e
##149
##14c
##53d
##53b
##538
##53a
##53f
##536
##537
##53e
##539
##53c
##023
##02d
##02b
##028
##025
##02a
##02f
##026
##027
##02e
##029
##02c
##413
##41d
##41b
##418
##415
##412
##410
##41a
##41f
##416
##417
##41e
##419
##41c
##23d
##23b
##238
##23a
##23f
##236
##237
##23e
##239
##23c
##25d
##25b
##258
##25a
##25f
##256
##257
##25e
##259
##25c
##03d
##03b
##038
##03a
##03f
##036
##037
##03e
##039
##03c
##05d
##05b
##058
##05a
##05f
##056
##057
##05e
##059
##05c
##13d
##13b
##138
##13a
##13f
##136
##137
##13e
##139
##13c
##15d
##15b
##158
##15a
##15f
##156
##157
##15e
##159
##15c
##12d
##12b
##128
##12a
##12f
##126
##127
##12e
##129
##12c
##10d
##10b
##108
##10a
##10f
##106
##107
##10e
##109
##10c
##43d
##43b
##438
##43a
##43f
##436
##437
##43e
##439
##43c
##45d
##45b
##458
##45a
##45f
##456
##457
##45e
##459
##45c
##42d
##42b
##428
##42a
##42f
##426
##427
##42e
##429
##42c
##40d
##40b
##408
##40a
##40f
##406
##407
##40e
##409
##40c
##ad
##at
##ati
es
ha
##dad
##ci
##tati
##nd
estati
hand
##dade
##cidade
estaticidade
qt
##ls
hands
qtd
##als
##fals
##tr
##ue
##on
##ation
estaticidader
estaticidadel
##false
##true
bo
cls
dy
he
le
lo
ma
mo
pu
pad
ri
se
un
##dy
##am
##ft
##en
##em
##ct
##cation
##sk
##ic
##uation
##nam
##nct
##vem
##gh
s3d3
s3d5
s3d2
s3d0
s3d1
s3d4
s3d33
s3d55
s3d22
s3d00
s3d11
s3d44
s3d35
s3d32
s3d30
s3d31
s3d34
s3d52
s3d50
s3d51
s3d54
s3d20
s3d21
s3d24
s3d01
s3d04
s3d14
s3d53
s3d02
s3d41
s3d23
s3d25
s3d03
s3d05
s3d13
s3d15
s3d12
s3d10
s3d43
s3d45
s3d42
s3d40
s3d3d
s3d3b
s3d38
s3d3a
s3d3f
s3d36
s3d37
s3d3e
s3d39
s3d3c
s3d5d
s3d5b
s3d58
s3d5a
s3d5f
s3d56
s3d57
s3d5e
s3d59
s3d5c
s3d2d
s3d2b
s3d28
s3d2a
s3d2f
s3d26
s3d27
s3d2e
s3d29
s3d2c
s3d0d
s3d0b
s3d08
s3d0a
s3d0f
s3d06
s3d07
s3d0e
s3d09
s3d0c
s3d1d
s3d1b
s3d18
s3d1a
s3d1f
s3d16
s3d17
s3d1e
s3d19
s3d1c
s3d4d
s3d4b
s3d48
s3d4a
s3d4f
s3d46
s3d47
s3d4e
s3d49
s3d4c
s3d355
s3d322
s3d300
s3d311
s3d344
s3d333
s3d33d
s3d33b
s3d338
s3d335
s3d332
s3d330
s3d33a
s3d33f
s3d331
s3d336
s3d334
s3d337
s3d33e
s3d339
s3d33c
s3d553
s3d55d
s3d55b
s3d558
s3d555
s3d552
s3d550
s3d55a
s3d55f
s3d551
s3d556
s3d554
s3d557
s3d55e
s3d559
s3d55c
s3d223
s3d22d
s3d22b
s3d228
s3d225
s3d222
s3d220
s3d22a
s3d22f
s3d221
s3d226
s3d224
s3d227
s3d22e
s3d229
s3d22c
s3d003
s3d00d
s3d00b
s3d008
s3d005
s3d002
s3d000
s3d00a
s3d00f
s3d001
s3d006
s3d004
s3d007
s3d00e
s3d009
s3d00c
s3d113
s3d11d
s3d11b
s3d118
s3d115
s3d112
s3d110
s3d11a
s3d11f
s3d111
s3d116
s3d114
s3d117
s3d11e
s3d119
s3d11c
s3d443
s3d44d
s3d44b
s3d448
s3d445
s3d442
s3d440
s3d44a
s3d44f
s3d441
s3d446
s3d444
s3d447
s3d44e
s3d449
s3d44c
s3d353
s3d35d
s3d35b
s3d358
s3d352
s3d350
s3d35a
s3d35f
s3d351
s3d356
s3d354
s3d357
s3d35e
s3d359
s3d35c
s3d323
s3d32d
s3d32b
s3d328
s3d325
s3d320
s3d32a
s3d32f
s3d321
s3d326
s3d324
s3d327
s3d32e
s3d329
s3d32c
s3d303
s3d30d
s3d30b
s3d308
s3d305
s3d302
s3d30a
s3d30f
s3d301
s3d306
s3d304
s3d307
s3d30e
s3d309
s3d30c
s3d313
s3d31d
s3d31b
s3d318
s3d315
s3d312
s3d310
s3d31a
s3d31f
s3d316
s3d314
s3d317
s3d31e
s3d319
s3d31c
s3d343
s3d34d
s3d34b
s3d348
s3d345
s3d342
s3d340
s3d34a
s3d34f
s3d341
s3d346
s3d347
s3d34e
s3d349
s3d34c
s3d533
s3d522
s3d500
s3d511
s3d544
s3d535
s3d532
s3d530
s3d531
s3d534
s3d233
s3d255
s3d200
s3d211
s3d244
s3d235
s3d232
s3d230
s3d231
s3d234
s3d252
s3d250
s3d251
s3d254
s3d253
s3d033
s3d055
s3d022
s3d011
s3d044
s3d035
s3d032
s3d030
s3d031
s3d034
s3d052
s3d050
s3d051
s3d054
s3d020
s3d021
s3d024
s3d053
s3d133
s3d155
s3d122
s3d100
s3d144
s3d135
s3d132
s3d130
s3d131
s3d134
s3d152
s3d150
s3d151
s3d154
s3d120
s3d121
s3d124
s3d101
s3d104
s3d153
s3d102
s3d123
s3d125
s3d103
s3d105
s3d433
s3d455
s3d422
s3d400
s3d411
s3d435
s3d432
s3d430
s3d431
s3d434
s3d452
s3d450
s3d451
s3d454
s3d420
s3d421
s3d424
s3d401
s3d404
s3d414
s3d453
s3d402
s3d423
s3d425
s3d403
s3d405
s3d523
s3d52d
s3d52b
s3d528
s3d525
s3d520
s3d52a
s3d52f
s3d521
s3d526
s3d524
s3d527
s3d52e
s3d529
s3d52c
s3d503
s3d50d
s3d50b
s3d508
s3d505
s3d502
s3d50a
s3d50f
s3d501
s3d506
s3d504
s3d507
s3d50e
s3d509
s3d50c
s3d513
s3d51d
s3d51b
s3d518
s3d515
s3d512
s3d510
s3d51a
s3d51f
s3d516
s3d514
s3d517
s3d51e
s3d519
s3d51c
s3d543
s3d54d
s3d54b
s3d548
s3d545
s3d542
s3d540
s3d54a
s3d54f
s3d541
s3d546
s3d547
s3d54e
s3d549
s3d54c
s3d203
s3d20d
s3d20b
s3d208
s3d205
s3d202
s3d20a
s3d20f
s3d201
s3d206
s3d204
s3d207
s3d20e
s3d209
s3d20c
s3d213
s3d21d
s3d21b
s3d218
s3d215
s3d212
s3d210
s3d21a
s3d21f
s3d216
s3d214
s3d217
s3d21e
s3d219
s3d21c
s3d243
s3d24d
s3d24b
s3d248
s3d245
s3d242
s3d240
s3d24a
s3d24f
s3d241
s3d246
s3d247
s3d24e
s3d249
s3d24c
s3d013
s3d01d
s3d01b
s3d018
s3d015
s3d012
s3d010
s3d01a
s3d01f
s3d016
s3d014
s3d017
s3d01e
s3d019
s3d01c
s3d043
s3d04d
s3d04b
s3d048
s3d045
s3d042
s3d040
s3d04a
s3d04f
s3d041
s3d046
s3d047
s3d04e
s3d049
s3d04c
s3d143
s3d14d
s3d14b
s3d148
s3d145
s3d142
s3d140
s3d14a
s3d14f
s3d141
s3d146
s3d147
s3d14e
s3d149
s3d14c
s3d53d
s3d53b
s3d538
s3d53a
s3d53f
s3d536
s3d537
s3d53e
s3d539
s3d53c
s3d023
s3d02d
s3d02b
s3d028
s3d025
s3d02a
s3d02f
s3d026
s3d027
s3d02e
s3d029
s3d02c
s3d413
s3d41d
s3d41b
s3d418
s3d415
s3d412
s3d410
s3d41a
s3d41f
s3d416
s3d417
s3d41e
s3d419
s3d41c
s3d23d
s3d23b
s3d238
s3d23a
s3d23f
s3d236
s3d237
s3d23e
s3d239
s3d23c
s3d25d
s3d25b
s3d258
s3d25a
s3d25f
s3d256
s3d257
s3d25e
s3d259
s3d25c
s3d03d
s3d03b
s3d038
s3d03a
s3d03f
s3d036
s3d037
s3d03e
s3d039
s3d03c
s3d05d
s3d05b
s3d058
s3d05a
s3d05f
s3d056
s3d057
s3d05e
s3d059
s3d05c
s3d13d
s3d13b
s3d138
s3d13a
s3d13f
s3d136
s3d137
s3d13e
s3d139
s3d13c
s3d15d
s3d15b
s3d158
s3d15a
s3d15f
s3d156
s3d157
s3d15e
s3d159
s3d15c
s3d12d
s3d12b
s3d128
s3d12a
s3d12f
s3d126
s3d127
s3d12e
s3d129
s3d12c
s3d10d
s3d10b
s3d108
s3d10a
s3d10f
s3d106
s3d107
s3d10e
s3d109
s3d10c
s3d43d
s3d43b
s3d438
s3d43a
s3d43f
s3d436
s3d437
s3d43e
s3d439
s3d43c
s3d45d
s3d45b
s3d458
s3d45a
s3d45f
s3d456
s3d457
s3d45e
s3d459
s3d45c
s3d42d
s3d42b
s3d428
s3d42a
s3d42f
s3d426
s3d427
s3d42e
s3d429
s3d42c
s3d40d
s3d40b
s3d408
s3d40a
s3d40f
s3d406
s3d407
s3d40e
s3d409
s3d40c
s3b3
s3b5
s3b2
s3b0
s3b1
s3b4
s3b33
s3b55
s3b22
s3b00
s3b11
s3b44
s3b35
s3b32
s3b30
s3b31
s3b34
s3b52
s3b50
s3b51
s3b54
s3b20
s3b21
s3b24
s3b01
s3b04
s3b14
s3b53
s3b02
s3b41
s3b23
s3b25
s3b03
s3b05
s3b13
s3b15
s3b12
s3b10
s3b43
s3b45
s3b42
s3b40
s3b3d
s3b3b
s3b38
s3b3a
s3b3f
s3b36
s3b37
s3b3e
s3b39
s3b3c
s3b5d
s3b5b
s3b58
s3b5a
s3b5f
s3b56
s3b57
s3b5e
s3b59
s3b5c
s3b2d
s3b2b
s3b28
s3b2a
s3b2f
s3b26
s3b27
s3b2e
s3b29
s3b2c
s3b0d
s3b0b
s3b08
s3b0a
s3b0f
s3b06
s3b07
s3b0e
s3b09
s3b0c
s3b1d
s3b1b
s3b18
s3b1a
s3b1f
s3b16
s3b17
s3b1e
s3b19
s3b1c
s3b4d
s3b4b
s3b48
s3b4a
s3b4f
s3b46
s3b47
s3b4e
s3b49
s3b4c
s3b355
s3b322
s3b300
s3b311
s3b344
s3b333
s3b33d
s3b33b
s3b338
s3b335
s3b332
s3b330
s3b33a
s3b33f
s3b331
s3b336
s3b334
s3b337
s3b33e
s3b339
s3b33c
s3b553
s3b55d
s3b55b
s3b558
s3b555
s3b552
s3b550
s3b55a
s3b55f
s3b551
s3b556
s3b554
s3b557
s3b55e
s3b559
s3b55c
s3b223
s3b22d
s3b22b
s3b228
s3b225
s3b222
s3b220
s3b22a
s3b22f
s3b221
s3b226
s3b224
s3b227
s3b22e
s3b229
s3b22c
s3b003
s3b00d
s3b00b
s3b008
s3b005
s3b002
s3b000
s3b00a
s3b00f
s3b001
s3b006
s3b004
s3b007
s3b00e
s3b009
s3b00c
s3b113
s3b11d
s3b11b
s3b118
s3b115
s3b112
s3b110
s3b11a
s3b11f
s3b111
s3b116
s3b114
s3b117
s3b11e
s3b119
s3b11c
s3b443
s3b44d
s3b44b
s3b448
s3b445
s3b442
s3b440
s3b44a
s3b44f
s3b441
s3b446
s3b444
s3b447
s3b44e
s3b449
s3b44c
s3b353
s3b35d
s3b35b
s3b358
s3b352
s3b350
s3b35a
s3b35f
s3b351
s3b356
s3b354
s3b357
s3b35e
s3b359
s3b35c
s3b323
s3b32d
s3b32b
s3b328
s3b325
s3b320
s3b32a
s3b32f
s3b321
s3b326
s3b324
s3b327
s3b32e
s3b329
s3b32c
s3b303
s3b30d
s3b30b
s3b308
s3b305
s3b302
s3b30a
s3b30f
s3b301
s3b306
s3b304
s3b307
s3b30e
s3b309
s3b30c
s3b313
s3b31d
s3b31b
s3b318
s3b315
s3b312
s3b310
s3b31a
s3b31f
s3b316
s3b314
s3b317
s3b31e
s3b319
s3b31c
s3b343
s3b34d
s3b34b
s3b348
s3b345
s3b342
s3b340
s3b34a
s3b34f
s3b341
s3b346
s3b347
s3b34e
s3b349
s3b34c
s3b533
s3b522
s3b500
s3b511
s3b544
s3b535
s3b532
s3b530
s3b531
s3b534
s3b233
s3b255
s3b200
s3b211
s3b244
s3b235
s3b232
s3b230
s3b231
s3b234
s3b252
s3b250
s3b251
s3b254
s3b253
s3b033
s3b055
s3b022
s3b011
s3b044
s3b035
s3b032
s3b030
s3b031
s3b034
s3b052
s3b050
s3b051
s3b054
s3b020
s3b021
s3b024
s3b053
s3b133
s3b155
s3b122
s3b100
s3b144
s3b135
s3b132
s3b130
s3b131
s3b134
s3b152
s3b150
s3b151
s3b154
s3b120
s3b121
s3b124
s3b101
s3b104
s3b153
s3b102
s3b123
s3b125
s3b103
s3b105
s3b433
s3b455
s3b422
s3b400
s3b411
s3b435
s3b432
s3b430
s3b431
s3b434
s3b452
s3b450
s3b451
s3b454
s3b420
s3b421
s3b424
s3b401
s3b404
s3b414
s3b453
s3b402
s3b423
s3b425
s3b403
s3b405
s3b523
s3b52d
s3b52b
s3b528
s3b525
s3b520
s3b52a
s3b52f
s3b521
s3b526
s3b524
s3b527
s3b52e
s3b529
s3b52c
s3b503
s3b50d
s3b50b
s3b508
s3b505
s3b502
s3b50a
s3b50f
s3b501
s3b506
s3b504
s3b507
s3b50e
s3b509
s3b50c
s3b513
s3b51d
s3b51b
s3b518
s3b515
s3b512
s3b510
s3b51a
s3b51f
s3b516
s3b514
s3b517
s3b51e
s3b519
s3b51c
s3b543
s3b54d
s3b54b
s3b548
s3b545
s3b542
s3b540
s3b54a
s3b54f
s3b541
s3b546
s3b547
s3b54e
s3b549
s3b54c
s3b203
s3b20d
s3b20b
s3b208
s3b205
s3b202
s3b20a
s3b20f
s3b201
s3b206
s3b204
s3b207
s3b20e
s3b209
s3b20c
s3b213
s3b21d
s3b21b
s3b218
s3b215
s3b212
s3b210
s3b21a
s3b21f
s3b216
s3b214
s3b217
s3b21e
s3b219
s3b21c
s3b243
s3b24d
s3b24b
s3b248
s3b245
s3b242
s3b240
s3b24a
s3b24f
s3b241
s3b246
s3b247
s3b24e
s3b249
s3b24c
s3b013
s3b01d
s3b01b
s3b018
s3b015
s3b012
s3b010
s3b01a
s3b01f
s3b016
s3b014
s3b017
s3b01e
s3b019
s3b01c
s3b043
s3b04d
s3b04b
s3b048
s3b045
s3b042
s3b040
s3b04a
s3b04f
s3b041
s3b046
s3b047
s3b04e
s3b049
s3b04c
s3b143
s3b14d
s3b14b
s3b148
s3b145
s3b142
s3b140
s3b14a
s3b14f
s3b141
s3b146
s3b147
s3b14e
s3b149
s3b14c
s3b53d
s3b53b
s3b538
s3b53a
s3b53f
s3b536
s3b537
s3b53e
s3b539
s3b53c
s3b023
s3b02d
s3b02b
s3b028
s3b025
s3b02a
s3b02f
s3b026
s3b027
s3b02e
s3b029
s3b02c
s3b413
s3b41d
s3b41b
s3b418
s3b415
s3b412
s3b410
s3b41a
s3b41f
s3b416
s3b417
s3b41e
s3b419
s3b41c
s3b23d
s3b23b
s3b238
s3b23a
s3b23f
s3b236
s3b237
s3b23e
s3b239
s3b23c
s3b25d
s3b25b
s3b258
s3b25a
s3b25f
s3b256
s3b257
s3b25e
s3b259
s3b25c
s3b03d
s3b03b
s3b038
s3b03a
s3b03f
s3b036
s3b037
s3b03e
s3b039
s3b03c
s3b05d
s3b05b
s3b058
s3b05a
s3b05f
s3b056
s3b057
s3b05e
s3b059
s3b05c
s3b13d
s3b13b
s3b138
s3b13a
s3b13f
s3b136
s3b137
s3b13e
s3b139
s3b13c
s3b15d
s3b15b
s3b158
s3b15a
s3b15f
s3b156
s3b157
s3b15e
s3b159
s3b15c
s3b12d
s3b12b
s3b128
s3b12a
s3b12f
s3b126
s3b127
s3b12e
s3b129
s3b12c
s3b10d
s3b10b
s3b108
s3b10a
s3b10f
s3b106
s3b107
s3b10e
s3b109
s3b10c
s3b43d
s3b43b
s3b438
s3b43a
s3b43f
s3b436
s3b437
s3b43e
s3b439
s3b43c
s3b45d
s3b45b
s3b458
s3b45a
s3b45f
s3b456
s3b457
s3b45e
s3b459
s3b45c
s3b42d
s3b42b
s3b428
s3b42a
s3b42f
s3b426
s3b427
s3b42e
s3b429
s3b42c
s3b40d
s3b40b
s3b408
s3b40a
s3b40f
s3b406
s3b407
s3b40e
s3b409
s3b40c
s383
s385
s382
s380
s381
s384
s3833
s3855
s3822
s3800
s3811
s3844
s3835
s3832
s3830
s3831
s3834
s3852
s3850
s3851
s3854
s3820
s3821
s3824
s3801
s3804
s3814
s3853
s3802
s3841
s3823
s3825
s3803
s3805
s3813
s3815
s3812
s3810
s3843
s3845
s3842
s3840
s383d
s383b
s3838
s383a
s383f
s3836
s3837
s383e
s3839
s383c
s385d
s385b
s3858
s385a
s385f
s3856
s3857
s385e
s3859
s385c
s382d
s382b
s3828
s382a
s382f
s3826
s3827
s382e
s3829
s382c
s380d
s380b
s3808
s380a
s380f
s3806
s3807
s380e
s3809
s380c
s381d
s381b
s3818
s381a
s381f
s3816
s3817
s381e
s3819
s381c
s384d
s384b
s3848
s384a
s384f
s3846
s3847
s384e
s3849
s384c
s38355
s38322
s38300
s38311
s38344
s38333
s3833d
s3833b
s38338
s38335
s38332
s38330
s3833a
s3833f
s38331
s38336
s38334
s38337
s3833e
s38339
s3833c
s38553
s3855d
s3855b
s38558
s38555
s38552
s38550
s3855a
s3855f
s38551
s38556
s38554
s38557
s3855e
s38559
s3855c
s38223
s3822d
s3822b
s38228
s38225
s38222
s38220
s3822a
s3822f
s38221
s38226
s38224
s38227
s3822e
s38229
s3822c
s38003
s3800d
s3800b
s38008
s38005
s38002
s38000
s3800a
s3800f
s38001
s38006
s38004
s38007
s3800e
s38009
s3800c
s38113
s3811d
s3811b
s38118
s38115
s38112
s38110
s3811a
s3811f
s38111
s38116
s38114
s38117
s3811e
s38119
s3811c
s38443
s3844d
s3844b
s38448
s38445
s38442
s38440
s3844a
s3844f
s38441
s38446
s38444
s38447
s3844e
s38449
s3844c
s38353
s3835d
s3835b
s38358
s38352
s38350
s3835a
s3835f
s38351
s38356
s38354
s38357
s3835e
s38359
s3835c
s38323
s3832d
s3832b
s38328
s38325
s38320
s3832a
s3832f
s38321
s38326
s38324
s38327
s3832e
s38329
s3832c
s38303
s3830d
s3830b
s38308
s38305
s38302
s3830a
s3830f
s38301
s38306
s38304
s38307
s3830e
s38309
s3830c
s38313
s3831d
s3831b
s38318
s38315
s38312
s38310
s3831a
s3831f
s38316
s38314
s38317
s3831e
s38319
s3831c
s38343
s3834d
s3834b
s38348
s38345
s38342
s38340
s3834a
s3834f
s38341
s38346
s38347
s3834e
s38349
s3834c
s38533
s38522
s38500
s38511
s38544
s38535
s38532
s38530
s38531
s38534
s38233
s38255
s38200
s38211
s38244
s38235
s38232
s38230
s38231
s38234
s38252
s38250
s38251
s38254
s38253
s38033
s38055
s38022
s38011
s38044
s38035
s38032
s38030
s38031
s38034
s38052
s38050
s38051
s38054
s38020
s38021
s38024
s38053
s38133
s38155
s38122
s38100
s38144
s38135
s38132
s38130
s38131
s38134
s38152
s38150
s38151
s38154
s38120
s38121
s38124
s38101
s38104
s38153
s38102
s38123
s38125
s38103
s38105
s38433
s38455
s38422
s38400
s38411
s38435
s38432
s38430
s38431
s38434
s38452
s38450
s38451
s38454
s38420
s38421
s38424
s38401
s38404
s38414
s38453
s38402
s38423
s38425
s38403
s38405
s38523
s3852d
s3852b
s38528
s38525
s38520
s3852a
s3852f
s38521
s38526
s38524
s38527
s3852e
s38529
s3852c
s38503
s3850d
s3850b
s38508
s38505
s38502
s3850a
s3850f
s38501
s38506
s38504
s38507
s3850e
s38509
s3850c
s38513
s3851d
s3851b
s38518
s38515
s38512
s38510
s3851a
s3851f
s38516
s38514
s38517
s3851e
s38519
s3851c
s38543
s3854d
s3854b
s38548
s38545
s38542
s38540
s3854a
s3854f
s38541
s38546
s38547
s3854e
s38549
s3854c
s38203
s3820d
s3820b
s38208
s38205
s38202
s3820a
s3820f
s38201
s38206
s38204
s38207
s3820e
s38209
s3820c
s38213
s3821d
s3821b
s38218
s38215
s38212
s38210
s3821a
s3821f
s38216
s38214
s38217
s3821e
s38219
s3821c
s38243
s3824d
s3824b
s38248
s38245
s38242
s38240
s3824a
s3824f
s38241
s38246
s38247
s3824e
s38249
s3824c
s38013
s3801d
s3801b
s38018
s38015
s38012
s38010
s3801a
s3801f
s38016
s38014
s38017
s3801e
s38019
s3801c
s38043
s3804d
s3804b
s38048
s38045
s38042
s38040
s3804a
s3804f
s38041
s38046
s38047
s3804e
s38049
s3804c
s38143
s3814d
s3814b
s38148
s38145
s38142
s38140
s3814a
s3814f
s38141
s38146
s38147
s3814e
s38149
s3814c
s3853d
s3853b
s38538
s3853a
s3853f
s38536
s38537
s3853e
s38539
s3853c
s38023
s3802d
s3802b
s38028
s38025
s3802a
s3802f
s38026
s38027
s3802e
s38029
s3802c
s38413
s3841d
s3841b
s38418
s38415
s38412
s38410
s3841a
s3841f
s38416
s38417
s3841e
s38419
s3841c
s3823d
s3823b
s38238
s3823a
s3823f
s38236
s38237
s3823e
s38239
s3823c
s3825d
s3825b
s38258
s3825a
s3825f
s38256
s38257
s3825e
s38259
s3825c
s3803d
s3803b
s38038
s3803a
s3803f
s38036
s38037
s3803e
s38039
s3803c
s3805d
s3805b
s38058
s3805a
s3805f
s38056
s38057
s3805e
s38059
s3805c
s3813d
s3813b
s38138
s3813a
s3813f
s38136
s38137
s3813e
s38139
s3813c
s3815d
s3815b
s38158
s3815a
s3815f
s38156
s38157
s3815e
s38159
s3815c
s3812d
s3812b
s38128
s3812a
s3812f
s38126
s38127
s3812e
s38129
s3812c
s3810d
s3810b
s38108
s3810a
s3810f
s38106
s38107
s3810e
s38109
s3810c
s3843d
s3843b
s38438
s3843a
s3843f
s38436
s38437
s3843e
s38439
s3843c
s3845d
s3845b
s38458
s3845a
s3845f
s38456
s38457
s3845e
s38459
s3845c
s3842d
s3842b
s38428
s3842a
s3842f
s38426
s38427
s3842e
s38429
s3842c
s3840d
s3840b
s38408
s3840a
s3840f
s38406
s38407
s3840e
s38409
s3840c
s3a3
s3a5
s3a2
s3a0
s3a1
s3a4
s3a33
s3a55
s3a22
s3a00
s3a11
s3a44
s3a35
s3a32
s3a30
s3a31
s3a34
s3a52
s3a50
s3a51
s3a54
s3a20
s3a21
s3a24
s3a01
s3a04
s3a14
s3a53
s3a02
s3a41
s3a23
s3a25
s3a03
s3a05
s3a13
s3a15
s3a12
s3a10
s3a43
s3a45
s3a42
s3a40
s3a3d
s3a3b
s3a38
s3a3a
s3a3f
s3a36
s3a37
s3a3e
s3a39
s3a3c
s3a5d
s3a5b
s3a58
s3a5a
s3a5f
s3a56
s3a57
s3a5e
s3a59
s3a5c
s3a2d
s3a2b
s3a28
s3a2a
s3a2f
s3a26
s3a27
s3a2e
s3a29
s3a2c
s3a0d
s3a0b
s3a08
s3a0a
s3a0f
s3a06
s3a07
s3a0e
s3a09
s3a0c
s3a1d
s3a1b
s3a18
s3a1a
s3a1f
s3a16
s3a17
s3a1e
s3a19
s3a1c
s3a4d
s3a4b
s3a48
s3a4a
s3a4f
s3a46
s3a47
s3a4e
s3a49
s3a4c
s3a355
s3a322
s3a300
s3a311
s3a344
s3a333
s3a33d
s3a33b
s3a338
s3a335
s3a332
s3a330
s3a33a
s3a33f
s3a331
s3a336
s3a334
s3a337
s3a33e
s3a339
s3a33c
s3a553
s3a55d
s3a55b
s3a558
s3a555
s3a552
s3a550
s3a55a
s3a55f
s3a551
s3a556
s3a554
s3a557
s3a55e
s3a559
s3a55c
s3a223
s3a22d
s3a22b
s3a228
s3a225
s3a222
s3a220
s3a22a
s3a22f
s3a221
s3a226
s3a224
s3a227
s3a22e
s3a229
s3a22c
s3a003
s3a00d
s3a00b
s3a008
s3a005
s3a002
s3a000
s3a00a
s3a00f
s3a001
s3a006
s3a004
s3a007
s3a00e
s3a009
s3a00c
s3a113
s3a11d
s3a11b
s3a118
s3a115
s3a112
s3a110
s3a11a
s3a11f
s3a111
s3a116
s3a114
s3a117
s3a11e
s3a119
s3a11c
s3a443
s3a44d
s3a44b
s3a448
s3a445
s3a442
s3a440
s3a44a
s3a44f
s3a441
s3a446
s3a444
s3a447
s3a44e
s3a449
s3a44c
s3a353
s3a35d
s3a35b
s3a358
s3a352
s3a350
s3a35a
s3a35f
s3a351
s3a356
s3a354
s3a357
s3a35e
s3a359
s3a35c
s3a323
s3a32d
s3a32b
s3a328
s3a325
s3a320
s3a32a
s3a32f
s3a321
s3a326
s3a324
s3a327
s3a32e
s3a329
s3a32c
s3a303
s3a30d
s3a30b
s3a308
s3a305
s3a302
s3a30a
s3a30f
s3a301
s3a306
s3a304
s3a307
s3a30e
s3a309
s3a30c
s3a313
s3a31d
s3a31b
s3a318
s3a315
s3a312
s3a310
s3a31a
s3a31f
s3a316
s3a314
s3a317
s3a31e
s3a319
s3a31c
s3a343
s3a34d
s3a34b
s3a348
s3a345
s3a342
s3a340
s3a34a
s3a34f
s3a341
s3a346
s3a347
s3a34e
s3a349
s3a34c
s3a533
s3a522
s3a500
s3a511
s3a544
s3a535
s3a532
s3a530
s3a531
s3a534
s3a233
s3a255
s3a200
s3a211
s3a244
s3a235
s3a232
s3a230
s3a231
s3a234
s3a252
s3a250
s3a251
s3a254
s3a253
s3a033
s3a055
s3a022
s3a011
s3a044
s3a035
s3a032
s3a030
s3a031
s3a034
s3a052
s3a050
s3a051
s3a054
s3a020
s3a021
s3a024
s3a053
s3a133
s3a155
s3a122
s3a100
s3a144
s3a135
s3a132
s3a130
s3a131
s3a134
s3a152
s3a150
s3a151
s3a154
s3a120
s3a121
s3a124
s3a101
s3a104
s3a153
s3a102
s3a123
s3a125
s3a103
s3a105
s3a433
s3a455
s3a422
s3a400
s3a411
s3a435
s3a432
s3a430
s3a431
s3a434
s3a452
s3a450
s3a451
s3a454
s3a420
s3a421
s3a424
s3a401
s3a404
s3a414
s3a453
s3a402
s3a423
s3a425
s3a403
s3a405
s3a523
s3a52d
s3a52b
s3a528
s3a525
s3a520
s3a52a
s3a52f
s3a521
s3a526
s3a524
s3a527
s3a52e
s3a529
s3a52c
s3a503
s3a50d
s3a50b
s3a508
s3a505
s3a502
s3a50a
s3a50f
s3a501
s3a506
s3a504
s3a507
s3a50e
s3a509
s3a50c
s3a513
s3a51d
s3a51b
s3a518
s3a515
s3a512
s3a510
s3a51a
s3a51f
s3a516
s3a514
s3a517
s3a51e
s3a519
s3a51c
s3a543
s3a54d
s3a54b
s3a548
s3a545
s3a542
s3a540
s3a54a
s3a54f
s3a541
s3a546
s3a547
s3a54e
s3a549
s3a54c
s3a203
s3a20d
s3a20b
s3a208
s3a205
s3a202
s3a20a
s3a20f
s3a201
s3a206
s3a204
s3a207
s3a20e
s3a209
s3a20c
s3a213
s3a21d
s3a21b
s3a218
s3a215
s3a212
s3a210
s3a21a
s3a21f
s3a216
s3a214
s3a217
s3a21e
s3a219
s3a21c
s3a243
s3a24d
s3a24b
s3a248
s3a245
s3a242
s3a240
s3a24a
s3a24f
s3a241
s3a246
s3a247
s3a24e
s3a249
s3a24c
s3a013
s3a01d
s3a01b
s3a018
s3a015
s3a012
s3a010
s3a01a
s3a01f
s3a016
s3a014
s3a017
s3a01e
s3a019
s3a01c
s3a043
s3a04d
s3a04b
s3a048
s3a045
s3a042
s3a040
s3a04a
s3a04f
s3a041
s3a046
s3a047
s3a04e
s3a049
s3a04c
s3a143
s3a14d
s3a14b
s3a148
s3a145
s3a142
s3a140
s3a14a
s3a14f
s3a141
s3a146
s3a147
s3a14e
s3a149
s3a14c
s3a53d
s3a53b
s3a538
s3a53a
s3a53f
s3a536
s3a537
s3a53e
s3a539
s3a53c
s3a023
s3a02d
s3a02b
s3a028
s3a025
s3a02a
s3a02f
s3a026
s3a027
s3a02e
s3a029
s3a02c
s3a413
s3a41d
s3a41b
s3a418
s3a415
s3a412
s3a410
s3a41a
s3a41f
s3a416
s3a417
s3a41e
s3a419
s3a41c
s3a23d
s3a23b
s3a238
s3a23a
s3a23f
s3a236
s3a237
s3a23e
s3a239
s3a23c
s3a25d
s3a25b
s3a258
s3a25a
s3a25f
s3a256
s3a257
s3a25e
s3a259
s3a25c
s3a03d
s3a03b
s3a038
s3a03a
s3a03f
s3a036
s3a037
s3a03e
s3a039
s3a03c
s3a05d
s3a05b
s3a058
s3a05a
s3a05f
s3a056
s3a057
s3a05e
s3a059
s3a05c
s3a13d
s3a13b
s3a138
s3a13a
s3a13f
s3a136
s3a137
s3a13e
s3a139
s3a13c
s3a15d
s3a15b
s3a158
s3a15a
s3a15f
s3a156
s3a157
s3a15e
s3a159
s3a15c
s3a12d
s3a12b
s3a128
s3a12a
s3a12f
s3a126
s3a127
s3a12e
s3a129
s3a12c
s3a10d
s3a10b
s3a108
s3a10a
s3a10f
s3a106
s3a107
s3a10e
s3a109
s3a10c
s3a43d
s3a43b
s3a438
s3a43a
s3a43f
s3a436
s3a437
s3a43e
s3a439
s3a43c
s3a45d
s3a45b
s3a458
s3a45a
s3a45f
s3a456
s3a457
s3a45e
s3a459
s3a45c
s3a42d
s3a42b
s3a428
s3a42a
s3a42f
s3a426
s3a427
s3a42e
s3a429
s3a42c
s3a40d
s3a40b
s3a408
s3a40a
s3a40f
s3a406
s3a407
s3a40e
s3a409
s3a40c
s3f3
s3f5
s3f2
s3f0
s3f1
s3f4
s3f33
s3f55
s3f22
s3f00
s3f11
s3f44
s3f35
s3f32
s3f30
s3f31
s3f34
s3f52
s3f50
s3f51
s3f54
s3f20
s3f21
s3f24
s3f01
s3f04
s3f14
s3f53
s3f02
s3f41
s3f23
s3f25
s3f03
s3f05
s3f13
s3f15
s3f12
s3f10
s3f43
s3f45
s3f42
s3f40
s3f3d
s3f3b
s3f38
s3f3a
s3f3f
s3f36
s3f37
s3f3e
s3f39
s3f3c
s3f5d
s3f5b
s3f58
s3f5a
s3f5f
s3f56
s3f57
s3f5e
s3f59
s3f5c
s3f2d
s3f2b
s3f28
s3f2a
s3f2f
s3f26
s3f27
s3f2e
s3f29
s3f2c
s3f0d
s3f0b
s3f08
s3f0a
s3f0f
s3f06
s3f07
s3f0e
s3f09
s3f0c
s3f1d
s3f1b
s3f18
s3f1a
s3f1f
s3f16
s3f17
s3f1e
s3f19
s3f1c
s3f4d
s3f4b
s3f48
s3f4a
s3f4f
s3f46
s3f47
s3f4e
s3f49
s3f4c
s3f355
s3f322
s3f300
s3f311
s3f344
s3f333
s3f33d
s3f33b
s3f338
s3f335
s3f332
s3f330
s3f33a
s3f33f
s3f331
s3f336
s3f334
s3f337
s3f33e
s3f339
s3f33c
s3f553
s3f55d
s3f55b
s3f558
s3f555
s3f552
s3f550
s3f55a
s3f55f
s3f551
s3f556
s3f554
s3f557
s3f55e
s3f559
s3f55c
s3f223
s3f22d
s3f22b
s3f228
s3f225
s3f222
s3f220
s3f22a
s3f22f
s3f221
s3f226
s3f224
s3f227
s3f22e
s3f229
s3f22c
s3f003
s3f00d
s3f00b
s3f008
s3f005
s3f002
s3f000
s3f00a
s3f00f
s3f001
s3f006
s3f004
s3f007
s3f00e
s3f009
s3f00c
s3f113
s3f11d
s3f11b
s3f118
s3f115
s3f112
s3f110
s3f11a
s3f11f
s3f111
s3f116
s3f114
s3f117
s3f11e
s3f119
s3f11c
s3f443
s3f44d
s3f44b
s3f448
s3f445
s3f442
s3f440
s3f44a
s3f44f
s3f441
s3f446
s3f444
s3f447
s3f44e
s3f449
s3f44c
s3f353
s3f35d
s3f35b
s3f358
s3f352
s3f350
s3f35a
s3f35f
s3f351
s3f356
s3f354
s3f357
s3f35e
s3f359
s3f35c
s3f323
s3f32d
s3f32b
s3f328
s3f325
s3f320
s3f32a
s3f32f
s3f321
s3f326
s3f324
s3f327
s3f32e
s3f329
s3f32c
s3f303
s3f30d
s3f30b
s3f308
s3f305
s3f302
s3f30a
s3f30f
s3f301
s3f306
s3f304
s3f307
s3f30e
s3f309
s3f30c
s3f313
s3f31d
s3f31b
s3f318
s3f315
s3f312
s3f310
s3f31a
s3f31f
s3f316
s3f314
s3f317
s3f31e
s3f319
s3f31c
s3f343
s3f34d
s3f34b
s3f348
s3f345
s3f342
s3f340
s3f34a
s3f34f
s3f341
s3f346
s3f347
s3f34e
s3f349
s3f34c
s3f533
s3f522
s3f500
s3f511
s3f544
s3f535
s3f532
s3f530
s3f531
s3f534
s3f233
s3f255
s3f200
s3f211
s3f244
s3f235
s3f232
s3f230
s3f231
s3f234
s3f252
s3f250
s3f251
s3f254
s3f253
s3f033
s3f055
s3f022
s3f011
s3f044
s3f035
s3f032
s3f030
s3f031
s3f034
s3f052
s3f050
s3f051
s3f054
s3f020
s3f021
s3f024
s3f053
s3f133
s3f155
s3f122
s3f100
s3f144
s3f135
s3f132
s3f130
s3f131
s3f134
s3f152
s3f150
s3f151
s3f154
s3f120
s3f121
s3f124
s3f101
s3f104
s3f153
s3f102
s3f123
s3f125
s3f103
s3f105
s3f433
s3f455
s3f422
s3f400
s3f411
s3f435
s3f432
s3f430
s3f431
s3f434
s3f452
s3f450
s3f451
s3f454
s3f420
s3f421
s3f424
s3f401
s3f404
s3f414
s3f453
s3f402
s3f423
s3f425
s3f403
s3f405
s3f523
s3f52d
s3f52b
s3f528
s3f525
s3f520
s3f52a
s3f52f
s3f521
s3f526
s3f524
s3f527
s3f52e
s3f529
s3f52c
s3f503
s3f50d
s3f50b
s3f508
s3f505
s3f502
s3f50a
s3f50f
s3f501
s3f506
s3f504
s3f507
s3f50e
s3f509
s3f50c
s3f513
s3f51d
s3f51b
s3f518
s3f515
s3f512
s3f510
s3f51a
s3f51f
s3f516
s3f514
s3f517
s3f51e
s3f519
s3f51c
s3f543
s3f54d
s3f54b
s3f548
s3f545
s3f542
s3f540
s3f54a
s3f54f
s3f541
s3f546
s3f547
s3f54e
s3f549
s3f54c
s3f203
s3f20d
s3f20b
s3f208
s3f205
s3f202
s3f20a
s3f20f
s3f201
s3f206
s3f204
s3f207
s3f20e
s3f209
s3f20c
s3f213
s3f21d
s3f21b
s3f218
s3f215
s3f212
s3f210
s3f21a
s3f21f
s3f216
s3f214
s3f217
s3f21e
s3f219
s3f21c
s3f243
s3f24d
s3f24b
s3f248
s3f245
s3f242
s3f240
s3f24a
s3f24f
s3f241
s3f246
s3f247
s3f24e
s3f249
s3f24c
s3f013
s3f01d
s3f01b
s3f018
s3f015
s3f012
s3f010
s3f01a
s3f01f
s3f016
s3f014
s3f017
s3f01e
s3f019
s3f01c
s3f043
s3f04d
s3f04b
s3f048
s3f045
s3f042
s3f040
s3f04a
s3f04f
s3f041
s3f046
s3f047
s3f04e
s3f049
s3f04c
s3f143
s3f14d
s3f14b
s3f148
s3f145
s3f142
s3f140
s3f14a
s3f14f
s3f141
s3f146
s3f147
s3f14e
s3f149
s3f14c
s3f53d
s3f53b
s3f538
s3f53a
s3f53f
s3f536
s3f537
s3f53e
s3f539
s3f53c
s3f023
s3f02d
s3f02b
s3f028
s3f025
s3f02a
s3f02f
s3f026
s3f027
s3f02e
s3f029
s3f02c
s3f413
s3f41d
s3f41b
s3f418
s3f415
s3f412
s3f410
s3f41a
s3f41f
s3f416
s3f417
s3f41e
s3f419
s3f41c
s3f23d
s3f23b
s3f238
s3f23a
s3f23f
s3f236
s3f237
s3f23e
s3f239
s3f23c
s3f25d
s3f25b
s3f258
s3f25a
s3f25f
s3f256
s3f257
s3f25e
s3f259
s3f25c
s3f03d
s3f03b
s3f038
s3f03a
s3f03f
s3f036
s3f037
s3f03e
s3f039
s3f03c
s3f05d
s3f05b
s3f058
s3f05a
s3f05f
s3f056
s3f057
s3f05e
s3f059
s3f05c
s3f13d
s3f13b
s3f138
s3f13a
s3f13f
s3f136
s3f137
s3f13e
s3f139
s3f13c
s3f15d
s3f15b
s3f158
s3f15a
s3f15f
s3f156
s3f157
s3f15e
s3f159
s3f15c
s3f12d
s3f12b
s3f128
s3f12a
s3f12f
s3f126
s3f127
s3f12e
s3f129
s3f12c
s3f10d
s3f10b
s3f108
s3f10a
s3f10f
s3f106
s3f107
s3f10e
s3f109
s3f10c
s3f43d
s3f43b
s3f438
s3f43a
s3f43f
s3f436
s3f437
s3f43e
s3f439
s3f43c
s3f45d
s3f45b
s3f458
s3f45a
s3f45f
s3f456
s3f457
s3f45e
s3f459
s3f45c
s3f42d
s3f42b
s3f428
s3f42a
s3f42f
s3f426
s3f427
s3f42e
s3f429
s3f42c
s3f40d
s3f40b
s3f408
s3f40a
s3f40f
s3f406
s3f407
s3f40e
s3f409
s3f40c
s363
s365
s362
s360
s361
s364
s3633
s3655
s3622
s3600
s3611
s3644
s3635
s3632
s3630
s3631
s3634
s3652
s3650
s3651
s3654
s3620
s3621
s3624
s3601
s3604
s3614
s3653
s3602
s3641
s3623
s3625
s3603
s3605
s3613
s3615
s3612
s3610
s3643
s3645
s3642
s3640
s363d
s363b
s3638
s363a
s363f
s3636
s3637
s363e
s3639
s363c
s365d
s365b
s3658
s365a
s365f
s3656
s3657
s365e
s3659
s365c
s362d
s362b
s3628
s362a
s362f
s3626
s3627
s362e
s3629
s362c
s360d
s360b
s3608
s360a
s360f
s3606
s3607
s360e
s3609
s360c
s361d
s361b
s3618
s361a
s361f
s3616
s3617
s361e
s3619
s361c
s364d
s364b
s3648
s364a
s364f
s3646
s3647
s364e
s3649
s364c
s36355
s36322
s36300
s36311
s36344
s36333
s3633d
s3633b
s36338
s36335
s36332
s36330
s3633a
s3633f
s36331
s36336
s36334
s36337
s3633e
s36339
s3633c
s36553
s3655d
s3655b
s36558
s36555
s36552
s36550
s3655a
s3655f
s36551
s36556
s36554
s36557
s3655e
s36559
s3655c
s36223
s3622d
s3622b
s36228
s36225
s36222
s36220
s3622a
s3622f
s36221
s36226
s36224
s36227
s3622e
s36229
s3622c
s36003
s3600d
s3600b
s36008
s36005
s36002
s36000
s3600a
s3600f
s36001
s36006
s36004
s36007
s3600e
s36009
s3600c
s36113
s3611d
s3611b
s36118
s36115
s36112
s36110
s3611a
s3611f
s36111
s36116
s36114
s36117
s3611e
s36119
s3611c
s36443
s3644d
s3644b
s36448
s36445
s36442
s36440
s3644a
s3644f
s36441
s36446
s36444
s36447
s3644e
s36449
s3644c
s36353
s3635d
s3635b
s36358
s36352
s36350
s3635a
s3635f
s36351
s36356
s36354
s36357
s3635e
s36359
s3635c
s36323
s3632d
s3632b
s36328
s36325
s36320
s3632a
s3632f
s36321
s36326
s36324
s36327
s3632e
s36329
s3632c
s36303
s3630d
s3630b
s36308
s36305
s36302
s3630a
s3630f
s36301
s36306
s36304
s36307
s3630e
s36309
s3630c
s36313
s3631d
s3631b
s36318
s36315
s36312
s36310
s3631a
s3631f
s36316
s36314
s36317
s3631e
s36319
s3631c
s36343
s3634d
s3634b
s36348
s36345
s36342
s36340
s3634a
s3634f
s36341
s36346
s36347
s3634e
s36349
s3634c
s36533
s36522
s36500
s36511
s36544
s36535
s36532
s36530
s36531
s36534
s36233
s36255
s36200
s36211
s36244
s36235
s36232
s36230
s36231
s36234
s36252
s36250
s36251
s36254
s36253
s36033
s36055
s36022
s36011
s36044
s36035
s36032
s36030
s36031
s36034
s36052
s36050
s36051
s36054
s36020
s36021
s36024
s36053
s36133
s36155
s36122
s36100
s36144
s36135
s36132
s36130
s36131
s36134
s36152
s36150
s36151
s36154
s36120
s36121
s36124
s36101
s36104
s36153
s36102
s36123
s36125
s36103
s36105
s36433
s36455
s36422
s36400
s36411
s36435
s36432
s36430
s36431
s36434
s36452
s36450
s36451
s36454
s36420
s36421
s36424
s36401
s36404
s36414
s36453
s36402
s36423
s36425
s36403
s36405
s36523
s3652d
s3652b
s36528
s36525
s36520
s3652a
s3652f
s36521
s36526
s36524
s36527
s3652e
s36529
s3652c
s36503
s3650d
s3650b
s36508
s36505
s36502
s3650a
s3650f
s36501
s36506
s36504
s36507
s3650e
s36509
s3650c
s36513
s3651d
s3651b
s36518
s36515
s36512
s36510
s3651a
s3651f
s36516
s36514
s36517
s3651e
s36519
s3651c
s36543
s3654d
s3654b
s36548
s36545
s36542
s36540
s3654a
s3654f
s36541
s36546
s36547
s3654e
s36549
s3654c
s36203
s3620d
s3620b
s36208
s36205
s36202
s3620a
s3620f
s36201
s36206
s36204
s36207
s3620e
s36209
s3620c
s36213
s3621d
s3621b
s36218
s36215
s36212
s36210
s3621a
s3621f
s36216
s36214
s36217
s3621e
s36219
s3621c
s36243
s3624d
s3624b
s36248
s36245
s36242
s36240
s3624a
s3624f
s36241
s36246
s36247
s3624e
s36249
s3624c
s36013
s3601d
s3601b
s36018
s36015
s36012
s36010
s3601a
s3601f
s36016
s36014
s36017
s3601e
s36019
s3601c
s36043
s3604d
s3604b
s36048
s36045
s36042
s36040
s3604a
s3604f
s36041
s36046
s36047
s3604e
s36049
s3604c
s36143
s3614d
s3614b
s36148
s36145
s36142
s36140
s3614a
s3614f
s36141
s36146
s36147
s3614e
s36149
s3614c
s3653d
s3653b
s36538
s3653a
s3653f
s36536
s36537
s3653e
s36539
s3653c
s36023
s3602d
s3602b
s36028
s36025
s3602a
s3602f
s36026
s36027
s3602e
s36029
s3602c
s36413
s3641d
s3641b
s36418
s36415
s36412
s36410
s3641a
s3641f
s36416
s36417
s3641e
s36419
s3641c
s3623d
s3623b
s36238
s3623a
s3623f
s36236
s36237
s3623e
s36239
s3623c
s3625d
s3625b
s36258
s3625a
s3625f
s36256
s36257
s3625e
s36259
s3625c
s3603d
s3603b
s36038
s3603a
s3603f
s36036
s36037
s3603e
s36039
s3603c
s3605d
s3605b
s36058
s3605a
s3605f
s36056
s36057
s3605e
s36059
s3605c
s3613d
s3613b
s36138
s3613a
s3613f
s36136
s36137
s3613e
s36139
s3613c
s3615d
s3615b
s36158
s3615a
s3615f
s36156
s36157
s3615e
s36159
s3615c
s3612d
s3612b
s36128
s3612a
s3612f
s36126
s36127
s3612e
s36129
s3612c
s3610d
s3610b
s36108
s3610a
s3610f
s36106
s36107
s3610e
s36109
s3610c
s3643d
s3643b
s36438
s3643a
s3643f
s36436
s36437
s3643e
s36439
s3643c
s3645d
s3645b
s36458
s3645a
s3645f
s36456
s36457
s3645e
s36459
s3645c
s3642d
s3642b
s36428
s3642a
s3642f
s36426
s36427
s3642e
s36429
s3642c
s3640d
s3640b
s36408
s3640a
s3640f
s36406
s36407
s3640e
s36409
s3640c
s373
s375
s372
s370
s371
s374
s3733
s3755
s3722
s3700
s3711
s3744
s3735
s3732
s3730
s3731
s3734
s3752
s3750
s3751
s3754
s3720
s3721
s3724
s3701
s3704
s3714
s3753
s3702
s3741
s3723
s3725
s3703
s3705
s3713
s3715
s3712
s3710
s3743
s3745
s3742
s3740
s373d
s373b
s3738
s373a
s373f
s3736
s3737
s373e
s3739
s373c
s375d
s375b
s3758
s375a
s375f
s3756
s3757
s375e
s3759
s375c
s372d
s372b
s3728
s372a
s372f
s3726
s3727
s372e
s3729
s372c
s370d
s370b
s3708
s370a
s370f
s3706
s3707
s370e
s3709
s370c
s371d
s371b
s3718
s371a
s371f
s3716
s3717
s371e
s3719
s371c
s374d
s374b
s3748
s374a
s374f
s3746
s3747
s374e
s3749
s374c
s37355
s37322
s37300
s37311
s37344
s37333
s3733d
s3733b
s37338
s37335
s37332
s37330
s3733a
s3733f
s37331
s37336
s37334
s37337
s3733e
s37339
s3733c
s37553
s3755d
s3755b
s37558
s37555
s37552
s37550
s3755a
s3755f
s37551
s37556
s37554
s37557
s3755e
s37559
s3755c
s37223
s3722d
s3722b
s37228
s37225
s37222
s37220
s3722a
s3722f
s37221
s37226
s37224
s37227
s3722e
s37229
s3722c
s37003
s3700d
s3700b
s37008
s37005
s37002
s37000
s3700a
s3700f
s37001
s37006
s37004
s37007
s3700e
s37009
s3700c
s37113
s3711d
s3711b
s37118
s37115
s37112
s37110
s3711a
s3711f
s37111
s37116
s37114
s37117
s3711e
s37119
s3711c
s37443
s3744d
s3744b
s37448
s37445
s37442
s37440
s3744a
s3744f
s37441
s37446
s37444
s37447
s3744e
s37449
s3744c
s37353
s3735d
s3735b
s37358
s37352
s37350
s3735a
s3735f
s37351
s37356
s37354
s37357
s3735e
s37359
s3735c
s37323
s3732d
s3732b
s37328
s37325
s37320
s3732a
s3732f
s37321
s37326
s37324
s37327
s3732e
s37329
s3732c
s37303
s3730d
s3730b
s37308
s37305
s37302
s3730a
s3730f
s37301
s37306
s37304
s37307
s3730e
s37309
s3730c
s37313
s3731d
s3731b
s37318
s37315
s37312
s37310
s3731a
s3731f
s37316
s37314
s37317
s3731e
s37319
s3731c
s37343
s3734d
s3734b
s37348
s37345
s37342
s37340
s3734a
s3734f
s37341
s37346
s37347
s3734e
s37349
s3734c
s37533
s37522
s37500
s37511
s37544
s37535
s37532
s37530
s37531
s37534
s37233
s37255
s37200
s37211
s37244
s37235
s37232
s37230
s37231
s37234
s37252
s37250
s37251
s37254
s37253
s37033
s37055
s37022
s37011
s37044
s37035
s37032
s37030
s37031
s37034
s37052
s37050
s37051
s37054
s37020
s37021
s37024
s37053
s37133
s37155
s37122
s37100
s37144
s37135
s37132
s37130
s37131
s37134
s37152
s37150
s37151
s37154
s37120
s37121
s37124
s37101
s37104
s37153
s37102
s37123
s37125
s37103
s37105
s37433
s37455
s37422
s37400
s37411
s37435
s37432
s37430
s37431
s37434
s37452
s37450
s37451
s37454
s37420
s37421
s37424
s37401
s37404
s37414
s37453
s37402
s37423
s37425
s37403
s37405
s37523
s3752d
s3752b
s37528
s37525
s37520
s3752a
s3752f
s37521
s37526
s37524
s37527
s3752e
s37529
s3752c
s37503
s3750d
s3750b
s37508
s37505
s37502
s3750a
s3750f
s37501
s37506
s37504
s37507
s3750e
s37509
s3750c
s37513
s3751d
s3751b
s37518
s37515
s37512
s37510
s3751a
s3751f
s37516
s37514
s37517
s3751e
s37519
s3751c
s37543
s3754d
s3754b
s37548
s37545
s37542
s37540
s3754a
s3754f
s37541
s37546
s37547
s3754e
s37549
s3754c
s37203
s3720d
s3720b
s37208
s37205
s37202
s3720a
s3720f
s37201
s37206
s37204
s37207
s3720e
s37209
s3720c
s37213
s3721d
s3721b
s37218
s37215
s37212
s37210
s3721a
s3721f
s37216
s37214
s37217
s3721e
s37219
s3721c
s37243
s3724d
s3724b
s37248
s37245
s37242
s37240
s3724a
s3724f
s37241
s37246
s37247
s3724e
s37249
s3724c
s37013
s3701d
s3701b
s37018
s37015
s37012
s37010
s3701a
s3701f
s37016
s37014
s37017
s3701e
s37019
s3701c
s37043
s3704d
s3704b
s37048
s37045
s37042
s37040
s3704a
s3704f
s37041
s37046
s37047
s3704e
s37049
s3704c
s37143
s3714d
s3714b
s37148
s37145
s37142
s37140
s3714a
s3714f
s37141
s37146
s37147
s3714e
s37149
s3714c
s3753d
s3753b
s37538
s3753a
s3753f
s37536
s37537
s3753e
s37539
s3753c
s37023
s3702d
s3702b
s37028
s37025
s3702a
s3702f
s37026
s37027
s3702e
s37029
s3702c
s37413
s3741d
s3741b
s37418
s37415
s37412
s37410
s3741a
s3741f
s37416
s37417
s3741e
s37419
s3741c
s3723d
s3723b
s37238
s3723a
s3723f
s37236
s37237
s3723e
s37239
s3723c
s3725d
s3725b
s37258
s3725a
s3725f
s37256
s37257
s3725e
s37259
s3725c
s3703d
s3703b
s37038
s3703a
s3703f
s37036
s37037
s3703e
s37039
s3703c
s3705d
s3705b
s37058
s3705a
s3705f
s37056
s37057
s3705e
s37059
s3705c
s3713d
s3713b
s37138
s3713a
s3713f
s37136
s37137
s3713e
s37139
s3713c
s3715d
s3715b
s37158
s3715a
s3715f
s37156
s37157
s3715e
s37159
s3715c
s3712d
s3712b
s37128
s3712a
s3712f
s37126
s37127
s3712e
s37129
s3712c
s3710d
s3710b
s37108
s3710a
s3710f
s37106
s37107
s3710e
s37109
s3710c
s3743d
s3743b
s37438
s3743a
s3743f
s37436
s37437
s3743e
s37439
s3743c
s3745d
s3745b
s37458
s3745a
s3745f
s37456
s37457
s3745e
s37459
s3745c
s3742d
s3742b
s37428
s3742a
s3742f
s37426
s37427
s3742e
s37429
s3742c
s3740d
s3740b
s37408
s3740a
s3740f
s37406
s37407
s3740e
s37409
s3740c
s3e3
s3e5
s3e2
s3e0
s3e1
s3e4
s3e33
s3e55
s3e22
s3e00
s3e11
s3e44
s3e35
s3e32
s3e30
s3e31
s3e34
s3e52
s3e50
s3e51
s3e54
s3e20
s3e21
s3e24
s3e01
s3e04
s3e14
s3e53
s3e02
s3e41
s3e23
s3e25
s3e03
s3e05
s3e13
s3e15
s3e12
s3e10
s3e43
s3e45
s3e42
s3e40
s3e3d
s3e3b
s3e38
s3e3a
s3e3f
s3e36
s3e37
s3e3e
s3e39
s3e3c
s3e5d
s3e5b
s3e58
s3e5a
s3e5f
s3e56
s3e57
s3e5e
s3e59
s3e5c
s3e2d
s3e2b
s3e28
s3e2a
s3e2f
s3e26
s3e27
s3e2e
s3e29
s3e2c
s3e0d
s3e0b
s3e08
s3e0a
s3e0f
s3e06
s3e07
s3e0e
s3e09
s3e0c
s3e1d
s3e1b
s3e18
s3e1a
s3e1f
s3e16
s3e17
s3e1e
s3e19
s3e1c
s3e4d
s3e4b
s3e48
s3e4a
s3e4f
s3e46
s3e47
s3e4e
s3e49
s3e4c
s3e355
s3e322
s3e300
s3e311
s3e344
s3e333
s3e33d
s3e33b
s3e338
s3e335
s3e332
s3e330
s3e33a
s3e33f
s3e331
s3e336
s3e334
s3e337
s3e33e
s3e339
s3e33c
s3e553
s3e55d
s3e55b
s3e558
s3e555
s3e552
s3e550
s3e55a
s3e55f
s3e551
s3e556
s3e554
s3e557
s3e55e
s3e559
s3e55c
s3e223
s3e22d
s3e22b
s3e228
s3e225
s3e222
s3e220
s3e22a
s3e22f
s3e221
s3e226
s3e224
s3e227
s3e22e
s3e229
s3e22c
s3e003
s3e00d
s3e00b
s3e008
s3e005
s3e002
s3e000
s3e00a
s3e00f
s3e001
s3e006
s3e004
s3e007
s3e00e
s3e009
s3e00c
s3e113
s3e11d
s3e11b
s3e118
s3e115
s3e112
s3e110
s3e11a
s3e11f
s3e111
s3e116
s3e114
s3e117
s3e11e
s3e119
s3e11c
s3e443
s3e44d
s3e44b
s3e448
s3e445
s3e442
s3e440
s3e44a
s3e44f
s3e441
s3e446
s3e444
s3e447
s3e44e
s3e449
s3e44c
s3e353
s3e35d
s3e35b
s3e358
s3e352
s3e350
s3e35a
s3e35f
s3e351
s3e356
s3e354
s3e357
s3e35e
s3e359
s3e35c
s3e323
s3e32d
s3e32b
s3e328
s3e325
s3e320
s3e32a
s3e32f
s3e321
s3e326
s3e324
s3e327
s3e32e
s3e329
s3e32c
s3e303
s3e30d
s3e30b
s3e308
s3e305
s3e302
s3e30a
s3e30f
s3e301
s3e306
s3e304
s3e307
s3e30e
s3e309
s3e30c
s3e313
s3e31d
s3e31b
s3e318
s3e315
s3e312
s3e310
s3e31a
s3e31f
s3e316
s3e314
s3e317
s3e31e
s3e319
s3e31c
s3e343
s3e34d
s3e34b
s3e348
s3e345
s3e342
s3e340
s3e34a
s3e34f
s3e341
s3e346
s3e347
s3e34e
s3e349
s3e34c
s3e533
s3e522
s3e500
s3e511
s3e544
s3e535
s3e532
s3e530
s3e531
s3e534
s3e233
s3e255
s3e200
s3e211
s3e244
s3e235
s3e232
s3e230
s3e231
s3e234
s3e252
s3e250
s3e251
s3e254
s3e253
s3e033
s3e055
s3e022
s3e011
s3e044
s3e035
s3e032
s3e030
s3e031
s3e034
s3e052
s3e050
s3e051
s3e054
s3e020
s3e021
s3e024
s3e053
s3e133
s3e155
s3e122
s3e100
s3e144
s3e135
s3e132
s3e130
s3e131
s3e134
s3e152
s3e150
s3e151
s3e154
s3e120
s3e121
s3e124
s3e101
s3e104
s3e153
s3e102
s3e123
s3e125
s3e103
s3e105
s3e433
s3e455
s3e422
s3e400
s3e411
s3e435
s3e432
s3e430
s3e431
s3e434
s3e452
s3e450
s3e451
s3e454
s3e420
s3e421
s3e424
s3e401
s3e404
s3e414
s3e453
s3e402
s3e423
s3e425
s3e403
s3e405
s3e523
s3e52d
s3e52b
s3e528
s3e525
s3e520
s3e52a
s3e52f
s3e521
s3e526
s3e524
s3e527
s3e52e
s3e529
s3e52c
s3e503
s3e50d
s3e50b
s3e508
s3e505
s3e502
s3e50a
s3e50f
s3e501
s3e506
s3e504
s3e507
s3e50e
s3e509
s3e50c
s3e513
s3e51d
s3e51b
s3e518
s3e515
s3e512
s3e510
s3e51a
s3e51f
s3e516
s3e514
s3e517
s3e51e
s3e519
s3e51c
s3e543
s3e54d
s3e54b
s3e548
s3e545
s3e542
s3e540
s3e54a
s3e54f
s3e541
s3e546
s3e547
s3e54e
s3e549
s3e54c
s3e203
s3e20d
s3e20b
s3e208
s3e205
s3e202
s3e20a
s3e20f
s3e201
s3e206
s3e204
s3e207
s3e20e
s3e209
s3e20c
s3e213
s3e21d
s3e21b
s3e218
s3e215
s3e212
s3e210
s3e21a
s3e21f
s3e216
s3e214
s3e217
s3e21e
s3e219
s3e21c
s3e243
s3e24d
s3e24b
s3e248
s3e245
s3e242
s3e240
s3e24a
s3e24f
s3e241
s3e246
s3e247
s3e24e
s3e249
s3e24c
s3e013
s3e01d
s3e01b
s3e018
s3e015
s3e012
s3e010
s3e01a
s3e01f
s3e016
s3e014
s3e017
s3e01e
s3e019
s3e01c
s3e043
s3e04d
s3e04b
s3e048
s3e045
s3e042
s3e040
s3e04a
s3e04f
s3e041
s3e046
s3e047
s3e04e
s3e049
s3e04c
s3e143
s3e14d
s3e14b
s3e148
s3e145
s3e142
s3e140
s3e14a
s3e14f
s3e141
s3e146
s3e147
s3e14e
s3e149
s3e14c
s3e53d
s3e53b
s3e538
s3e53a
s3e53f
s3e536
s3e537
s3e53e
s3e539
s3e53c
s3e023
s3e02d
s3e02b
s3e028
s3e025
s3e02a
s3e02f
s3e026
s3e027
s3e02e
s3e029
s3e02c
s3e413
s3e41d
s3e41b
s3e418
s3e415
s3e412
s3e410
s3e41a
s3e41f
s3e416
s3e417
s3e41e
s3e419
s3e41c
s3e23d
s3e23b
s3e238
s3e23a
s3e23f
s3e236
s3e237
s3e23e
s3e239
s3e23c
s3e25d
s3e25b
s3e258
s3e25a
s3e25f
s3e256
s3e257
s3e25e
s3e259
s3e25c
s3e03d
s3e03b
s3e038
s3e03a
s3e03f
s3e036
s3e037
s3e03e
s3e039
s3e03c
s3e05d
s3e05b
s3e058
s3e05a
s3e05f
s3e056
s3e057
s3e05e
s3e059
s3e05c
s3e13d
s3e13b
s3e138
s3e13a
s3e13f
s3e136
s3e137
s3e13e
s3e139
s3e13c
s3e15d
s3e15b
s3e158
s3e15a
s3e15f
s3e156
s3e157
s3e15e
s3e159
s3e15c
s3e12d
s3e12b
s3e128
s3e12a
s3e12f
s3e126
s3e127
s3e12e
s3e129
s3e12c
s3e10d
s3e10b
s3e108
s3e10a
s3e10f
s3e106
s3e107
s3e10e
s3e109
s3e10c
s3e43d
s3e43b
s3e438
s3e43a
s3e43f
s3e436
s3e437
s3e43e
s3e439
s3e43c
s3e45d
s3e45b
s3e458
s3e45a
s3e45f
s3e456
s3e457
s3e45e
s3e459
s3e45c
s3e42d
s3e42b
s3e428
s3e42a
s3e42f
s3e426
s3e427
s3e42e
s3e429
s3e42c
s3e40d
s3e40b
s3e408
s3e40a
s3e40f
s3e406
s3e407
s3e40e
s3e409
s3e40c
s393
s395
s392
s390
s391
s394
s3933
s3955
s3922
s3900
s3911
s3944
s3935
s3932
s3930
s3931
s3934
s3952
s3950
s3951
s3954
s3920
s3921
s3924
s3901
s3904
s3914
s3953
s3902
s3941
s3923
s3925
s3903
s3905
s3913
s3915
s3912
s3910
s3943
s3945
s3942
s3940
s393d
s393b
s3938
s393a
s393f
s3936
s3937
s393e
s3939
s393c
s395d
s395b
s3958
s395a
s395f
s3956
s3957
s395e
s3959
s395c
s392d
s392b
s3928
s392a
s392f
s3926
s3927
s392e
s3929
s392c
s390d
s390b
s3908
s390a
s390f
s3906
s3907
s390e
s3909
s390c
s391d
s391b
s3918
s391a
s391f
s3916
s3917
s391e
s3919
s391c
s394d
s394b
s3948
s394a
s394f
s3946
s3947
s394e
s3949
s394c
s39355
s39322
s39300
s39311
s39344
s39333
s3933d
s3933b
s39338
s39335
s39332
s39330
s3933a
s3933f
s39331
s39336
s39334
s39337
s3933e
s39339
s3933c
s39553
s3955d
s3955b
s39558
s39555
s39552
s39550
s3955a
s3955f
s39551
s39556
s39554
s39557
s3955e
s39559
s3955c
s39223
s3922d
s3922b
s39228
s39225
s39222
s39220
s3922a
s3922f
s39221
s39226
s39224
s39227
s3922e
s39229
s3922c
s39003
s3900d
s3900b
s39008
s39005
s39002
s39000
s3900a
s3900f
s39001
s39006
s39004
s39007
s3900e
s39009
s3900c
s39113
s3911d
s3911b
s39118
s39115
s39112
s39110
s3911a
s3911f
s39111
s39116
s39114
s39117
s3911e
s39119
s3911c
s39443
s3944d
s3944b
s39448
s39445
s39442
s39440
s3944a
s3944f
s39441
s39446
s39444
s39447
s3944e
s39449
s3944c
s39353
s3935d
s3935b
s39358
s39352
s39350
s3935a
s3935f
s39351
s39356
s39354
s39357
s3935e
s39359
s3935c
s39323
s3932d
s3932b
s39328
s39325
s39320
s3932a
s3932f
s39321
s39326
s39324
s39327
s3932e
s39329
s3932c
s39303
s3930d
s3930b
s39308
s39305
s39302
s3930a
s3930f
s39301
s39306
s39304
s39307
s3930e
s39309
s3930c
s39313
s3931d
s3931b
s39318
s39315
s39312
s39310
s3931a
s3931f
s39316
s39314
s39317
s3931e
s39319
s3931c
s39343
s3934d
s3934b
s39348
s39345
s39342
s39340
s3934a
s3934f
s39341
s39346
s39347
s3934e
s39349
s3934c
s39533
s39522
s39500
s39511
s39544
s39535
s39532
s39530
s39531
s39534
s39233
s39255
s39200
s39211
s39244
s39235
s39232
s39230
s39231
s39234
s39252
s39250
s39251
s39254
s39253
s39033
s39055
s39022
s39011
s39044
s39035
s39032
s39030
s39031
s39034
s39052
s39050
s39051
s39054
s39020
s39021
s39024
s39053
s39133
s39155
s39122
s39100
s39144
s39135
s39132
s39130
s39131
s39134
s39152
s39150
s39151
s39154
s39120
s39121
s39124
s39101
s39104
s39153
s39102
s39123
s39125
s39103
s39105
s39433
s39455
s39422
s39400
s39411
s39435
s39432
s39430
s39431
s39434
s39452
s39450
s39451
s39454
s39420
s39421
s39424
s39401
s39404
s39414
s39453
s39402
s39423
s39425
s39403
s39405
s39523
s3952d
s3952b
s39528
s39525
s39520
s3952a
s3952f
s39521
s39526
s39524
s39527
s3952e
s39529
s3952c
s39503
s3950d
s3950b
s39508
s39505
s39502
s3950a
s3950f
s39501
s39506
s39504
s39507
s3950e
s39509
s3950c
s39513
s3951d
s3951b
s39518
s39515
s39512
s39510
s3951a
s3951f
s39516
s39514
s39517
s3951e
s39519
s3951c
s39543
s3954d
s3954b
s39548
s39545
s39542
s39540
s3954a
s3954f
s39541
s39546
s39547
s3954e
s39549
s3954c
s39203
s3920d
s3920b
s39208
s39205
s39202
s3920a
s3920f
s39201
s39206
s39204
s39207
s3920e
s39209
s3920c
s39213
s3921d
s3921b
s39218
s39215
s39212
s39210
s3921a
s3921f
s39216
s39214
s39217
s3921e
s39219
s3921c
s39243
s3924d
s3924b
s39248
s39245
s39242
s39240
s3924a
s3924f
s39241
s39246
s39247
s3924e
s39249
s3924c
s39013
s3901d
s3901b
s39018
s39015
s39012
s39010
s3901a
s3901f
s39016
s39014
s39017
s3901e
s39019
s3901c
s39043
s3904d
s3904b
s39048
s39045
s39042
s39040
s3904a
s3904f
s39041
s39046
s39047
s3904e
s39049
s3904c
s39143
s3914d
s3914b
s39148
s39145
s39142
s39140
s3914a
s3914f
s39141
s39146
s39147
s3914e
s39149
s3914c
s3953d
s3953b
s39538
s3953a
s3953f
s39536
s39537
s3953e
s39539
s3953c
s39023
s3902d
s3902b
s39028
s39025
s3902a
s3902f
s39026
s39027
s3902e
s39029
s3902c
s39413
s3941d
s3941b
s39418
s39415
s39412
s39410
s3941a
s3941f
s39416
s39417
s3941e
s39419
s3941c
s3923d
s3923b
s39238
s3923a
s3923f
s39236
s39237
s3923e
s39239
s3923c
s3925d
s3925b
s39258
s3925a
s3925f
s39256
s39257
s3925e
s39259
s3925c
s3903d
s3903b
s39038
s3903a
s3903f
s39036
s39037
s3903e
s39039
s3903c
s3905d
s3905b
s39058
s3905a
s3905f
s39056
s39057
s3905e
s39059
s3905c
s3913d
s3913b
s39138
s3913a
s3913f
s39136
s39137
s3913e
s39139
s3913c
s3915d
s3915b
s39158
s3915a
s3915f
s39156
s39157
s3915e
s39159
s3915c
s3912d
s3912b
s39128
s3912a
s3912f
s39126
s39127
s3912e
s39129
s3912c
s3910d
s3910b
s39108
s3910a
s3910f
s39106
s39107
s3910e
s39109
s3910c
s3943d
s3943b
s39438
s3943a
s3943f
s39436
s39437
s3943e
s39439
s3943c
s3945d
s3945b
s39458
s3945a
s3945f
s39456
s39457
s3945e
s39459
s3945c
s3942d
s3942b
s39428
s3942a
s3942f
s39426
s39427
s3942e
s39429
s3942c
s3940d
s3940b
s39408
s3940a
s3940f
s39406
s39407
s3940e
s39409
s3940c
s3c3
s3c5
s3c2
s3c0
s3c1
s3c4
s3c33
s3c55
s3c22
s3c00
s3c11
s3c44
s3c35
s3c32
s3c30
s3c31
s3c34
s3c52
s3c50
s3c51
s3c54
s3c20
s3c21
s3c24
s3c01
s3c04
s3c14
s3c53
s3c02
s3c41
s3c23
s3c25
s3c03
s3c05
s3c13
s3c15
s3c12
s3c10
s3c43
s3c45
s3c42
s3c40
s3c3d
s3c3b
s3c38
s3c3a
s3c3f
s3c36
s3c37
s3c3e
s3c39
s3c3c
s3c5d
s3c5b
s3c58
s3c5a
s3c5f
s3c56
s3c57
s3c5e
s3c59
s3c5c
s3c2d
s3c2b
s3c28
s3c2a
s3c2f
s3c26
s3c27
s3c2e
s3c29
s3c2c
s3c0d
s3c0b
s3c08
s3c0a
s3c0f
s3c06
s3c07
s3c0e
s3c09
s3c0c
s3c1d
s3c1b
s3c18
s3c1a
s3c1f
s3c16
s3c17
s3c1e
s3c19
s3c1c
s3c4d
s3c4b
s3c48
s3c4a
s3c4f
s3c46
s3c47
s3c4e
s3c49
s3c4c
s3c355
s3c322
s3c300
s3c311
s3c344
s3c333
s3c33d
s3c33b
s3c338
s3c335
s3c332
s3c330
s3c33a
s3c33f
s3c331
s3c336
s3c334
s3c337
s3c33e
s3c339
s3c33c
s3c553
s3c55d
s3c55b
s3c558
s3c555
s3c552
s3c550
s3c55a
s3c55f
s3c551
s3c556
s3c554
s3c557
s3c55e
s3c559
s3c55c
s3c223
s3c22d
s3c22b
s3c228
s3c225
s3c222
s3c220
s3c22a
s3c22f
s3c221
s3c226
s3c224
s3c227
s3c22e
s3c229
s3c22c
s3c003
s3c00d
s3c00b
s3c008
s3c005
s3c002
s3c000
s3c00a
s3c00f
s3c001
s3c006
s3c004
s3c007
s3c00e
s3c009
s3c00c
s3c113
s3c11d
s3c11b
s3c118
s3c115
s3c112
s3c110
s3c11a
s3c11f
s3c111
s3c116
s3c114
s3c117
s3c11e
s3c119
s3c11c
s3c443
s3c44d
s3c44b
s3c448
s3c445
s3c442
s3c440
s3c44a
s3c44f
s3c441
s3c446
s3c444
s3c447
s3c44e
s3c449
s3c44c
s3c353
s3c35d
s3c35b
s3c358
s3c352
s3c350
s3c35a
s3c35f
s3c351
s3c356
s3c354
s3c357
s3c35e
s3c359
s3c35c
s3c323
s3c32d
s3c32b
s3c328
s3c325
s3c320
s3c32a
s3c32f
s3c321
s3c326
s3c324
s3c327
s3c32e
s3c329
s3c32c
s3c303
s3c30d
s3c30b
s3c308
s3c305
s3c302
s3c30a
s3c30f
s3c301
s3c306
s3c304
s3c307
s3c30e
s3c309
s3c30c
s3c313
s3c31d
s3c31b
s3c318
s3c315
s3c312
s3c310
s3c31a
s3c31f
s3c316
s3c314
s3c317
s3c31e
s3c319
s3c31c
s3c343
s3c34d
s3c34b
s3c348
s3c345
s3c342
s3c340
s3c34a
s3c34f
s3c341
s3c346
s3c347
s3c34e
s3c349
s3c34c
s3c533
s3c522
s3c500
s3c511
s3c544
s3c535
s3c532
s3c530
s3c531
s3c534
s3c233
s3c255
s3c200
s3c211
s3c244
s3c235
s3c232
s3c230
s3c231
s3c234
s3c252
s3c250
s3c251
s3c254
s3c253
s3c033
s3c055
s3c022
s3c011
s3c044
s3c035
s3c032
s3c030
s3c031
s3c034
s3c052
s3c050
s3c051
s3c054
s3c020
s3c021
s3c024
s3c053
s3c133
s3c155
s3c122
s3c100
s3c144
s3c135
s3c132
s3c130
s3c131
s3c134
s3c152
s3c150
s3c151
s3c154
s3c120
s3c121
s3c124
s3c101
s3c104
s3c153
s3c102
s3c123
s3c125
s3c103
s3c105
s3c433
s3c455
s3c422
s3c400
s3c411
s3c435
s3c432
s3c430
s3c431
s3c434
s3c452
s3c450
s3c451
s3c454
s3c420
s3c421
s3c424
s3c401
s3c404
s3c414
s3c453
s3c402
s3c423
s3c425
s3c403
s3c405
s3c523
s3c52d
s3c52b
s3c528
s3c525
s3c520
s3c52a
s3c52f
s3c521
s3c526
s3c524
s3c527
s3c52e
s3c529
s3c52c
s3c503
s3c50d
s3c50b
s3c508
s3c505
s3c502
s3c50a
s3c50f
s3c501
s3c506
s3c504
s3c507
s3c50e
s3c509
s3c50c
s3c513
s3c51d
s3c51b
s3c518
s3c515
s3c512
s3c510
s3c51a
s3c51f
s3c516
s3c514
s3c517
s3c51e
s3c519
s3c51c
s3c543
s3c54d
s3c54b
s3c548
s3c545
s3c542
s3c540
s3c54a
s3c54f
s3c541
s3c546
s3c547
s3c54e
s3c549
s3c54c
s3c203
s3c20d
s3c20b
s3c208
s3c205
s3c202
s3c20a
s3c20f
s3c201
s3c206
s3c204
s3c207
s3c20e
s3c209
s3c20c
s3c213
s3c21d
s3c21b
s3c218
s3c215
s3c212
s3c210
s3c21a
s3c21f
s3c216
s3c214
s3c217
s3c21e
s3c219
s3c21c
s3c243
s3c24d
s3c24b
s3c248
s3c245
s3c242
s3c240
s3c24a
s3c24f
s3c241
s3c246
s3c247
s3c24e
s3c249
s3c24c
s3c013
s3c01d
s3c01b
s3c018
s3c015
s3c012
s3c010
s3c01a
s3c01f
s3c016
s3c014
s3c017
s3c01e
s3c019
s3c01c
s3c043
s3c04d
s3c04b
s3c048
s3c045
s3c042
s3c040
s3c04a
s3c04f
s3c041
s3c046
s3c047
s3c04e
s3c049
s3c04c
s3c143
s3c14d
s3c14b
s3c148
s3c145
s3c142
s3c140
s3c14a
s3c14f
s3c141
s3c146
s3c147
s3c14e
s3c149
s3c14c
s3c53d
s3c53b
s3c538
s3c53a
s3c53f
s3c536
s3c537
s3c53e
s3c539
s3c53c
s3c023
s3c02d
s3c02b
s3c028
s3c025
s3c02a
s3c02f
s3c026
s3c027
s3c02e
s3c029
s3c02c
s3c413
s3c41d
s3c41b
s3c418
s3c415
s3c412
s3c410
s3c41a
s3c41f
s3c416
s3c417
s3c41e
s3c419
s3c41c
s3c23d
s3c23b
s3c238
s3c23a
s3c23f
s3c236
s3c237
s3c23e
s3c239
s3c23c
s3c25d
s3c25b
s3c258
s3c25a
s3c25f
s3c256
s3c257
s3c25e
s3c259
s3c25c
s3c03d
s3c03b
s3c038
s3c03a
s3c03f
s3c036
s3c037
s3c03e
s3c039
s3c03c
s3c05d
s3c05b
s3c058
s3c05a
s3c05f
s3c056
s3c057
s3c05e
s3c059
s3c05c
s3c13d
s3c13b
s3c138
s3c13a
s3c13f
s3c136
s3c137
s3c13e
s3c139
s3c13c
s3c15d
s3c15b
s3c158
s3c15a
s3c15f
s3c156
s3c157
s3c15e
s3c159
s3c15c
s3c12d
s3c12b
s3c128
s3c12a
s3c12f
s3c126
s3c127
s3c12e
s3c129
s3c12c
s3c10d
s3c10b
s3c108
s3c10a
s3c10f
s3c106
s3c107
s3c10e
s3c109
s3c10c
s3c43d
s3c43b
s3c438
s3c43a
s3c43f
s3c436
s3c437
s3c43e
s3c439
s3c43c
s3c45d
s3c45b
s3c458
s3c45a
s3c45f
s3c456
s3c457
s3c45e
s3c459
s3c45c
s3c42d
s3c42b
s3c428
s3c42a
s3c42f
s3c426
s3c427
s3c42e
s3c429
s3c42c
s3c40d
s3c40b
s3c408
s3c40a
s3c40f
s3c406
s3c407
s3c40e
s3c409
s3c40c
s2d3
s2d5
s2d2
s2d0
s2d1
s2d4
s2d33
s2d55
s2d22
s2d00
s2d11
s2d44
s2d35
s2d32
s2d30
s2d31
s2d34
s2d52
s2d50
s2d51
s2d54
s2d20
s2d21
s2d24
s2d01
s2d04
s2d14
s2d53
s2d02
s2d41
s2d23
s2d25
s2d03
s2d05
s2d13
s2d15
s2d12
s2d10
s2d43
s2d45
s2d42
s2d40
s2d3d
s2d3b
s2d38
s2d3a
s2d3f
s2d36
s2d37
s2d3e
s2d39
s2d3c
s2d5d
s2d5b
s2d58
s2d5a
s2d5f
s2d56
s2d57
s2d5e
s2d59
s2d5c
s2d2d
s2d2b
s2d28
s2d2a
s2d2f
s2d26
s2d27
s2d2e
s2d29
s2d2c
s2d0d
s2d0b
s2d08
s2d0a
s2d0f
s2d06
s2d07
s2d0e
s2d09
s2d0c
s2d1d
s2d1b
s2d18
s2d1a
s2d1f
s2d16
s2d17
s2d1e
s2d19
s2d1c
s2d4d
s2d4b
s2d48
s2d4a
s2d4f
s2d46
s2d47
s2d4e
s2d49
s2d4c
s2d355
s2d322
s2d300
s2d311
s2d344
s2d333
s2d33d
s2d33b
s2d338
s2d335
s2d332
s2d330
s2d33a
s2d33f
s2d331
s2d336
s2d334
s2d337
s2d33e
s2d339
s2d33c
s2d553
s2d55d
s2d55b
s2d558
s2d555
s2d552
s2d550
s2d55a
s2d55f
s2d551
s2d556
s2d554
s2d557
s2d55e
s2d559
s2d55c
s2d223
s2d22d
s2d22b
s2d228
s2d225
s2d222
s2d220
s2d22a
s2d22f
s2d221
s2d226
s2d224
s2d227
s2d22e
s2d229
s2d22c
s2d003
s2d00d
s2d00b
s2d008
s2d005
s2d002
s2d000
s2d00a
s2d00f
s2d001
s2d006
s2d004
s2d007
s2d00e
s2d009
s2d00c
s2d113
s2d11d
s2d11b
s2d118
s2d115
s2d112
s2d110
s2d11a
s2d11f
s2d111
s2d116
s2d114
s2d117
s2d11e
s2d119
s2d11c
s2d443
s2d44d
s2d44b
s2d448
s2d445
s2d442
s2d440
s2d44a
s2d44f
s2d441
s2d446
s2d444
s2d447
s2d44e
s2d449
s2d44c
s2d353
s2d35d
s2d35b
s2d358
s2d352
s2d350
s2d35a
s2d35f
s2d351
s2d356
s2d354
s2d357
s2d35e
s2d359
s2d35c
s2d323
s2d32d
s2d32b
s2d328
s2d325
s2d320
s2d32a
s2d32f
s2d321
s2d326
s2d324
s2d327
s2d32e
s2d329
s2d32c
s2d303
s2d30d
s2d30b
s2d308
s2d305
s2d302
s2d30a
s2d30f
s2d301
s2d306
s2d304
s2d307
s2d30e
s2d309
s2d30c
s2d313
s2d31d
s2d31b
s2d318
s2d315
s2d312
s2d310
s2d31a
s2d31f
s2d316
s2d314
s2d317
s2d31e
s2d319
s2d31c
s2d343
s2d34d
s2d34b
s2d348
s2d345
s2d342
s2d340
s2d34a
s2d34f
s2d341
s2d346
s2d347
s2d34e
s2d349
s2d34c
s2d533
s2d522
s2d500
s2d511
s2d544
s2d535
s2d532
s2d530
s2d531
s2d534
s2d233
s2d255
s2d200
s2d211
s2d244
s2d235
s2d232
s2d230
s2d231
s2d234
s2d252
s2d250
s2d251
s2d254
s2d253
s2d033
s2d055
s2d022
s2d011
s2d044
s2d035
s2d032
s2d030
s2d031
s2d034
s2d052
s2d050
s2d051
s2d054
s2d020
s2d021
s2d024
s2d053
s2d133
s2d155
s2d122
s2d100
s2d144
s2d135
s2d132
s2d130
s2d131
s2d134
s2d152
s2d150
s2d151
s2d154
s2d120
s2d121
s2d124
s2d101
s2d104
s2d153
s2d102
s2d123
s2d125
s2d103
s2d105
s2d433
s2d455
s2d422
s2d400
s2d411
s2d435
s2d432
s2d430
s2d431
s2d434
s2d452
s2d450
s2d451
s2d454
s2d420
s2d421
s2d424
s2d401
s2d404
s2d414
s2d453
s2d402
s2d423
s2d425
s2d403
s2d405
s2d523
s2d52d
s2d52b
s2d528
s2d525
s2d520
s2d52a
s2d52f
s2d521
s2d526
s2d524
s2d527
s2d52e
s2d529
s2d52c
s2d503
s2d50d
s2d50b
s2d508
s2d505
s2d502
s2d50a
s2d50f
s2d501
s2d506
s2d504
s2d507
s2d50e
s2d509
s2d50c
s2d513
s2d51d
s2d51b
s2d518
s2d515
s2d512
s2d510
s2d51a
s2d51f
s2d516
s2d514
s2d517
s2d51e
s2d519
s2d51c
s2d543
s2d54d
s2d54b
s2d548
s2d545
s2d542
s2d540
s2d54a
s2d54f
s2d541
s2d546
s2d547
s2d54e
s2d549
s2d54c
s2d203
s2d20d
s2d20b
s2d208
s2d205
s2d202
s2d20a
s2d20f
s2d201
s2d206
s2d204
s2d207
s2d20e
s2d209
s2d20c
s2d213
s2d21d
s2d21b
s2d218
s2d215
s2d212
s2d210
s2d21a
s2d21f
s2d216
s2d214
s2d217
s2d21e
s2d219
s2d21c
s2d243
s2d24d
s2d24b
s2d248
s2d245
s2d242
s2d240
s2d24a
s2d24f
s2d241
s2d246
s2d247
s2d24e
s2d249
s2d24c
s2d013
s2d01d
s2d01b
s2d018
s2d015
s2d012
s2d010
s2d01a
s2d01f
s2d016
s2d014
s2d017
s2d01e
s2d019
s2d01c
s2d043
s2d04d
s2d04b
s2d048
s2d045
s2d042
s2d040
s2d04a
s2d04f
s2d041
s2d046
s2d047
s2d04e
s2d049
s2d04c
s2d143
s2d14d
s2d14b
s2d148
s2d145
s2d142
s2d140
s2d14a
s2d14f
s2d141
s2d146
s2d147
s2d14e
s2d149
s2d14c
s2d53d
s2d53b
s2d538
s2d53a
s2d53f
s2d536
s2d537
s2d53e
s2d539
s2d53c
s2d023
s2d02d
s2d02b
s2d028
s2d025
s2d02a
s2d02f
s2d026
s2d027
s2d02e
s2d029
s2d02c
s2d413
s2d41d
s2d41b
s2d418
s2d415
s2d412
s2d410
s2d41a
s2d41f
s2d416
s2d417
s2d41e
s2d419
s2d41c
s2d23d
s2d23b
s2d238
s2d23a
s2d23f
s2d236
s2d237
s2d23e
s2d239
s2d23c
s2d25d
s2d25b
s2d258
s2d25a
s2d25f
s2d256
s2d257
s2d25e
s2d259
s2d25c
s2d03d
s2d03b
s2d038
s2d03a
s2d03f
s2d036
s2d037
s2d03e
s2d039
s2d03c
s2d05d
s2d05b
s2d058
s2d05a
s2d05f
s2d056
s2d057
s2d05e
s2d059
s2d05c
s2d13d
s2d13b
s2d138
s2d13a
s2d13f
s2d136
s2d137
s2d13e
s2d139
s2d13c
s2d15d
s2d15b
s2d158
s2d15a
s2d15f
s2d156
s2d157
s2d15e
s2d159
s2d15c
s2d12d
s2d12b
s2d128
s2d12a
s2d12f
s2d126
s2d127
s2d12e
s2d129
s2d12c
s2d10d
s2d10b
s2d108
s2d10a
s2d10f
s2d106
s2d107
s2d10e
s2d109
s2d10c
s2d43d
s2d43b
s2d438
s2d43a
s2d43f
s2d436
s2d437
s2d43e
s2d439
s2d43c
s2d45d
s2d45b
s2d458
s2d45a
s2d45f
s2d456
s2d457
s2d45e
s2d459
s2d45c
s2d42d
s2d42b
s2d428
s2d42a
s2d42f
s2d426
s2d427
s2d42e
s2d429
s2d42c
s2d40d
s2d40b
s2d408
s2d40a
s2d40f
s2d406
s2d407
s2d40e
s2d409
s2d40c
s2b3
s2b5
s2b2
s2b0
s2b1
s2b4
s2b33
s2b55
s2b22
s2b00
s2b11
s2b44
s2b35
s2b32
s2b30
s2b31
s2b34
s2b52
s2b50
s2b51
s2b54
s2b20
s2b21
s2b24
s2b01
s2b04
s2b14
s2b53
s2b02
s2b41
s2b23
s2b25
s2b03
s2b05
s2b13
s2b15
s2b12
s2b10
s2b43
s2b45
s2b42
s2b40
s2b3d
s2b3b
s2b38
s2b3a
s2b3f
s2b36
s2b37
s2b3e
s2b39
s2b3c
s2b5d
s2b5b
s2b58
s2b5a
s2b5f
s2b56
s2b57
s2b5e
s2b59
s2b5c
s2b2d
s2b2b
s2b28
s2b2a
s2b2f
s2b26
s2b27
s2b2e
s2b29
s2b2c
s2b0d
s2b0b
s2b08
s2b0a
s2b0f
s2b06
s2b07
s2b0e
s2b09
s2b0c
s2b1d
s2b1b
s2b18
s2b1a
s2b1f
s2b16
s2b17
s2b1e
s2b19
s2b1c
s2b4d
s2b4b
s2b48
s2b4a
s2b4f
s2b46
s2b47
s2b4e
s2b49
s2b4c
s2b355
s2b322
s2b300
s2b311
s2b344
s2b333
s2b33d
s2b33b
s2b338
s2b335
s2b332
s2b330
s2b33a
s2b33f
s2b331
s2b336
s2b334
s2b337
s2b33e
s2b339
s2b33c
s2b553
s2b55d
s2b55b
s2b558
s2b555
s2b552
s2b550
s2b55a
s2b55f
s2b551
s2b556
s2b554
s2b557
s2b55e
s2b559
s2b55c
s2b223
s2b22d
s2b22b
s2b228
s2b225
s2b222
s2b220
s2b22a
s2b22f
s2b221
s2b226
s2b224
s2b227
s2b22e
s2b229
s2b22c
s2b003
s2b00d
s2b00b
s2b008
s2b005
s2b002
s2b000
s2b00a
s2b00f
s2b001
s2b006
s2b004
s2b007
s2b00e
s2b009
s2b00c
s2b113
s2b11d
s2b11b
s2b118
s2b115
s2b112
s2b110
s2b11a
s2b11f
s2b111
s2b116
s2b114
s2b117
s2b11e
s2b119
s2b11c
s2b443
s2b44d
s2b44b
s2b448
s2b445
s2b442
s2b440
s2b44a
s2b44f
s2b441
s2b446
s2b444
s2b447
s2b44e
s2b449
s2b44c
s2b353
s2b35d
s2b35b
s2b358
s2b352
s2b350
s2b35a
s2b35f
s2b351
s2b356
s2b354
s2b357
s2b35e
s2b359
s2b35c
s2b323
s2b32d
s2b32b
s2b328
s2b325
s2b320
s2b32a
s2b32f
s2b321
s2b326
s2b324
s2b327
s2b32e
s2b329
s2b32c
s2b303
s2b30d
s2b30b
s2b308
s2b305
s2b302
s2b30a
s2b30f
s2b301
s2b306
s2b304
s2b307
s2b30e
s2b309
s2b30c
s2b313
s2b31d
s2b31b
s2b318
s2b315
s2b312
s2b310
s2b31a
s2b31f
s2b316
s2b314
s2b317
s2b31e
s2b319
s2b31c
s2b343
s2b34d
s2b34b
s2b348
s2b345
s2b342
s2b340
s2b34a
s2b34f
s2b341
s2b346
s2b347
s2b34e
s2b349
s2b34c
s2b533
s2b522
s2b500
s2b511
s2b544
s2b535
s2b532
s2b530
s2b531
s2b534
s2b233
s2b255
s2b200
s2b211
s2b244
s2b235
s2b232
s2b230
s2b231
s2b234
s2b252
s2b250
s2b251
s2b254
s2b253
s2b033
s2b055
s2b022
s2b011
s2b044
s2b035
s2b032
s2b030
s2b031
s2b034
s2b052
s2b050
s2b051
s2b054
s2b020
s2b021
s2b024
s2b053
s2b133
s2b155
s2b122
s2b100
s2b144
s2b135
s2b132
s2b130
s2b131
s2b134
s2b152
s2b150
s2b151
s2b154
s2b120
s2b121
s2b124
s2b101
s2b104
s2b153
s2b102
s2b123
s2b125
s2b103
s2b105
s2b433
s2b455
s2b422
s2b400
s2b411
s2b435
s2b432
s2b430
s2b431
s2b434
s2b452
s2b450
s2b451
s2b454
s2b420
s2b421
s2b424
s2b401
s2b404
s2b414
s2b453
s2b402
s2b423
s2b425
s2b403
s2b405
s2b523
s2b52d
s2b52b
s2b528
s2b525
s2b520
s2b52a
s2b52f
s2b521
s2b526
s2b524
s2b527
s2b52e
s2b529
s2b52c
s2b503
s2b50d
s2b50b
s2b508
s2b505
s2b502
s2b50a
s2b50f
s2b501
s2b506
s2b504
s2b507
s2b50e
s2b509
s2b50c
s2b513
s2b51d
s2b51b
s2b518
s2b515
s2b512
s2b510
s2b51a
s2b51f
s2b516
s2b514
s2b517
s2b51e
s2b519
s2b51c
s2b543
s2b54d
s2b54b
s2b548
s2b545
s2b542
s2b540
s2b54a
s2b54f
s2b541
s2b546
s2b547
s2b54e
s2b549
s2b54c
s2b203
s2b20d
s2b20b
s2b208
s2b205
s2b202
s2b20a
s2b20f
s2b201
s2b206
s2b204
s2b207
s2b20e
s2b209
s2b20c
s2b213
s2b21d
s2b21b
s2b218
s2b215
s2b212
s2b210
s2b21a
s2b21f
s2b216
s2b214
s2b217
s2b21e
s2b219
s2b21c
s2b243
s2b24d
s2b24b
s2b248
s2b245
s2b242
s2b240
s2b24a
s2b24f
s2b241
s2b246
s2b247
s2b24e
s2b249
s2b24c
s2b013
s2b01d
s2b01b
s2b018
s2b015
s2b012
s2b010
s2b01a
s2b01f
s2b016
s2b014
s2b017
s2b01e
s2b019
s2b01c
s2b043
s2b04d
s2b04b
s2b048
s2b045
s2b042
s2b040
s2b04a
s2b04f
s2b041
s2b046
s2b047
s2b04e
s2b049
s2b04c
s2b143
s2b14d
s2b14b
s2b148
s2b145
s2b142
s2b140
s2b14a
s2b14f
s2b141
s2b146
s2b147
s2b14e
s2b149
s2b14c
s2b53d
s2b53b
s2b538
s2b53a
s2b53f
s2b536
s2b537
s2b53e
s2b539
s2b53c
s2b023
s2b02d
s2b02b
s2b028
s2b025
s2b02a
s2b02f
s2b026
s2b027
s2b02e
s2b029
s2b02c
s2b413
s2b41d
s2b41b
s2b418
s2b415
s2b412
s2b410
s2b41a
s2b41f
s2b416
s2b417
s2b41e
s2b419
s2b41c
s2b23d
s2b23b
s2b238
s2b23a
s2b23f
s2b236
s2b237
s2b23e
s2b239
s2b23c
s2b25d
s2b25b
s2b258
s2b25a
s2b25f
s2b256
s2b257
s2b25e
s2b259
s2b25c
s2b03d
s2b03b
s2b038
s2b03a
s2b03f
s2b036
s2b037
s2b03e
s2b039
s2b03c
s2b05d
s2b05b
s2b058
s2b05a
s2b05f
s2b056
s2b057
s2b05e
s2b059
s2b05c
s2b13d
s2b13b
s2b138
s2b13a
s2b13f
s2b136
s2b137
s2b13e
s2b139
s2b13c
s2b15d
s2b15b
s2b158
s2b15a
s2b15f
s2b156
s2b157
s2b15e
s2b159
s2b15c
s2b12d
s2b12b
s2b128
s2b12a
s2b12f
s2b126
s2b127
s2b12e
s2b129
s2b12c
s2b10d
s2b10b
s2b108
s2b10a
s2b10f
s2b106
s2b107
s2b10e
s2b109
s2b10c
s2b43d
s2b43b
s2b438
s2b43a
s2b43f
s2b436
s2b437
s2b43e
s2b439
s2b43c
s2b45d
s2b45b
s2b458
s2b45a
s2b45f
s2b456
s2b457
s2b45e
s2b459
s2b45c
s2b42d
s2b42b
s2b428
s2b42a
s2b42f
s2b426
s2b427
s2b42e
s2b429
s2b42c
s2b40d
s2b40b
s2b408
s2b40a
s2b40f
s2b406
s2b407
s2b40e
s2b409
s2b40c
s283
s285
s282
s280
s281
s284
s2833
s2855
s2822
s2800
s2811
s2844
s2835
s2832
s2830
s2831
s2834
s2852
s2850
s2851
s2854
s2820
s2821
s2824
s2801
s2804
s2814
s2853
s2802
s2841
s2823
s2825
s2803
s2805
s2813
s2815
s2812
s2810
s2843
s2845
s2842
s2840
s283d
s283b
s2838
s283a
s283f
s2836
s2837
s283e
s2839
s283c
s285d
s285b
s2858
s285a
s285f
s2856
s2857
s285e
s2859
s285c
s282d
s282b
s2828
s282a
s282f
s2826
s2827
s282e
s2829
s282c
s280d
s280b
s2808
s280a
s280f
s2806
s2807
s280e
s2809
s280c
s281d
s281b
s2818
s281a
s281f
s2816
s2817
s281e
s2819
s281c
s284d
s284b
s2848
s284a
s284f
s2846
s2847
s284e
s2849
s284c
s28355
s28322
s28300
s28311
s28344
s28333
s2833d
s2833b
s28338
s28335
s28332
s28330
s2833a
s2833f
s28331
s28336
s28334
s28337
s2833e
s28339
s2833c
s28553
s2855d
s2855b
s28558
s28555
s28552
s28550
s2855a
s2855f
s28551
s28556
s28554
s28557
s2855e
s28559
s2855c
s28223
s2822d
s2822b
s28228
s28225
s28222
s28220
s2822a
s2822f
s28221
s28226
s28224
s28227
s2822e
s28229
s2822c
s28003
s2800d
s2800b
s28008
s28005
s28002
s28000
s2800a
s2800f
s28001
s28006
s28004
s28007
s2800e
s28009
s2800c
s28113
s2811d
s2811b
s28118
s28115
s28112
s28110
s2811a
s2811f
s28111
s28116
s28114
s28117
s2811e
s28119
s2811c
s28443
s2844d
s2844b
s28448
s28445
s28442
s28440
s2844a
s2844f
s28441
s28446
s28444
s28447
s2844e
s28449
s2844c
s28353
s2835d
s2835b
s28358
s28352
s28350
s2835a
s2835f
s28351
s28356
s28354
s28357
s2835e
s28359
s2835c
s28323
s2832d
s2832b
s28328
s28325
s28320
s2832a
s2832f
s28321
s28326
s28324
s28327
s2832e
s28329
s2832c
s28303
s2830d
s2830b
s28308
s28305
s28302
s2830a
s2830f
s28301
s28306
s28304
s28307
s2830e
s28309
s2830c
s28313
s2831d
s2831b
s28318
s28315
s28312
s28310
s2831a
s2831f
s28316
s28314
s28317
s2831e
s28319
s2831c
s28343
s2834d
s2834b
s28348
s28345
s28342
s28340
s2834a
s2834f
s28341
s28346
s28347
s2834e
s28349
s2834c
s28533
s28522
s28500
s28511
s28544
s28535
s28532
s28530
s28531
s28534
s28233
s28255
s28200
s28211
s28244
s28235
s28232
s28230
s28231
s28234
s28252
s28250
s28251
s28254
s28253
s28033
s28055
s28022
s28011
s28044
s28035
s28032
s28030
s28031
s28034
s28052
s28050
s28051
s28054
s28020
s28021
s28024
s28053
s28133
s28155
s28122
s28100
s28144
s28135
s28132
s28130
s28131
s28134
s28152
s28150
s28151
s28154
s28120
s28121
s28124
s28101
s28104
s28153
s28102
s28123
s28125
s28103
s28105
s28433
s28455
s28422
s28400
s28411
s28435
s28432
s28430
s28431
s28434
s28452
s28450
s28451
s28454
s28420
s28421
s28424
s28401
s28404
s28414
s28453
s28402
s28423
s28425
s28403
s28405
s28523
s2852d
s2852b
s28528
s28525
s28520
s2852a
s2852f
s28521
s28526
s28524
s28527
s2852e
s28529
s2852c
s28503
s2850d
s2850b
s28508
s28505
s28502
s2850a
s2850f
s28501
s28506
s28504
s28507
s2850e
s28509
s2850c
s28513
s2851d
s2851b
s28518
s28515
s28512
s28510
s2851a
s2851f
s28516
s28514
s28517
s2851e
s28519
s2851c
s28543
s2854d
s2854b
s28548
s28545
s28542
s28540
s2854a
s2854f
s28541
s28546
s28547
s2854e
s28549
s2854c
s28203
s2820d
s2820b
s28208
s28205
s28202
s2820a
s2820f
s28201
s28206
s28204
s28207
s2820e
s28209
s2820c
s28213
s2821d
s2821b
s28218
s28215
s28212
s28210
s2821a
s2821f
s28216
s28214
s28217
s2821e
s28219
s2821c
s28243
s2824d
s2824b
s28248
s28245
s28242
s28240
s2824a
s2824f
s28241
s28246
s28247
s2824e
s28249
s2824c
s28013
s2801d
s2801b
s28018
s28015
s28012
s28010
s2801a
s2801f
s28016
s28014
s28017
s2801e
s28019
s2801c
s28043
s2804d
s2804b
s28048
s28045
s28042
s28040
s2804a
s2804f
s28041
s28046
s28047
s2804e
s28049
s2804c
s28143
s2814d
s2814b
s28148
s28145
s28142
s28140
s2814a
s2814f
s28141
s28146
s28147
s2814e
s28149
s2814c
s2853d
s2853b
s28538
s2853a
s2853f
s28536
s28537
s2853e
s28539
s2853c
s28023
s2802d
s2802b
s28028
s28025
s2802a
s2802f
s28026
s28027
s2802e
s28029
s2802c
s28413
s2841d
s2841b
s28418
s28415
s28412
s28410
s2841a
s2841f
s28416
s28417
s2841e
s28419
s2841c
s2823d
s2823b
s28238
s2823a
s2823f
s28236
s28237
s2823e
s28239
s2823c
s2825d
s2825b
s28258
s2825a
s2825f
s28256
s28257
s2825e
s28259
s2825c
s2803d
s2803b
s28038
s2803a
s2803f
s28036
s28037
s2803e
s28039
s2803c
s2805d
s2805b
s28058
s2805a
s2805f
s28056
s28057
s2805e
s28059
s2805c
s2813d
s2813b
s28138
s2813a
s2813f
s28136
s28137
s2813e
s28139
s2813c
s2815d
s2815b
s28158
s2815a
s2815f
s28156
s28157
s2815e
s28159
s2815c
s2812d
s2812b
s28128
s2812a
s2812f
s28126
s28127
s2812e
s28129
s2812c
s2810d
s2810b
s28108
s2810a
s2810f
s28106
s28107
s2810e
s28109
s2810c
s2843d
s2843b
s28438
s2843a
s2843f
s28436
s28437
s2843e
s28439
s2843c
s2845d
s2845b
s28458
s2845a
s2845f
s28456
s28457
s2845e
s28459
s2845c
s2842d
s2842b
s28428
s2842a
s2842f
s28426
s28427
s2842e
s28429
s2842c
s2840d
s2840b
s28408
s2840a
s2840f
s28406
s28407
s2840e
s28409
s2840c
s2a3
s2a5
s2a2
s2a0
s2a1
s2a4
s2a33
s2a55
s2a22
s2a00
s2a11
s2a44
s2a35
s2a32
s2a30
s2a31
s2a34
s2a52
s2a50
s2a51
s2a54
s2a20
s2a21
s2a24
s2a01
s2a04
s2a14
s2a53
s2a02
s2a41
s2a23
s2a25
s2a03
s2a05
s2a13
s2a15
s2a12
s2a10
s2a43
s2a45
s2a42
s2a40
s2a3d
s2a3b
s2a38
s2a3a
s2a3f
s2a36
s2a37
s2a3e
s2a39
s2a3c
s2a5d
s2a5b
s2a58
s2a5a
s2a5f
s2a56
s2a57
s2a5e
s2a59
s2a5c
s2a2d
s2a2b
s2a28
s2a2a
s2a2f
s2a26
s2a27
s2a2e
s2a29
s2a2c
s2a0d
s2a0b
s2a08
s2a0a
s2a0f
s2a06
s2a07
s2a0e
s2a09
s2a0c
s2a1d
s2a1b
s2a18
s2a1a
s2a1f
s2a16
s2a17
s2a1e
s2a19
s2a1c
s2a4d
s2a4b
s2a48
s2a4a
s2a4f
s2a46
s2a47
s2a4e
s2a49
s2a4c
s2a355
s2a322
s2a300
s2a311
s2a344
s2a333
s2a33d
s2a33b
s2a338
s2a335
s2a332
s2a330
s2a33a
s2a33f
s2a331
s2a336
s2a334
s2a337
s2a33e
s2a339
s2a33c
s2a553
s2a55d
s2a55b
s2a558
s2a555
s2a552
s2a550
s2a55a
s2a55f
s2a551
s2a556
s2a554
s2a557
s2a55e
s2a559
s2a55c
s2a223
s2a22d
s2a22b
s2a228
s2a225
s2a222
s2a220
s2a22a
s2a22f
s2a221
s2a226
s2a224
s2a227
s2a22e
s2a229
s2a22c
s2a003
s2a00d
s2a00b
s2a008
s2a005
s2a002
s2a000
s2a00a
s2a00f
s2a001
s2a006
s2a004
s2a007
s2a00e
s2a009
s2a00c
s2a113
s2a11d
s2a11b
s2a118
s2a115
s2a112
s2a110
s2a11a
s2a11f
s2a111
s2a116
s2a114
s2a117
s2a11e
s2a119
s2a11c
s2a443
s2a44d
s2a44b
s2a448
s2a445
s2a442
s2a440
s2a44a
s2a44f
s2a441
s2a446
s2a444
s2a447
s2a44e
s2a449
s2a44c
s2a353
s2a35d
s2a35b
s2a358
s2a352
s2a350
s2a35a
s2a35f
s2a351
s2a356
s2a354
s2a357
s2a35e
s2a359
s2a35c
s2a323
s2a32d
s2a32b
s2a328
s2a325
s2a320
s2a32a
s2a32f
s2a321
s2a326
s2a324
s2a327
s2a32e
s2a329
s2a32c
s2a303
s2a30d
s2a30b
s2a308
s2a305
s2a302
s2a30a
s2a30f
s2a301
s2a306
s2a304
s2a307
s2a30e
s2a309
s2a30c
s2a313
s2a31d
s2a31b
s2a318
s2a315
s2a312
s2a310
s2a31a
s2a31f
s2a316
s2a314
s2a317
s2a31e
s2a319
s2a31c
s2a343
s2a34d
s2a34b
s2a348
s2a345
s2a342
s2a340
s2a34a
s2a34f
s2a341
s2a346
s2a347
s2a34e
s2a349
s2a34c
s2a533
s2a522
s2a500
s2a511
s2a544
s2a535
s2a532
s2a530
s2a531
s2a534
s2a233
s2a255
s2a200
s2a211
s2a244
s2a235
s2a232
s2a230
s2a231
s2a234
s2a252
s2a250
s2a251
s2a254
s2a253
s2a033
s2a055
s2a022
s2a011
s2a044
s2a035
s2a032
s2a030
s2a031
s2a034
s2a052
s2a050
s2a051
s2a054
s2a020
s2a021
s2a024
s2a053
s2a133
s2a155
s2a122
s2a100
s2a144
s2a135
s2a132
s2a130
s2a131
s2a134
s2a152
s2a150
s2a151
s2a154
s2a120
s2a121
s2a124
s2a101
s2a104
s2a153
s2a102
s2a123
s2a125
s2a103
s2a105
s2a433
s2a455
s2a422
s2a400
s2a411
s2a435
s2a432
s2a430
s2a431
s2a434
s2a452
s2a450
s2a451
s2a454
s2a420
s2a421
s2a424
s2a401
s2a404
s2a414
s2a453
s2a402
s2a423
s2a425
s2a403
s2a405
s2a523
s2a52d
s2a52b
s2a528
s2a525
s2a520
s2a52a
s2a52f
s2a521
s2a526
s2a524
s2a527
s2a52e
s2a529
s2a52c
s2a503
s2a50d
s2a50b
s2a508
s2a505
s2a502
s2a50a
s2a50f
s2a501
s2a506
s2a504
s2a507
s2a50e
s2a509
s2a50c
s2a513
s2a51d
s2a51b
s2a518
s2a515
s2a512
s2a510
s2a51a
s2a51f
s2a516
s2a514
s2a517
s2a51e
s2a519
s2a51c
s2a543
s2a54d
s2a54b
s2a548
s2a545
s2a542
s2a540
s2a54a
s2a54f
s2a541
s2a546
s2a547
s2a54e
s2a549
s2a54c
s2a203
s2a20d
s2a20b
s2a208
s2a205
s2a202
s2a20a
s2a20f
s2a201
s2a206
s2a204
s2a207
s2a20e
s2a209
s2a20c
s2a213
s2a21d
s2a21b
s2a218
s2a215
s2a212
s2a210
s2a21a
s2a21f
s2a216
s2a214
s2a217
s2a21e
s2a219
s2a21c
s2a243
s2a24d
s2a24b
s2a248
s2a245
s2a242
s2a240
s2a24a
s2a24f
s2a241
s2a246
s2a247
s2a24e
s2a249
s2a24c
s2a013
s2a01d
s2a01b
s2a018
s2a015
s2a012
s2a010
s2a01a
s2a01f
s2a016
s2a014
s2a017
s2a01e
s2a019
s2a01c
s2a043
s2a04d
s2a04b
s2a048
s2a045
s2a042
s2a040
s2a04a
s2a04f
s2a041
s2a046
s2a047
s2a04e
s2a049
s2a04c
s2a143
s2a14d
s2a14b
s2a148
s2a145
s2a142
s2a140
s2a14a
s2a14f
s2a141
s2a146
s2a147
s2a14e
s2a149
s2a14c
s2a53d
s2a53b
s2a538
s2a53a
s2a53f
s2a536
s2a537
s2a53e
s2a539
s2a53c
s2a023
s2a02d
s2a02b
s2a028
s2a025
s2a02a
s2a02f
s2a026
s2a027
s2a02e
s2a029
s2a02c
s2a413
s2a41d
s2a41b
s2a418
s2a415
s2a412
s2a410
s2a41a
s2a41f
s2a416
s2a417
s2a41e
s2a419
s2a41c
s2a23d
s2a23b
s2a238
s2a23a
s2a23f
s2a236
s2a237
s2a23e
s2a239
s2a23c
s2a25d
s2a25b
s2a258
s2a25a
s2a25f
s2a256
s2a257
s2a25e
s2a259
s2a25c
s2a03d
s2a03b
s2a038
s2a03a
s2a03f
s2a036
s2a037
s2a03e
s2a039
s2a03c
s2a05d
s2a05b
s2a058
s2a05a
s2a05f
s2a056
s2a057
s2a05e
s2a059
s2a05c
s2a13d
s2a13b
s2a138
s2a13a
s2a13f
s2a136
s2a137
s2a13e
s2a139
s2a13c
s2a15d
s2a15b
s2a158
s2a15a
s2a15f
s2a156
s2a157
s2a15e
s2a159
s2a15c
s2a12d
s2a12b
s2a128
s2a12a
s2a12f
s2a126
s2a127
s2a12e
s2a129
s2a12c
s2a10d
s2a10b
s2a108
s2a10a
s2a10f
s2a106
s2a107
s2a10e
s2a109
s2a10c
s2a43d
s2a43b
s2a438
s2a43a
s2a43f
s2a436
s2a437
s2a43e
s2a439
s2a43c
s2a45d
s2a45b
s2a458
s2a45a
s2a45f
s2a456
s2a457
s2a45e
s2a459
s2a45c
s2a42d
s2a42b
s2a428
s2a42a
s2a42f
s2a426
s2a427
s2a42e
s2a429
s2a42c
s2a40d
s2a40b
s2a408
s2a40a
s2a40f
s2a406
s2a407
s2a40e
s2a409
s2a40c
s2f3
s2f5
s2f2
s2f0
s2f1
s2f4
s2f33
s2f55
s2f22
s2f00
s2f11
s2f44
s2f35
s2f32
s2f30
s2f31
s2f34
s2f52
s2f50
s2f51
s2f54
s2f20
s2f21
s2f24
s2f01
s2f04
s2f14
s2f53
s2f02
s2f41
s2f23
s2f25
s2f03
s2f05
s2f13
s2f15
s2f12
s2f10
s2f43
s2f45
s2f42
s2f40
s2f3d
s2f3b
s2f38
s2f3a
s2f3f
s2f36
s2f37
s2f3e
s2f39
s2f3c
s2f5d
s2f5b
s2f58
s2f5a
s2f5f
s2f56
s2f57
s2f5e
s2f59
s2f5c
s2f2d
s2f2b
s2f28
s2f2a
s2f2f
s2f26
s2f27
s2f2e
s2f29
s2f2c
s2f0d
s2f0b
s2f08
s2f0a
s2f0f
s2f06
s2f07
s2f0e
s2f09
s2f0c
s2f1d
s2f1b
s2f18
s2f1a
s2f1f
s2f16
s2f17
s2f1e
s2f19
s2f1c
s2f4d
s2f4b
s2f48
s2f4a
s2f4f
s2f46
s2f47
s2f4e
s2f49
s2f4c
s2f355
s2f322
s2f300
s2f311
s2f344
s2f333
s2f33d
s2f33b
s2f338
s2f335
s2f332
s2f330
s2f33a
s2f33f
s2f331
s2f336
s2f334
s2f337
s2f33e
s2f339
s2f33c
s2f553
s2f55d
s2f55b
s2f558
s2f555
s2f552
s2f550
s2f55a
s2f55f
s2f551
s2f556
s2f554
s2f557
s2f55e
s2f559
s2f55c
s2f223
s2f22d
s2f22b
s2f228
s2f225
s2f222
s2f220
s2f22a
s2f22f
s2f221
s2f226
s2f224
s2f227
s2f22e
s2f229
s2f22c
s2f003
s2f00d
s2f00b
s2f008
s2f005
s2f002
s2f000
s2f00a
s2f00f
s2f001
s2f006
s2f004
s2f007
s2f00e
s2f009
s2f00c
s2f113
s2f11d
s2f11b
s2f118
s2f115
s2f112
s2f110
s2f11a
s2f11f
s2f111
s2f116
s2f114
s2f117
s2f11e
s2f119
s2f11c
s2f443
s2f44d
s2f44b
s2f448
s2f445
s2f442
s2f440
s2f44a
s2f44f
s2f441
s2f446
s2f444
s2f447
s2f44e
s2f449
s2f44c
s2f353
s2f35d
s2f35b
s2f358
s2f352
s2f350
s2f35a
s2f35f
s2f351
s2f356
s2f354
s2f357
s2f35e
s2f359
s2f35c
s2f323
s2f32d
s2f32b
s2f328
s2f325
s2f320
s2f32a
s2f32f
s2f321
s2f326
s2f324
s2f327
s2f32e
s2f329
s2f32c
s2f303
s2f30d
s2f30b
s2f308
s2f305
s2f302
s2f30a
s2f30f
s2f301
s2f306
s2f304
s2f307
s2f30e
s2f309
s2f30c
s2f313
s2f31d
s2f31b
s2f318
s2f315
s2f312
s2f310
s2f31a
s2f31f
s2f316
s2f314
s2f317
s2f31e
s2f319
s2f31c
s2f343
s2f34d
s2f34b
s2f348
s2f345
s2f342
s2f340
s2f34a
s2f34f
s2f341
s2f346
s2f347
s2f34e
s2f349
s2f34c
s2f533
s2f522
s2f500
s2f511
s2f544
s2f535
s2f532
s2f530
s2f531
s2f534
s2f233
s2f255
s2f200
s2f211
s2f244
s2f235
s2f232
s2f230
s2f231
s2f234
s2f252
s2f250
s2f251
s2f254
s2f253
s2f033
s2f055
s2f022
s2f011
s2f044
s2f035
s2f032
s2f030
s2f031
s2f034
s2f052
s2f050
s2f051
s2f054
s2f020
s2f021
s2f024
s2f053
s2f133
s2f155
s2f122
s2f100
s2f144
s2f135
s2f132
s2f130
s2f131
s2f134
s2f152
s2f150
s2f151
s2f154
s2f120
s2f121
s2f124
s2f101
s2f104
s2f153
s2f102
s2f123
s2f125
s2f103
s2f105
s2f433
s2f455
s2f422
s2f400
s2f411
s2f435
s2f432
s2f430
s2f431
s2f434
s2f452
s2f450
s2f451
s2f454
s2f420
s2f421
s2f424
s2f401
s2f404
s2f414
s2f453
s2f402
s2f423
s2f425
s2f403
s2f405
s2f523
s2f52d
s2f52b
s2f528
s2f525
s2f520
s2f52a
s2f52f
s2f521
s2f526
s2f524
s2f527
s2f52e
s2f529
s2f52c
s2f503
s2f50d
s2f50b
s2f508
s2f505
s2f502
s2f50a
s2f50f
s2f501
s2f506
s2f504
s2f507
s2f50e
s2f509
s2f50c
s2f513
s2f51d
s2f51b
s2f518
s2f515
s2f512
s2f510
s2f51a
s2f51f
s2f516
s2f514
s2f517
s2f51e
s2f519
s2f51c
s2f543
s2f54d
s2f54b
s2f548
s2f545
s2f542
s2f540
s2f54a
s2f54f
s2f541
s2f546
s2f547
s2f54e
s2f549
s2f54c
s2f203
s2f20d
s2f20b
s2f208
s2f205
s2f202
s2f20a
s2f20f
s2f201
s2f206
s2f204
s2f207
s2f20e
s2f209
s2f20c
s2f213
s2f21d
s2f21b
s2f218
s2f215
s2f212
s2f210
s2f21a
s2f21f
s2f216
s2f214
s2f217
s2f21e
s2f219
s2f21c
s2f243
s2f24d
s2f24b
s2f248
s2f245
s2f242
s2f240
s2f24a
s2f24f
s2f241
s2f246
s2f247
s2f24e
s2f249
s2f24c
s2f013
s2f01d
s2f01b
s2f018
s2f015
s2f012
s2f010
s2f01a
s2f01f
s2f016
s2f014
s2f017
s2f01e
s2f019
s2f01c
s2f043
s2f04d
s2f04b
s2f048
s2f045
s2f042
s2f040
s2f04a
s2f04f
s2f041
s2f046
s2f047
s2f04e
s2f049
s2f04c
s2f143
s2f14d
s2f14b
s2f148
s2f145
s2f142
s2f140
s2f14a
s2f14f
s2f141
s2f146
s2f147
s2f14e
s2f149
s2f14c
s2f53d
s2f53b
s2f538
s2f53a
s2f53f
s2f536
s2f537
s2f53e
s2f539
s2f53c
s2f023
s2f02d
s2f02b
s2f028
s2f025
s2f02a
s2f02f
s2f026
s2f027
s2f02e
s2f029
s2f02c
s2f413
s2f41d
s2f41b
s2f418
s2f415
s2f412
s2f410
s2f41a
s2f41f
s2f416
s2f417
s2f41e
s2f419
s2f41c
s2f23d
s2f23b
s2f238
s2f23a
s2f23f
s2f236
s2f237
s2f23e
s2f239
s2f23c
s2f25d
s2f25b
s2f258
s2f25a
s2f25f
s2f256
s2f257
s2f25e
s2f259
s2f25c
s2f03d
s2f03b
s2f038
s2f03a
s2f03f
s2f036
s2f037
s2f03e
s2f039
s2f03c
s2f05d
s2f05b
s2f058
s2f05a
s2f05f
s2f056
s2f057
s2f05e
s2f059
s2f05c
s2f13d
s2f13b
s2f138
s2f13a
s2f13f
s2f136
s2f137
s2f13e
s2f139
s2f13c
s2f15d
s2f15b
s2f158
s2f15a
s2f15f
s2f156
s2f157
s2f15e
s2f159
s2f15c
s2f12d
s2f12b
s2f128
s2f12a
s2f12f
s2f126
s2f127
s2f12e
s2f129
s2f12c
s2f10d
s2f10b
s2f108
s2f10a
s2f10f
s2f106
s2f107
s2f10e
s2f109
s2f10c
s2f43d
s2f43b
s2f438
s2f43a
s2f43f
s2f436
s2f437
s2f43e
s2f439
s2f43c
s2f45d
s2f45b
s2f458
s2f45a
s2f45f
s2f456
s2f457
s2f45e
s2f459
s2f45c
s2f42d
s2f42b
s2f428
s2f42a
s2f42f
s2f426
s2f427
s2f42e
s2f429
s2f42c
s2f40d
s2f40b
s2f408
s2f40a
s2f40f
s2f406
s2f407
s2f40e
s2f409
s2f40c
s263
s265
s262
s260
s261
s264
s2633
s2655
s2622
s2600
s2611
s2644
s2635
s2632
s2630
s2631
s2634
s2652
s2650
s2651
s2654
s2620
s2621
s2624
s2601
s2604
s2614
s2653
s2602
s2641
s2623
s2625
s2603
s2605
s2613
s2615
s2612
s2610
s2643
s2645
s2642
s2640
s263d
s263b
s2638
s263a
s263f
s2636
s2637
s263e
s2639
s263c
s265d
s265b
s2658
s265a
s265f
s2656
s2657
s265e
s2659
s265c
s262d
s262b
s2628
s262a
s262f
s2626
s2627
s262e
s2629
s262c
s260d
s260b
s2608
s260a
s260f
s2606
s2607
s260e
s2609
s260c
s261d
s261b
s2618
s261a
s261f
s2616
s2617
s261e
s2619
s261c
s264d
s264b
s2648
s264a
s264f
s2646
s2647
s264e
s2649
s264c
s26355
s26322
s26300
s26311
s26344
s26333
s2633d
s2633b
s26338
s26335
s26332
s26330
s2633a
s2633f
s26331
s26336
s26334
s26337
s2633e
s26339
s2633c
s26553
s2655d
s2655b
s26558
s26555
s26552
s26550
s2655a
s2655f
s26551
s26556
s26554
s26557
s2655e
s26559
s2655c
s26223
s2622d
s2622b
s26228
s26225
s26222
s26220
s2622a
s2622f
s26221
s26226
s26224
s26227
s2622e
s26229
s2622c
s26003
s2600d
s2600b
s26008
s26005
s26002
s26000
s2600a
s2600f
s26001
s26006
s26004
s26007
s2600e
s26009
s2600c
s26113
s2611d
s2611b
s26118
s26115
s26112
s26110
s2611a
s2611f
s26111
s26116
s26114
s26117
s2611e
s26119
s2611c
s26443
s2644d
s2644b
s26448
s26445
s26442
s26440
s2644a
s2644f
s26441
s26446
s26444
s26447
s2644e
s26449
s2644c
s26353
s2635d
s2635b
s26358
s26352
s26350
s2635a
s2635f
s26351
s26356
s26354
s26357
s2635e
s26359
s2635c
s26323
s2632d
s2632b
s26328
s26325
s26320
s2632a
s2632f
s26321
s26326
s26324
s26327
s2632e
s26329
s2632c
s26303
s2630d
s2630b
s26308
s26305
s26302
s2630a
s2630f
s26301
s26306
s26304
s26307
s2630e
s26309
s2630c
s26313
s2631d
s2631b
s26318
s26315
s26312
s26310
s2631a
s2631f
s26316
s26314
s26317
s2631e
s26319
s2631c
s26343
s2634d
s2634b
s26348
s26345
s26342
s26340
s2634a
s2634f
s26341
s26346
s26347
s2634e
s26349
s2634c
s26533
s26522
s26500
s26511
s26544
s26535
s26532
s26530
s26531
s26534
s26233
s26255
s26200
s26211
s26244
s26235
s26232
s26230
s26231
s26234
s26252
s26250
s26251
s26254
s26253
s26033
s26055
s26022
s26011
s26044
s26035
s26032
s26030
s26031
s26034
s26052
s26050
s26051
s26054
s26020
s26021
s26024
s26053
s26133
s26155
s26122
s26100
s26144
s26135
s26132
s26130
s26131
s26134
s26152
s26150
s26151
s26154
s26120
s26121
s26124
s26101
s26104
s26153
s26102
s26123
s26125
s26103
s26105
s26433
s26455
s26422
s26400
s26411
s26435
s26432
s26430
s26431
s26434
s26452
s26450
s26451
s26454
s26420
s26421
s26424
s26401
s26404
s26414
s26453
s26402
s26423
s26425
s26403
s26405
s26523
s2652d
s2652b
s26528
s26525
s26520
s2652a
s2652f
s26521
s26526
s26524
s26527
s2652e
s26529
s2652c
s26503
s2650d
s2650b
s26508
s26505
s26502
s2650a
s2650f
s26501
s26506
s26504
s26507
s2650e
s26509
s2650c
s26513
s2651d
s2651b
s26518
s26515
s26512
s26510
s2651a
s2651f
s26516
s26514
s26517
s2651e
s26519
s2651c
s26543
s2654d
s2654b
s26548
s26545
s26542
s26540
s2654a
s2654f
s26541
s26546
s26547
s2654e
s26549
s2654c
s26203
s2620d
s2620b
s26208
s26205
s26202
s2620a
s2620f
s26201
s26206
s26204
s26207
s2620e
s26209
s2620c
s26213
s2621d
s2621b
s26218
s26215
s26212
s26210
s2621a
s2621f
s26216
s26214
s26217
s2621e
s26219
s2621c
s26243
s2624d
s2624b
s26248
s26245
s26242
s26240
s2624a
s2624f
s26241
s26246
s26247
s2624e
s26249
s2624c
s26013
s2601d
s2601b
s26018
s26015
s26012
s26010
s2601a
s2601f
s26016
s26014
s26017
s2601e
s26019
s2601c
s26043
s2604d
s2604b
s26048
s26045
s26042
s26040
s2604a
s2604f
s26041
s26046
s26047
s2604e
s26049
s2604c
s26143
s2614d
s2614b
s26148
s26145
s26142
s26140
s2614a
s2614f
s26141
s26146
s26147
s2614e
s26149
s2614c
s2653d
s2653b
s26538
s2653a
s2653f
s26536
s26537
s2653e
s26539
s2653c
s26023
s2602d
s2602b
s26028
s26025
s2602a
s2602f
s26026
s26027
s2602e
s26029
s2602c
s26413
s2641d
s2641b
s26418
s26415
s26412
s26410
s2641a
s2641f
s26416
s26417
s2641e
s26419
s2641c
s2623d
s2623b
s26238
s2623a
s2623f
s26236
s26237
s2623e
s26239
s2623c
s2625d
s2625b
s26258
s2625a
s2625f
s26256
s26257
s2625e
s26259
s2625c
s2603d
s2603b
s26038
s2603a
s2603f
s26036
s26037
s2603e
s26039
s2603c
s2605d
s2605b
s26058
s2605a
s2605f
s26056
s26057
s2605e
s26059
s2605c
s2613d
s2613b
s26138
s2613a
s2613f
s26136
s26137
s2613e
s26139
s2613c
s2615d
s2615b
s26158
s2615a
s2615f
s26156
s26157
s2615e
s26159
s2615c
s2612d
s2612b
s26128
s2612a
s2612f
s26126
s26127
s2612e
s26129
s2612c
s2610d
s2610b
s26108
s2610a
s2610f
s26106
s26107
s2610e
s26109
s2610c
s2643d
s2643b
s26438
s2643a
s2643f
s26436
s26437
s2643e
s26439
s2643c
s2645d
s2645b
s26458
s2645a
s2645f
s26456
s26457
s2645e
s26459
s2645c
s2642d
s2642b
s26428
s2642a
s2642f
s26426
s26427
s2642e
s26429
s2642c
s2640d
s2640b
s26408
s2640a
s2640f
s26406
s26407
s2640e
s26409
s2640c
s273
s275
s272
s270
s271
s274
s2733
s2755
s2722
s2700
s2711
s2744
s2735
s2732
s2730
s2731
s2734
s2752
s2750
s2751
s2754
s2720
s2721
s2724
s2701
s2704
s2714
s2753
s2702
s2741
s2723
s2725
s2703
s2705
s2713
s2715
s2712
s2710
s2743
s2745
s2742
s2740
s273d
s273b
s2738
s273a
s273f
s2736
s2737
s273e
s2739
s273c
s275d
s275b
s2758
s275a
s275f
s2756
s2757
s275e
s2759
s275c
s272d
s272b
s2728
s272a
s272f
s2726
s2727
s272e
s2729
s272c
s270d
s270b
s2708
s270a
s270f
s2706
s2707
s270e
s2709
s270c
s271d
s271b
s2718
s271a
s271f
s2716
s2717
s271e
s2719
s271c
s274d
s274b
s2748
s274a
s274f
s2746
s2747
s274e
s2749
s274c
s27355
s27322
s27300
s27311
s27344
s27333
s2733d
s2733b
s27338
s27335
s27332
s27330
s2733a
s2733f
s27331
s27336
s27334
s27337
s2733e
s27339
s2733c
s27553
s2755d
s2755b
s27558
s27555
s27552
s27550
s2755a
s2755f
s27551
s27556
s27554
s27557
s2755e
s27559
s2755c
s27223
s2722d
s2722b
s27228
s27225
s27222
s27220
s2722a
s2722f
s27221
s27226
s27224
s27227
s2722e
s27229
s2722c
s27003
s2700d
s2700b
s27008
s27005
s27002
s27000
s2700a
s2700f
s27001
s27006
s27004
s27007
s2700e
s27009
s2700c
s27113
s2711d
s2711b
s27118
s27115
s27112
s27110
s2711a
s2711f
s27111
s27116
s27114
s27117
s2711e
s27119
s2711c
s27443
s2744d
s2744b
s27448
s27445
s27442
s27440
s2744a
s2744f
s27441
s27446
s27444
s27447
s2744e
s27449
s2744c
s27353
s2735d
s2735b
s27358
s27352
s27350
s2735a
s2735f
s27351
s27356
s27354
s27357
s2735e
s27359
s2735c
s27323
s2732d
s2732b
s27328
s27325
s27320
s2732a
s2732f
s27321
s27326
s27324
s27327
s2732e
s27329
s2732c
s27303
s2730d
s2730b
s27308
s27305
s27302
s2730a
s2730f
s27301
s27306
s27304
s27307
s2730e
s27309
s2730c
s27313
s2731d
s2731b
s27318
s27315
s27312
s27310
s2731a
s2731f
s27316
s27314
s27317
s2731e
s27319
s2731c
s27343
s2734d
s2734b
s27348
s27345
s27342
s27340
s2734a
s2734f
s27341
s27346
s27347
s2734e
s27349
s2734c
s27533
s27522
s27500
s27511
s27544
s27535
s27532
s27530
s27531
s27534
s27233
s27255
s27200
s27211
s27244
s27235
s27232
s27230
s27231
s27234
s27252
s27250
s27251
s27254
s27253
s27033
s27055
s27022
s27011
s27044
s27035
s27032
s27030
s27031
s27034
s27052
s27050
s27051
s27054
s27020
s27021
s27024
s27053
s27133
s27155
s27122
s27100
s27144
s27135
s27132
s27130
s27131
s27134
s27152
s27150
s27151
s27154
s27120
s27121
s27124
s27101
s27104
s27153
s27102
s27123
s27125
s27103
s27105
s27433
s27455
s27422
s27400
s27411
s27435
s27432
s27430
s27431
s27434
s27452
s27450
s27451
s27454
s27420
s27421
s27424
s27401
s27404
s27414
s27453
s27402
s27423
s27425
s27403
s27405
s27523
s2752d
s2752b
s27528
s27525
s27520
s2752a
s2752f
s27521
s27526
s27524
s27527
s2752e
s27529
s2752c
s27503
s2750d
s2750b
s27508
s27505
s27502
s2750a
s2750f
s27501
s27506
s27504
s27507
s2750e
s27509
s2750c
s27513
s2751d
s2751b
s27518
s27515
s27512
s27510
s2751a
s2751f
s27516
s27514
s27517
s2751e
s27519
s2751c
s27543
s2754d
s2754b
s27548
s27545
s27542
s27540
s2754a
s2754f
s27541
s27546
s27547
s2754e
s27549
s2754c
s27203
s2720d
s2720b
s27208
s27205
s27202
s2720a
s2720f
s27201
s27206
s27204
s27207
s2720e
s27209
s2720c
s27213
s2721d
s2721b
s27218
s27215
s27212
s27210
s2721a
s2721f
s27216
s27214
s27217
s2721e
s27219
s2721c
s27243
s2724d
s2724b
s27248
s27245
s27242
s27240
s2724a
s2724f
s27241
s27246
s27247
s2724e
s27249
s2724c
s27013
s2701d
s2701b
s27018
s27015
s27012
s27010
s2701a
s2701f
s27016
s27014
s27017
s2701e
s27019
s2701c
s27043
s2704d
s2704b
s27048
s27045
s27042
s27040
s2704a
s2704f
s27041
s27046
s27047
s2704e
s27049
s2704c
s27143
s2714d
s2714b
s27148
s27145
s27142
s27140
s2714a
s2714f
s27141
s27146
s27147
s2714e
s27149
s2714c
s2753d
s2753b
s27538
s2753a
s2753f
s27536
s27537
s2753e
s27539
s2753c
s27023
s2702d
s2702b
s27028
s27025
s2702a
s2702f
s27026
s27027
s2702e
s27029
s2702c
s27413
s2741d
s2741b
s27418
s27415
s27412
s27410
s2741a
s2741f
s27416
s27417
s2741e
s27419
s2741c
s2723d
s2723b
s27238
s2723a
s2723f
s27236
s27237
s2723e
s27239
s2723c
s2725d
s2725b
s27258
s2725a
s2725f
s27256
s27257
s2725e
s27259
s2725c
s2703d
s2703b
s27038
s2703a
s2703f
s27036
s27037
s2703e
s27039
s2703c
s2705d
s2705b
s27058
s2705a
s2705f
s27056
s27057
s2705e
s27059
s2705c
s2713d
s2713b
s27138
s2713a
s2713f
s27136
s27137
s2713e
s27139
s2713c
s2715d
s2715b
s27158
s2715a
s2715f
s27156
s27157
s2715e
s27159
s2715c
s2712d
s2712b
s27128
s2712a
s2712f
s27126
s27127
s2712e
s27129
s2712c
s2710d
s2710b
s27108
s2710a
s2710f
s27106
s27107
s2710e
s27109
s2710c
s2743d
s2743b
s27438
s2743a
s2743f
s27436
s27437
s2743e
s27439
s2743c
s2745d
s2745b
s27458
s2745a
s2745f
s27456
s27457
s2745e
s27459
s2745c
s2742d
s2742b
s27428
s2742a
s2742f
s27426
s27427
s2742e
s27429
s2742c
s2740d
s2740b
s27408
s2740a
s2740f
s27406
s27407
s2740e
s27409
s2740c
s2e3
s2e5
s2e2
s2e0
s2e1
s2e4
s2e33
s2e55
s2e22
s2e00
s2e11
s2e44
s2e35
s2e32
s2e30
s2e31
s2e34
s2e52
s2e50
s2e51
s2e54
s2e20
s2e21
s2e24
s2e01
s2e04
s2e14
s2e53
s2e02
s2e41
s2e23
s2e25
s2e03
s2e05
s2e13
s2e15
s2e12
s2e10
s2e43
s2e45
s2e42
s2e40
s2e3d
s2e3b
s2e38
s2e3a
s2e3f
s2e36
s2e37
s2e3e
s2e39
s2e3c
s2e5d
s2e5b
s2e58
s2e5a
s2e5f
s2e56
s2e57
s2e5e
s2e59
s2e5c
s2e2d
s2e2b
s2e28
s2e2a
s2e2f
s2e26
s2e27
s2e2e
s2e29
s2e2c
s2e0d
s2e0b
s2e08
s2e0a
s2e0f
s2e06
s2e07
s2e0e
s2e09
s2e0c
s2e1d
s2e1b
s2e18
s2e1a
s2e1f
s2e16
s2e17
s2e1e
s2e19
s2e1c
s2e4d
s2e4b
s2e48
s2e4a
s2e4f
s2e46
s2e47
s2e4e
s2e49
s2e4c
s2e355
s2e322
s2e300
s2e311
s2e344
s2e333
s2e33d
s2e33b
s2e338
s2e335
s2e332
s2e330
s2e33a
s2e33f
s2e331
s2e336
s2e334
s2e337
s2e33e
s2e339
s2e33c
s2e553
s2e55d
s2e55b
s2e558
s2e555
s2e552
s2e550
s2e55a
s2e55f
s2e551
s2e556
s2e554
s2e557
s2e55e
s2e559
s2e55c
s2e223
s2e22d
s2e22b
s2e228
s2e225
s2e222
s2e220
s2e22a
s2e22f
s2e221
s2e226
s2e224
s2e227
s2e22e
s2e229
s2e22c
s2e003
s2e00d
s2e00b
s2e008
s2e005
s2e002
s2e000
s2e00a
s2e00f
s2e001
s2e006
s2e004
s2e007
s2e00e
s2e009
s2e00c
s2e113
s2e11d
s2e11b
s2e118
s2e115
s2e112
s2e110
s2e11a
s2e11f
s2e111
s2e116
s2e114
s2e117
s2e11e
s2e119
s2e11c
s2e443
s2e44d
s2e44b
s2e448
s2e445
s2e442
s2e440
s2e44a
s2e44f
s2e441
s2e446
s2e444
s2e447
s2e44e
s2e449
s2e44c
s2e353
s2e35d
s2e35b
s2e358
s2e352
s2e350
s2e35a
s2e35f
s2e351
s2e356
s2e354
s2e357
s2e35e
s2e359
s2e35c
s2e323
s2e32d
s2e32b
s2e328
s2e325
s2e320
s2e32a
s2e32f
s2e321
s2e326
s2e324
s2e327
s2e32e
s2e329
s2e32c
s2e303
s2e30d
s2e30b
s2e308
s2e305
s2e302
s2e30a
s2e30f
s2e301
s2e306
s2e304
s2e307
s2e30e
s2e309
s2e30c
s2e313
s2e31d
s2e31b
s2e318
s2e315
s2e312
s2e310
s2e31a
s2e31f
s2e316
s2e314
s2e317
s2e31e
s2e319
s2e31c
s2e343
s2e34d
s2e34b
s2e348
s2e345
s2e342
s2e340
s2e34a
s2e34f
s2e341
s2e346
s2e347
s2e34e
s2e349
s2e34c
s2e533
s2e522
s2e500
s2e511
s2e544
s2e535
s2e532
s2e530
s2e531
s2e534
s2e233
s2e255
s2e200
s2e211
s2e244
s2e235
s2e232
s2e230
s2e231
s2e234
s2e252
s2e250
s2e251
s2e254
s2e253
s2e033
s2e055
s2e022
s2e011
s2e044
s2e035
s2e032
s2e030
s2e031
s2e034
s2e052
s2e050
s2e051
s2e054
s2e020
s2e021
s2e024
s2e053
s2e133
s2e155
s2e122
s2e100
s2e144
s2e135
s2e132
s2e130
s2e131
s2e134
s2e152
s2e150
s2e151
s2e154
s2e120
s2e121
s2e124
s2e101
s2e104
s2e153
s2e102
s2e123
s2e125
s2e103
s2e105
s2e433
s2e455
s2e422
s2e400
s2e411
s2e435
s2e432
s2e430
s2e431
s2e434
s2e452
s2e450
s2e451
s2e454
s2e420
s2e421
s2e424
s2e401
s2e404
s2e414
s2e453
s2e402
s2e423
s2e425
s2e403
s2e405
s2e523
s2e52d
s2e52b
s2e528
s2e525
s2e520
s2e52a
s2e52f
s2e521
s2e526
s2e524
s2e527
s2e52e
s2e529
s2e52c
s2e503
s2e50d
s2e50b
s2e508
s2e505
s2e502
s2e50a
s2e50f
s2e501
s2e506
s2e504
s2e507
s2e50e
s2e509
s2e50c
s2e513
s2e51d
s2e51b
s2e518
s2e515
s2e512
s2e510
s2e51a
s2e51f
s2e516
s2e514
s2e517
s2e51e
s2e519
s2e51c
s2e543
s2e54d
s2e54b
s2e548
s2e545
s2e542
s2e540
s2e54a
s2e54f
s2e541
s2e546
s2e547
s2e54e
s2e549
s2e54c
s2e203
s2e20d
s2e20b
s2e208
s2e205
s2e202
s2e20a
s2e20f
s2e201
s2e206
s2e204
s2e207
s2e20e
s2e209
s2e20c
s2e213
s2e21d
s2e21b
s2e218
s2e215
s2e212
s2e210
s2e21a
s2e21f
s2e216
s2e214
s2e217
s2e21e
s2e219
s2e21c
s2e243
s2e24d
s2e24b
s2e248
s2e245
s2e242
s2e240
s2e24a
s2e24f
s2e241
s2e246
s2e247
s2e24e
s2e249
s2e24c
s2e013
s2e01d
s2e01b
s2e018
s2e015
s2e012
s2e010
s2e01a
s2e01f
s2e016
s2e014
s2e017
s2e01e
s2e019
s2e01c
s2e043
s2e04d
s2e04b
s2e048
s2e045
s2e042
s2e040
s2e04a
s2e04f
s2e041
s2e046
s2e047
s2e04e
s2e049
s2e04c
s2e143
s2e14d
s2e14b
s2e148
s2e145
s2e142
s2e140
s2e14a
s2e14f
s2e141
s2e146
s2e147
s2e14e
s2e149
s2e14c
s2e53d
s2e53b
s2e538
s2e53a
s2e53f
s2e536
s2e537
s2e53e
s2e539
s2e53c
s2e023
s2e02d
s2e02b
s2e028
s2e025
s2e02a
s2e02f
s2e026
s2e027
s2e02e
s2e029
s2e02c
s2e413
s2e41d
s2e41b
s2e418
s2e415
s2e412
s2e410
s2e41a
s2e41f
s2e416
s2e417
s2e41e
s2e419
s2e41c
s2e23d
s2e23b
s2e238
s2e23a
s2e23f
s2e236
s2e237
s2e23e
s2e239
s2e23c
s2e25d
s2e25b
s2e258
s2e25a
s2e25f
s2e256
s2e257
s2e25e
s2e259
s2e25c
s2e03d
s2e03b
s2e038
s2e03a
s2e03f
s2e036
s2e037
s2e03e
s2e039
s2e03c
s2e05d
s2e05b
s2e058
s2e05a
s2e05f
s2e056
s2e057
s2e05e
s2e059
s2e05c
s2e13d
s2e13b
s2e138
s2e13a
s2e13f
s2e136
s2e137
s2e13e
s2e139
s2e13c
s2e15d
s2e15b
s2e158
s2e15a
s2e15f
s2e156
s2e157
s2e15e
s2e159
s2e15c
s2e12d
s2e12b
s2e128
s2e12a
s2e12f
s2e126
s2e127
s2e12e
s2e129
s2e12c
s2e10d
s2e10b
s2e108
s2e10a
s2e10f
s2e106
s2e107
s2e10e
s2e109
s2e10c
s2e43d
s2e43b
s2e438
s2e43a
s2e43f
s2e436
s2e437
s2e43e
s2e439
s2e43c
s2e45d
s2e45b
s2e458
s2e45a
s2e45f
s2e456
s2e457
s2e45e
s2e459
s2e45c
s2e42d
s2e42b
s2e428
s2e42a
s2e42f
s2e426
s2e427
s2e42e
s2e429
s2e42c
s2e40d
s2e40b
s2e408
s2e40a
s2e40f
s2e406
s2e407
s2e40e
s2e409
s2e40c
s293
s295
s292
s290
s291
s294
s2933
s2955
s2922
s2900
s2911
s2944
s2935
s2932
s2930
s2931
s2934
s2952
s2950
s2951
s2954
s2920
s2921
s2924
s2901
s2904
s2914
s2953
s2902
s2941
s2923
s2925
s2903
s2905
s2913
s2915
s2912
s2910
s2943
s2945
s2942
s2940
s293d
s293b
s2938
s293a
s293f
s2936
s2937
s293e
s2939
s293c
s295d
s295b
s2958
s295a
s295f
s2956
s2957
s295e
s2959
s295c
s292d
s292b
s2928
s292a
s292f
s2926
s2927
s292e
s2929
s292c
s290d
s290b
s2908
s290a
s290f
s2906
s2907
s290e
s2909
s290c
s291d
s291b
s2918
s291a
s291f
s2916
s2917
s291e
s2919
s291c
s294d
s294b
s2948
s294a
s294f
s2946
s2947
s294e
s2949
s294c
s29355
s29322
s29300
s29311
s29344
s29333
s2933d
s2933b
s29338
s29335
s29332
s29330
s2933a
s2933f
s29331
s29336
s29334
s29337
s2933e
s29339
s2933c
s29553
s2955d
s2955b
s29558
s29555
s29552
s29550
s2955a
s2955f
s29551
s29556
s29554
s29557
s2955e
s29559
s2955c
s29223
s2922d
s2922b
s29228
s29225
s29222
s29220
s2922a
s2922f
s29221
s29226
s29224
s29227
s2922e
s29229
s2922c
s29003
s2900d
s2900b
s29008
s29005
s29002
s29000
s2900a
s2900f
s29001
s29006
s29004
s29007
s2900e
s29009
s2900c
s29113
s2911d
s2911b
s29118
s29115
s29112
s29110
s2911a
s2911f
s29111
s29116
s29114
s29117
s2911e
s29119
s2911c
s29443
s2944d
s2944b
s29448
s29445
s29442
s29440
s2944a
s2944f
s29441
s29446
s29444
s29447
s2944e
s29449
s2944c
s29353
s2935d
s2935b
s29358
s29352
s29350
s2935a
s2935f
s29351
s29356
s29354
s29357
s2935e
s29359
s2935c
s29323
s2932d
s2932b
s29328
s29325
s29320
s2932a
s2932f
s29321
s29326
s29324
s29327
s2932e
s29329
s2932c
s29303
s2930d
s2930b
s29308
s29305
s29302
s2930a
s2930f
s29301
s29306
s29304
s29307
s2930e
s29309
s2930c
s29313
s2931d
s2931b
s29318
s29315
s29312
s29310
s2931a
s2931f
s29316
s29314
s29317
s2931e
s29319
s2931c
s29343
s2934d
s2934b
s29348
s29345
s29342
s29340
s2934a
s2934f
s29341
s29346
s29347
s2934e
s29349
s2934c
s29533
s29522
s29500
s29511
s29544
s29535
s29532
s29530
s29531
s29534
s29233
s29255
s29200
s29211
s29244
s29235
s29232
s29230
s29231
s29234
s29252
s29250
s29251
s29254
s29253
s29033
s29055
s29022
s29011
s29044
s29035
s29032
s29030
s29031
s29034
s29052
s29050
s29051
s29054
s29020
s29021
s29024
s29053
s29133
s29155
s29122
s29100
s29144
s29135
s29132
s29130
s29131
s29134
s29152
s29150
s29151
s29154
s29120
s29121
s29124
s29101
s29104
s29153
s29102
s29123
s29125
s29103
s29105
s29433
s29455
s29422
s29400
s29411
s29435
s29432
s29430
s29431
s29434
s29452
s29450
s29451
s29454
s29420
s29421
s29424
s29401
s29404
s29414
s29453
s29402
s29423
s29425
s29403
s29405
s29523
s2952d
s2952b
s29528
s29525
s29520
s2952a
s2952f
s29521
s29526
s29524
s29527
s2952e
s29529
s2952c
s29503
s2950d
s2950b
s29508
s29505
s29502
s2950a
s2950f
s29501
s29506
s29504
s29507
s2950e
s29509
s2950c
s29513
s2951d
s2951b
s29518
s29515
s29512
s29510
s2951a
s2951f
s29516
s29514
s29517
s2951e
s29519
s2951c
s29543
s2954d
s2954b
s29548
s29545
s29542
s29540
s2954a
s2954f
s29541
s29546
s29547
s2954e
s29549
s2954c
s29203
s2920d
s2920b
s29208
s29205
s29202
s2920a
s2920f
s29201
s29206
s29204
s29207
s2920e
s29209
s2920c
s29213
s2921d
s2921b
s29218
s29215
s29212
s29210
s2921a
s2921f
s29216
s29214
s29217
s2921e
s29219
s2921c
s29243
s2924d
s2924b
s29248
s29245
s29242
s29240
s2924a
s2924f
s29241
s29246
s29247
s2924e
s29249
s2924c
s29013
s2901d
s2901b
s29018
s29015
s29012
s29010
s2901a
s2901f
s29016
s29014
s29017
s2901e
s29019
s2901c
s29043
s2904d
s2904b
s29048
s29045
s29042
s29040
s2904a
s2904f
s29041
s29046
s29047
s2904e
s29049
s2904c
s29143
s2914d
s2914b
s29148
s29145
s29142
s29140
s2914a
s2914f
s29141
s29146
s29147
s2914e
s29149
s2914c
s2953d
s2953b
s29538
s2953a
s2953f
s29536
s29537
s2953e
s29539
s2953c
s29023
s2902d
s2902b
s29028
s29025
s2902a
s2902f
s29026
s29027
s2902e
s29029
s2902c
s29413
s2941d
s2941b
s29418
s29415
s29412
s29410
s2941a
s2941f
s29416
s29417
s2941e
s29419
s2941c
s2923d
s2923b
s29238
s2923a
s2923f
s29236
s29237
s2923e
s29239
s2923c
s2925d
s2925b
s29258
s2925a
s2925f
s29256
s29257
s2925e
s29259
s2925c
s2903d
s2903b
s29038
s2903a
s2903f
s29036
s29037
s2903e
s29039
s2903c
s2905d
s2905b
s29058
s2905a
s2905f
s29056
s29057
s2905e
s29059
s2905c
s2913d
s2913b
s29138
s2913a
s2913f
s29136
s29137
s2913e
s29139
s2913c
s2915d
s2915b
s29158
s2915a
s2915f
s29156
s29157
s2915e
s29159
s2915c
s2912d
s2912b
s29128
s2912a
s2912f
s29126
s29127
s2912e
s29129
s2912c
s2910d
s2910b
s29108
s2910a
s2910f
s29106
s29107
s2910e
s29109
s2910c
s2943d
s2943b
s29438
s2943a
s2943f
s29436
s29437
s2943e
s29439
s2943c
s2945d
s2945b
s29458
s2945a
s2945f
s29456
s29457
s2945e
s29459
s2945c
s2942d
s2942b
s29428
s2942a
s2942f
s29426
s29427
s2942e
s29429
s2942c
s2940d
s2940b
s29408
s2940a
s2940f
s29406
s29407
s2940e
s29409
s2940c
s2c3
s2c5
s2c2
s2c0
s2c1
s2c4
s2c33
s2c55
s2c22
s2c00
s2c11
s2c44
s2c35
s2c32
s2c30
s2c31
s2c34
s2c52
s2c50
s2c51
s2c54
s2c20
s2c21
s2c24
s2c01
s2c04
s2c14
s2c53
s2c02
s2c41
s2c23
s2c25
s2c03
s2c05
s2c13
s2c15
s2c12
s2c10
s2c43
s2c45
s2c42
s2c40
s2c3d
s2c3b
s2c38
s2c3a
s2c3f
s2c36
s2c37
s2c3e
s2c39
s2c3c
s2c5d
s2c5b
s2c58
s2c5a
s2c5f
s2c56
s2c57
s2c5e
s2c59
s2c5c
s2c2d
s2c2b
s2c28
s2c2a
s2c2f
s2c26
s2c27
s2c2e
s2c29
s2c2c
s2c0d
s2c0b
s2c08
s2c0a
s2c0f
s2c06
s2c07
s2c0e
s2c09
s2c0c
s2c1d
s2c1b
s2c18
s2c1a
s2c1f
s2c16
s2c17
s2c1e
s2c19
s2c1c
s2c4d
s2c4b
s2c48
s2c4a
s2c4f
s2c46
s2c47
s2c4e
s2c49
s2c4c
s2c355
s2c322
s2c300
s2c311
s2c344
s2c333
s2c33d
s2c33b
s2c338
s2c335
s2c332
s2c330
s2c33a
s2c33f
s2c331
s2c336
s2c334
s2c337
s2c33e
s2c339
s2c33c
s2c553
s2c55d
s2c55b
s2c558
s2c555
s2c552
s2c550
s2c55a
s2c55f
s2c551
s2c556
s2c554
s2c557
s2c55e
s2c559
s2c55c
s2c223
s2c22d
s2c22b
s2c228
s2c225
s2c222
s2c220
s2c22a
s2c22f
s2c221
s2c226
s2c224
s2c227
s2c22e
s2c229
s2c22c
s2c003
s2c00d
s2c00b
s2c008
s2c005
s2c002
s2c000
s2c00a
s2c00f
s2c001
s2c006
s2c004
s2c007
s2c00e
s2c009
s2c00c
s2c113
s2c11d
s2c11b
s2c118
s2c115
s2c112
s2c110
s2c11a
s2c11f
s2c111
s2c116
s2c114
s2c117
s2c11e
s2c119
s2c11c
s2c443
s2c44d
s2c44b
s2c448
s2c445
s2c442
s2c440
s2c44a
s2c44f
s2c441
s2c446
s2c444
s2c447
s2c44e
s2c449
s2c44c
s2c353
s2c35d
s2c35b
s2c358
s2c352
s2c350
s2c35a
s2c35f
s2c351
s2c356
s2c354
s2c357
s2c35e
s2c359
s2c35c
s2c323
s2c32d
s2c32b
s2c328
s2c325
s2c320
s2c32a
s2c32f
s2c321
s2c326
s2c324
s2c327
s2c32e
s2c329
s2c32c
s2c303
s2c30d
s2c30b
s2c308
s2c305
s2c302
s2c30a
s2c30f
s2c301
s2c306
s2c304
s2c307
s2c30e
s2c309
s2c30c
s2c313
s2c31d
s2c31b
s2c318
s2c315
s2c312
s2c310
s2c31a
s2c31f
s2c316
s2c314
s2c317
s2c31e
s2c319
s2c31c
s2c343
s2c34d
s2c34b
s2c348
s2c345
s2c342
s2c340
s2c34a
s2c34f
s2c341
s2c346
s2c347
s2c34e
s2c349
s2c34c
s2c533
s2c522
s2c500
s2c511
s2c544
s2c535
s2c532
s2c530
s2c531
s2c534
s2c233
s2c255
s2c200
s2c211
s2c244
s2c235
s2c232
s2c230
s2c231
s2c234
s2c252
s2c250
s2c251
s2c254
s2c253
s2c033
s2c055
s2c022
s2c011
s2c044
s2c035
s2c032
s2c030
s2c031
s2c034
s2c052
s2c050
s2c051
s2c054
s2c020
s2c021
s2c024
s2c053
s2c133
s2c155
s2c122
s2c100
s2c144
s2c135
s2c132
s2c130
s2c131
s2c134
s2c152
s2c150
s2c151
s2c154
s2c120
s2c121
s2c124
s2c101
s2c104
s2c153
s2c102
s2c123
s2c125
s2c103
s2c105
s2c433
s2c455
s2c422
s2c400
s2c411
s2c435
s2c432
s2c430
s2c431
s2c434
s2c452
s2c450
s2c451
s2c454
s2c420
s2c421
s2c424
s2c401
s2c404
s2c414
s2c453
s2c402
s2c423
s2c425
s2c403
s2c405
s2c523
s2c52d
s2c52b
s2c528
s2c525
s2c520
s2c52a
s2c52f
s2c521
s2c526
s2c524
s2c527
s2c52e
s2c529
s2c52c
s2c503
s2c50d
s2c50b
s2c508
s2c505
s2c502
s2c50a
s2c50f
s2c501
s2c506
s2c504
s2c507
s2c50e
s2c509
s2c50c
s2c513
s2c51d
s2c51b
s2c518
s2c515
s2c512
s2c510
s2c51a
s2c51f
s2c516
s2c514
s2c517
s2c51e
s2c519
s2c51c
s2c543
s2c54d
s2c54b
s2c548
s2c545
s2c542
s2c540
s2c54a
s2c54f
s2c541
s2c546
s2c547
s2c54e
s2c549
s2c54c
s2c203
s2c20d
s2c20b
s2c208
s2c205
s2c202
s2c20a
s2c20f
s2c201
s2c206
s2c204
s2c207
s2c20e
s2c209
s2c20c
s2c213
s2c21d
s2c21b
s2c218
s2c215
s2c212
s2c210
s2c21a
s2c21f
s2c216
s2c214
s2c217
s2c21e
s2c219
s2c21c
s2c243
s2c24d
s2c24b
s2c248
s2c245
s2c242
s2c240
s2c24a
s2c24f
s2c241
s2c246
s2c247
s2c24e
s2c249
s2c24c
s2c013
s2c01d
s2c01b
s2c018
s2c015
s2c012
s2c010
s2c01a
s2c01f
s2c016
s2c014
s2c017
s2c01e
s2c019
s2c01c
s2c043
s2c04d
s2c04b
s2c048
s2c045
s2c042
s2c040
s2c04a
s2c04f
s2c041
s2c046
s2c047
s2c04e
s2c049
s2c04c
s2c143
s2c14d
s2c14b
s2c148
s2c145
s2c142
s2c140
s2c14a
s2c14f
s2c141
s2c146
s2c147
s2c14e
s2c149
s2c14c
s2c53d
s2c53b
s2c538
s2c53a
s2c53f
s2c536
s2c537
s2c53e
s2c539
s2c53c
s2c023
s2c02d
s2c02b
s2c028
s2c025
s2c02a
s2c02f
s2c026
s2c027
s2c02e
s2c029
s2c02c
s2c413
s2c41d
s2c41b
s2c418
s2c415
s2c412
s2c410
s2c41a
s2c41f
s2c416
s2c417
s2c41e
s2c419
s2c41c
s2c23d
s2c23b
s2c238
s2c23a
s2c23f
s2c236
s2c237
s2c23e
s2c239
s2c23c
s2c25d
s2c25b
s2c258
s2c25a
s2c25f
s2c256
s2c257
s2c25e
s2c259
s2c25c
s2c03d
s2c03b
s2c038
s2c03a
s2c03f
s2c036
s2c037
s2c03e
s2c039
s2c03c
s2c05d
s2c05b
s2c058
s2c05a
s2c05f
s2c056
s2c057
s2c05e
s2c059
s2c05c
s2c13d
s2c13b
s2c138
s2c13a
s2c13f
s2c136
s2c137
s2c13e
s2c139
s2c13c
s2c15d
s2c15b
s2c158
s2c15a
s2c15f
s2c156
s2c157
s2c15e
s2c159
s2c15c
s2c12d
s2c12b
s2c128
s2c12a
s2c12f
s2c126
s2c127
s2c12e
s2c129
s2c12c
s2c10d
s2c10b
s2c108
s2c10a
s2c10f
s2c106
s2c107
s2c10e
s2c109
s2c10c
s2c43d
s2c43b
s2c438
s2c43a
s2c43f
s2c436
s2c437
s2c43e
s2c439
s2c43c
s2c45d
s2c45b
s2c458
s2c45a
s2c45f
s2c456
s2c457
s2c45e
s2c459
s2c45c
s2c42d
s2c42b
s2c428
s2c42a
s2c42f
s2c426
s2c427
s2c42e
s2c429
s2c42c
s2c40d
s2c40b
s2c408
s2c40a
s2c40f
s2c406
s2c407
s2c40e
s2c409
s2c40c
s1d3
s1d5
s1d2
s1d0
s1d1
s1d4
s1d33
s1d55
s1d22
s1d00
s1d11
s1d44
s1d35
s1d32
s1d30
s1d31
s1d34
s1d52
s1d50
s1d51
s1d54
s1d20
s1d21
s1d24
s1d01
s1d04
s1d14
s1d53
s1d02
s1d41
s1d23
s1d25
s1d03
s1d05
s1d13
s1d15
s1d12
s1d10
s1d43
s1d45
s1d42
s1d40
s1d3d
s1d3b
s1d38
s1d3a
s1d3f
s1d36
s1d37
s1d3e
s1d39
s1d3c
s1d5d
s1d5b
s1d58
s1d5a
s1d5f
s1d56
s1d57
s1d5e
s1d59
s1d5c
s1d2d
s1d2b
s1d28
s1d2a
s1d2f
s1d26
s1d27
s1d2e
s1d29
s1d2c
s1d0d
s1d0b
s1d08
s1d0a
s1d0f
s1d06
s1d07
s1d0e
s1d09
s1d0c
s1d1d
s1d1b
s1d18
s1d1a
s1d1f
s1d16
s1d17
s1d1e
s1d19
s1d1c
s1d4d
s1d4b
s1d48
s1d4a
s1d4f
s1d46
s1d47
s1d4e
s1d49
s1d4c
s1d355
s1d322
s1d300
s1d311
s1d344
s1d333
s1d33d
s1d33b
s1d338
s1d335
s1d332
s1d330
s1d33a
s1d33f
s1d331
s1d336
s1d334
s1d337
s1d33e
s1d339
s1d33c
s1d553
s1d55d
s1d55b
s1d558
s1d555
s1d552
s1d550
s1d55a
s1d55f
s1d551
s1d556
s1d554
s1d557
s1d55e
s1d559
s1d55c
s1d223
s1d22d
s1d22b
s1d228
s1d225
s1d222
s1d220
s1d22a
s1d22f
s1d221
s1d226
s1d224
s1d227
s1d22e
s1d229
s1d22c
s1d003
s1d00d
s1d00b
s1d008
s1d005
s1d002
s1d000
s1d00a
s1d00f
s1d001
s1d006
s1d004
s1d007
s1d00e
s1d009
s1d00c
s1d113
s1d11d
s1d11b
s1d118
s1d115
s1d112
s1d110
s1d11a
s1d11f
s1d111
s1d116
s1d114
s1d117
s1d11e
s1d119
s1d11c
s1d443
s1d44d
s1d44b
s1d448
s1d445
s1d442
s1d440
s1d44a
s1d44f
s1d441
s1d446
s1d444
s1d447
s1d44e
s1d449
s1d44c
s1d353
s1d35d
s1d35b
s1d358
s1d352
s1d350
s1d35a
s1d35f
s1d351
s1d356
s1d354
s1d357
s1d35e
s1d359
s1d35c
s1d323
s1d32d
s1d32b
s1d328
s1d325
s1d320
s1d32a
s1d32f
s1d321
s1d326
s1d324
s1d327
s1d32e
s1d329
s1d32c
s1d303
s1d30d
s1d30b
s1d308
s1d305
s1d302
s1d30a
s1d30f
s1d301
s1d306
s1d304
s1d307
s1d30e
s1d309
s1d30c
s1d313
s1d31d
s1d31b
s1d318
s1d315
s1d312
s1d310
s1d31a
s1d31f
s1d316
s1d314
s1d317
s1d31e
s1d319
s1d31c
s1d343
s1d34d
s1d34b
s1d348
s1d345
s1d342
s1d340
s1d34a
s1d34f
s1d341
s1d346
s1d347
s1d34e
s1d349
s1d34c
s1d533
s1d522
s1d500
s1d511
s1d544
s1d535
s1d532
s1d530
s1d531
s1d534
s1d233
s1d255
s1d200
s1d211
s1d244
s1d235
s1d232
s1d230
s1d231
s1d234
s1d252
s1d250
s1d251
s1d254
s1d253
s1d033
s1d055
s1d022
s1d011
s1d044
s1d035
s1d032
s1d030
s1d031
s1d034
s1d052
s1d050
s1d051
s1d054
s1d020
s1d021
s1d024
s1d053
s1d133
s1d155
s1d122
s1d100
s1d144
s1d135
s1d132
s1d130
s1d131
s1d134
s1d152
s1d150
s1d151
s1d154
s1d120
s1d121
s1d124
s1d101
s1d104
s1d153
s1d102
s1d123
s1d125
s1d103
s1d105
s1d433
s1d455
s1d422
s1d400
s1d411
s1d435
s1d432
s1d430
s1d431
s1d434
s1d452
s1d450
s1d451
s1d454
s1d420
s1d421
s1d424
s1d401
s1d404
s1d414
s1d453
s1d402
s1d423
s1d425
s1d403
s1d405
s1d523
s1d52d
s1d52b
s1d528
s1d525
s1d520
s1d52a
s1d52f
s1d521
s1d526
s1d524
s1d527
s1d52e
s1d529
s1d52c
s1d503
s1d50d
s1d50b
s1d508
s1d505
s1d502
s1d50a
s1d50f
s1d501
s1d506
s1d504
s1d507
s1d50e
s1d509
s1d50c
s1d513
s1d51d
s1d51b
s1d518
s1d515
s1d512
s1d510
s1d51a
s1d51f
s1d516
s1d514
s1d517
s1d51e
s1d519
s1d51c
s1d543
s1d54d
s1d54b
s1d548
s1d545
s1d542
s1d540
s1d54a
s1d54f
s1d541
s1d546
s1d547
s1d54e
s1d549
s1d54c
s1d203
s1d20d
s1d20b
s1d208
s1d205
s1d202
s1d20a
s1d20f
s1d201
s1d206
s1d204
s1d207
s1d20e
s1d209
s1d20c
s1d213
s1d21d
s1d21b
s1d218
s1d215
s1d212
s1d210
s1d21a
s1d21f
s1d216
s1d214
s1d217
s1d21e
s1d219
s1d21c
s1d243
s1d24d
s1d24b
s1d248
s1d245
s1d242
s1d240
s1d24a
s1d24f
s1d241
s1d246
s1d247
s1d24e
s1d249
s1d24c
s1d013
s1d01d
s1d01b
s1d018
s1d015
s1d012
s1d010
s1d01a
s1d01f
s1d016
s1d014
s1d017
s1d01e
s1d019
s1d01c
s1d043
s1d04d
s1d04b
s1d048
s1d045
s1d042
s1d040
s1d04a
s1d04f
s1d041
s1d046
s1d047
s1d04e
s1d049
s1d04c
s1d143
s1d14d
s1d14b
s1d148
s1d145
s1d142
s1d140
s1d14a
s1d14f
s1d141
s1d146
s1d147
s1d14e
s1d149
s1d14c
s1d53d
s1d53b
s1d538
s1d53a
s1d53f
s1d536
s1d537
s1d53e
s1d539
s1d53c
s1d023
s1d02d
s1d02b
s1d028
s1d025
s1d02a
s1d02f
s1d026
s1d027
s1d02e
s1d029
s1d02c
s1d413
s1d41d
s1d41b
s1d418
s1d415
s1d412
s1d410
s1d41a
s1d41f
s1d416
s1d417
s1d41e
s1d419
s1d41c
s1d23d
s1d23b
s1d238
s1d23a
s1d23f
s1d236
s1d237
s1d23e
s1d239
s1d23c
s1d25d
s1d25b
s1d258
s1d25a
s1d25f
s1d256
s1d257
s1d25e
s1d259
s1d25c
s1d03d
s1d03b
s1d038
s1d03a
s1d03f
s1d036
s1d037
s1d03e
s1d039
s1d03c
s1d05d
s1d05b
s1d058
s1d05a
s1d05f
s1d056
s1d057
s1d05e
s1d059
s1d05c
s1d13d
s1d13b
s1d138
s1d13a
s1d13f
s1d136
s1d137
s1d13e
s1d139
s1d13c
s1d15d
s1d15b
s1d158
s1d15a
s1d15f
s1d156
s1d157
s1d15e
s1d159
s1d15c
s1d12d
s1d12b
s1d128
s1d12a
s1d12f
s1d126
s1d127
s1d12e
s1d129
s1d12c
s1d10d
s1d10b
s1d108
s1d10a
s1d10f
s1d106
s1d107
s1d10e
s1d109
s1d10c
s1d43d
s1d43b
s1d438
s1d43a
s1d43f
s1d436
s1d437
s1d43e
s1d439
s1d43c
s1d45d
s1d45b
s1d458
s1d45a
s1d45f
s1d456
s1d457
s1d45e
s1d459
s1d45c
s1d42d
s1d42b
s1d428
s1d42a
s1d42f
s1d426
s1d427
s1d42e
s1d429
s1d42c
s1d40d
s1d40b
s1d408
s1d40a
s1d40f
s1d406
s1d407
s1d40e
s1d409
s1d40c
s1b3
s1b5
s1b2
s1b0
s1b1
s1b4
s1b33
s1b55
s1b22
s1b00
s1b11
s1b44
s1b35
s1b32
s1b30
s1b31
s1b34
s1b52
s1b50
s1b51
s1b54
s1b20
s1b21
s1b24
s1b01
s1b04
s1b14
s1b53
s1b02
s1b41
s1b23
s1b25
s1b03
s1b05
s1b13
s1b15
s1b12
s1b10
s1b43
s1b45
s1b42
s1b40
s1b3d
s1b3b
s1b38
s1b3a
s1b3f
s1b36
s1b37
s1b3e
s1b39
s1b3c
s1b5d
s1b5b
s1b58
s1b5a
s1b5f
s1b56
s1b57
s1b5e
s1b59
s1b5c
s1b2d
s1b2b
s1b28
s1b2a
s1b2f
s1b26
s1b27
s1b2e
s1b29
s1b2c
s1b0d
s1b0b
s1b08
s1b0a
s1b0f
s1b06
s1b07
s1b0e
s1b09
s1b0c
s1b1d
s1b1b
s1b18
s1b1a
s1b1f
s1b16
s1b17
s1b1e
s1b19
s1b1c
s1b4d
s1b4b
s1b48
s1b4a
s1b4f
s1b46
s1b47
s1b4e
s1b49
s1b4c
s1b355
s1b322
s1b300
s1b311
s1b344
s1b333
s1b33d
s1b33b
s1b338
s1b335
s1b332
s1b330
s1b33a
s1b33f
s1b331
s1b336
s1b334
s1b337
s1b33e
s1b339
s1b33c
s1b553
s1b55d
s1b55b
s1b558
s1b555
s1b552
s1b550
s1b55a
s1b55f
s1b551
s1b556
s1b554
s1b557
s1b55e
s1b559
s1b55c
s1b223
s1b22d
s1b22b
s1b228
s1b225
s1b222
s1b220
s1b22a
s1b22f
s1b221
s1b226
s1b224
s1b227
s1b22e
s1b229
s1b22c
s1b003
s1b00d
s1b00b
s1b008
s1b005
s1b002
s1b000
s1b00a
s1b00f
s1b001
s1b006
s1b004
s1b007
s1b00e
s1b009
s1b00c
s1b113
s1b11d
s1b11b
s1b118
s1b115
s1b112
s1b110
s1b11a
s1b11f
s1b111
s1b116
s1b114
s1b117
s1b11e
s1b119
s1b11c
s1b443
s1b44d
s1b44b
s1b448
s1b445
s1b442
s1b440
s1b44a
s1b44f
s1b441
s1b446
s1b444
s1b447
s1b44e
s1b449
s1b44c
s1b353
s1b35d
s1b35b
s1b358
s1b352
s1b350
s1b35a
s1b35f
s1b351
s1b356
s1b354
s1b357
s1b35e
s1b359
s1b35c
s1b323
s1b32d
s1b32b
s1b328
s1b325
s1b320
s1b32a
s1b32f
s1b321
s1b326
s1b324
s1b327
s1b32e
s1b329
s1b32c
s1b303
s1b30d
s1b30b
s1b308
s1b305
s1b302
s1b30a
s1b30f
s1b301
s1b306
s1b304
s1b307
s1b30e
s1b309
s1b30c
s1b313
s1b31d
s1b31b
s1b318
s1b315
s1b312
s1b310
s1b31a
s1b31f
s1b316
s1b314
s1b317
s1b31e
s1b319
s1b31c
s1b343
s1b34d
s1b34b
s1b348
s1b345
s1b342
s1b340
s1b34a
s1b34f
s1b341
s1b346
s1b347
s1b34e
s1b349
s1b34c
s1b533
s1b522
s1b500
s1b511
s1b544
s1b535
s1b532
s1b530
s1b531
s1b534
s1b233
s1b255
s1b200
s1b211
s1b244
s1b235
s1b232
s1b230
s1b231
s1b234
s1b252
s1b250
s1b251
s1b254
s1b253
s1b033
s1b055
s1b022
s1b011
s1b044
s1b035
s1b032
s1b030
s1b031
s1b034
s1b052
s1b050
s1b051
s1b054
s1b020
s1b021
s1b024
s1b053
s1b133
s1b155
s1b122
s1b100
s1b144
s1b135
s1b132
s1b130
s1b131
s1b134
s1b152
s1b150
s1b151
s1b154
s1b120
s1b121
s1b124
s1b101
s1b104
s1b153
s1b102
s1b123
s1b125
s1b103
s1b105
s1b433
s1b455
s1b422
s1b400
s1b411
s1b435
s1b432
s1b430
s1b431
s1b434
s1b452
s1b450
s1b451
s1b454
s1b420
s1b421
s1b424
s1b401
s1b404
s1b414
s1b453
s1b402
s1b423
s1b425
s1b403
s1b405
s1b523
s1b52d
s1b52b
s1b528
s1b525
s1b520
s1b52a
s1b52f
s1b521
s1b526
s1b524
s1b527
s1b52e
s1b529
s1b52c
s1b503
s1b50d
s1b50b
s1b508
s1b505
s1b502
s1b50a
s1b50f
s1b501
s1b506
s1b504
s1b507
s1b50e
s1b509
s1b50c
s1b513
s1b51d
s1b51b
s1b518
s1b515
s1b512
s1b510
s1b51a
s1b51f
s1b516
s1b514
s1b517
s1b51e
s1b519
s1b51c
s1b543
s1b54d
s1b54b
s1b548
s1b545
s1b542
s1b540
s1b54a
s1b54f
s1b541
s1b546
s1b547
s1b54e
s1b549
s1b54c
s1b203
s1b20d
s1b20b
s1b208
s1b205
s1b202
s1b20a
s1b20f
s1b201
s1b206
s1b204
s1b207
s1b20e
s1b209
s1b20c
s1b213
s1b21d
s1b21b
s1b218
s1b215
s1b212
s1b210
s1b21a
s1b21f
s1b216
s1b214
s1b217
s1b21e
s1b219
s1b21c
s1b243
s1b24d
s1b24b
s1b248
s1b245
s1b242
s1b240
s1b24a
s1b24f
s1b241
s1b246
s1b247
s1b24e
s1b249
s1b24c
s1b013
s1b01d
s1b01b
s1b018
s1b015
s1b012
s1b010
s1b01a
s1b01f
s1b016
s1b014
s1b017
s1b01e
s1b019
s1b01c
s1b043
s1b04d
s1b04b
s1b048
s1b045
s1b042
s1b040
s1b04a
s1b04f
s1b041
s1b046
s1b047
s1b04e
s1b049
s1b04c
s1b143
s1b14d
s1b14b
s1b148
s1b145
s1b142
s1b140
s1b14a
s1b14f
s1b141
s1b146
s1b147
s1b14e
s1b149
s1b14c
s1b53d
s1b53b
s1b538
s1b53a
s1b53f
s1b536
s1b537
s1b53e
s1b539
s1b53c
s1b023
s1b02d
s1b02b
s1b028
s1b025
s1b02a
s1b02f
s1b026
s1b027
s1b02e
s1b029
s1b02c
s1b413
s1b41d
s1b41b
s1b418
s1b415
s1b412
s1b410
s1b41a
s1b41f
s1b416
s1b417
s1b41e
s1b419
s1b41c
s1b23d
s1b23b
s1b238
s1b23a
s1b23f
s1b236
s1b237
s1b23e
s1b239
s1b23c
s1b25d
s1b25b
s1b258
s1b25a
s1b25f
s1b256
s1b257
s1b25e
s1b259
s1b25c
s1b03d
s1b03b
s1b038
s1b03a
s1b03f
s1b036
s1b037
s1b03e
s1b039
s1b03c
s1b05d
s1b05b
s1b058
s1b05a
s1b05f
s1b056
s1b057
s1b05e
s1b059
s1b05c
s1b13d
s1b13b
s1b138
s1b13a
s1b13f
s1b136
s1b137
s1b13e
s1b139
s1b13c
s1b15d
s1b15b
s1b158
s1b15a
s1b15f
s1b156
s1b157
s1b15e
s1b159
s1b15c
s1b12d
s1b12b
s1b128
s1b12a
s1b12f
s1b126
s1b127
s1b12e
s1b129
s1b12c
s1b10d
s1b10b
s1b108
s1b10a
s1b10f
s1b106
s1b107
s1b10e
s1b109
s1b10c
s1b43d
s1b43b
s1b438
s1b43a
s1b43f
s1b436
s1b437
s1b43e
s1b439
s1b43c
s1b45d
s1b45b
s1b458
s1b45a
s1b45f
s1b456
s1b457
s1b45e
s1b459
s1b45c
s1b42d
s1b42b
s1b428
s1b42a
s1b42f
s1b426
s1b427
s1b42e
s1b429
s1b42c
s1b40d
s1b40b
s1b408
s1b40a
s1b40f
s1b406
s1b407
s1b40e
s1b409
s1b40c
s183
s185
s182
s180
s181
s184
s1833
s1855
s1822
s1800
s1811
s1844
s1835
s1832
s1830
s1831
s1834
s1852
s1850
s1851
s1854
s1820
s1821
s1824
s1801
s1804
s1814
s1853
s1802
s1841
s1823
s1825
s1803
s1805
s1813
s1815
s1812
s1810
s1843
s1845
s1842
s1840
s183d
s183b
s1838
s183a
s183f
s1836
s1837
s183e
s1839
s183c
s185d
s185b
s1858
s185a
s185f
s1856
s1857
s185e
s1859
s185c
s182d
s182b
s1828
s182a
s182f
s1826
s1827
s182e
s1829
s182c
s180d
s180b
s1808
s180a
s180f
s1806
s1807
s180e
s1809
s180c
s181d
s181b
s1818
s181a
s181f
s1816
s1817
s181e
s1819
s181c
s184d
s184b
s1848
s184a
s184f
s1846
s1847
s184e
s1849
s184c
s18355
s18322
s18300
s18311
s18344
s18333
s1833d
s1833b
s18338
s18335
s18332
s18330
s1833a
s1833f
s18331
s18336
s18334
s18337
s1833e
s18339
s1833c
s18553
s1855d
s1855b
s18558
s18555
s18552
s18550
s1855a
s1855f
s18551
s18556
s18554
s18557
s1855e
s18559
s1855c
s18223
s1822d
s1822b
s18228
s18225
s18222
s18220
s1822a
s1822f
s18221
s18226
s18224
s18227
s1822e
s18229
s1822c
s18003
s1800d
s1800b
s18008
s18005
s18002
s18000
s1800a
s1800f
s18001
s18006
s18004
s18007
s1800e
s18009
s1800c
s18113
s1811d
s1811b
s18118
s18115
s18112
s18110
s1811a
s1811f
s18111
s18116
s18114
s18117
s1811e
s18119
s1811c
s18443
s1844d
s1844b
s18448
s18445
s18442
s18440
s1844a
s1844f
s18441
s18446
s18444
s18447
s1844e
s18449
s1844c
s18353
s1835d
s1835b
s18358
s18352
s18350
s1835a
s1835f
s18351
s18356
s18354
s18357
s1835e
s18359
s1835c
s18323
s1832d
s1832b
s18328
s18325
s18320
s1832a
s1832f
s18321
s18326
s18324
s18327
s1832e
s18329
s1832c
s18303
s1830d
s1830b
s18308
s18305
s18302
s1830a
s1830f
s18301
s18306
s18304
s18307
s1830e
s18309
s1830c
s18313
s1831d
s1831b
s18318
s18315
s18312
s18310
s1831a
s1831f
s18316
s18314
s18317
s1831e
s18319
s1831c
s18343
s1834d
s1834b
s18348
s18345
s18342
s18340
s1834a
s1834f
s18341
s18346
s18347
s1834e
s18349
s1834c
s18533
s18522
s18500
s18511
s18544
s18535
s18532
s18530
s18531
s18534
s18233
s18255
s18200
s18211
s18244
s18235
s18232
s18230
s18231
s18234
s18252
s18250
s18251
s18254
s18253
s18033
s18055
s18022
s18011
s18044
s18035
s18032
s18030
s18031
s18034
s18052
s18050
s18051
s18054
s18020
s18021
s18024
s18053
s18133
s18155
s18122
s18100
s18144
s18135
s18132
s18130
s18131
s18134
s18152
s18150
s18151
s18154
s18120
s18121
s18124
s18101
s18104
s18153
s18102
s18123
s18125
s18103
s18105
s18433
s18455
s18422
s18400
s18411
s18435
s18432
s18430
s18431
s18434
s18452
s18450
s18451
s18454
s18420
s18421
s18424
s18401
s18404
s18414
s18453
s18402
s18423
s18425
s18403
s18405
s18523
s1852d
s1852b
s18528
s18525
s18520
s1852a
s1852f
s18521
s18526
s18524
s18527
s1852e
s18529
s1852c
s18503
s1850d
s1850b
s18508
s18505
s18502
s1850a
s1850f
s18501
s18506
s18504
s18507
s1850e
s18509
s1850c
s18513
s1851d
s1851b
s18518
s18515
s18512
s18510
s1851a
s1851f
s18516
s18514
s18517
s1851e
s18519
s1851c
s18543
s1854d
s1854b
s18548
s18545
s18542
s18540
s1854a
s1854f
s18541
s18546
s18547
s1854e
s18549
s1854c
s18203
s1820d
s1820b
s18208
s18205
s18202
s1820a
s1820f
s18201
s18206
s18204
s18207
s1820e
s18209
s1820c
s18213
s1821d
s1821b
s18218
s18215
s18212
s18210
s1821a
s1821f
s18216
s18214
s18217
s1821e
s18219
s1821c
s18243
s1824d
s1824b
s18248
s18245
s18242
s18240
s1824a
s1824f
s18241
s18246
s18247
s1824e
s18249
s1824c
s18013
s1801d
s1801b
s18018
s18015
s18012
s18010
s1801a
s1801f
s18016
s18014
s18017
s1801e
s18019
s1801c
s18043
s1804d
s1804b
s18048
s18045
s18042
s18040
s1804a
s1804f
s18041
s18046
s18047
s1804e
s18049
s1804c
s18143
s1814d
s1814b
s18148
s18145
s18142
s18140
s1814a
s1814f
s18141
s18146
s18147
s1814e
s18149
s1814c
s1853d
s1853b
s18538
s1853a
s1853f
s18536
s18537
s1853e
s18539
s1853c
s18023
s1802d
s1802b
s18028
s18025
s1802a
s1802f
s18026
s18027
s1802e
s18029
s1802c
s18413
s1841d
s1841b
s18418
s18415
s18412
s18410
s1841a
s1841f
s18416
s18417
s1841e
s18419
s1841c
s1823d
s1823b
s18238
s1823a
s1823f
s18236
s18237
s1823e
s18239
s1823c
s1825d
s1825b
s18258
s1825a
s1825f
s18256
s18257
s1825e
s18259
s1825c
s1803d
s1803b
s18038
s1803a
s1803f
s18036
s18037
s1803e
s18039
s1803c
s1805d
s1805b
s18058
s1805a
s1805f
s18056
s18057
s1805e
s18059
s1805c
s1813d
s1813b
s18138
s1813a
s1813f
s18136
s18137
s1813e
s18139
s1813c
s1815d
s1815b
s18158
s1815a
s1815f
s18156
s18157
s1815e
s18159
s1815c
s1812d
s1812b
s18128
s1812a
s1812f
s18126
s18127
s1812e
s18129
s1812c
s1810d
s1810b
s18108
s1810a
s1810f
s18106
s18107
s1810e
s18109
s1810c
s1843d
s1843b
s18438
s1843a
s1843f
s18436
s18437
s1843e
s18439
s1843c
s1845d
s1845b
s18458
s1845a
s1845f
s18456
s18457
s1845e
s18459
s1845c
s1842d
s1842b
s18428
s1842a
s1842f
s18426
s18427
s1842e
s18429
s1842c
s1840d
s1840b
s18408
s1840a
s1840f
s18406
s18407
s1840e
s18409
s1840c
s1a3
s1a5
s1a2
s1a0
s1a1
s1a4
s1a33
s1a55
s1a22
s1a00
s1a11
s1a44
s1a35
s1a32
s1a30
s1a31
s1a34
s1a52
s1a50
s1a51
s1a54
s1a20
s1a21
s1a24
s1a01
s1a04
s1a14
s1a53
s1a02
s1a41
s1a23
s1a25
s1a03
s1a05
s1a13
s1a15
s1a12
s1a10
s1a43
s1a45
s1a42
s1a40
s1a3d
s1a3b
s1a38
s1a3a
s1a3f
s1a36
s1a37
s1a3e
s1a39
s1a3c
s1a5d
s1a5b
s1a58
s1a5a
s1a5f
s1a56
s1a57
s1a5e
s1a59
s1a5c
s1a2d
s1a2b
s1a28
s1a2a
s1a2f
s1a26
s1a27
s1a2e
s1a29
s1a2c
s1a0d
s1a0b
s1a08
s1a0a
s1a0f
s1a06
s1a07
s1a0e
s1a09
s1a0c
s1a1d
s1a1b
s1a18
s1a1a
s1a1f
s1a16
s1a17
s1a1e
s1a19
s1a1c
s1a4d
s1a4b
s1a48
s1a4a
s1a4f
s1a46
s1a47
s1a4e
s1a49
s1a4c
s1a355
s1a322
s1a300
s1a311
s1a344
s1a333
s1a33d
s1a33b
s1a338
s1a335
s1a332
s1a330
s1a33a
s1a33f
s1a331
s1a336
s1a334
s1a337
s1a33e
s1a339
s1a33c
s1a553
s1a55d
s1a55b
s1a558
s1a555
s1a552
s1a550
s1a55a
s1a55f
s1a551
s1a556
s1a554
s1a557
s1a55e
s1a559
s1a55c
s1a223
s1a22d
s1a22b
s1a228
s1a225
s1a222
s1a220
s1a22a
s1a22f
s1a221
s1a226
s1a224
s1a227
s1a22e
s1a229
s1a22c
s1a003
s1a00d
s1a00b
s1a008
s1a005
s1a002
s1a000
s1a00a
s1a00f
s1a001
s1a006
s1a004
s1a007
s1a00e
s1a009
s1a00c
s1a113
s1a11d
s1a11b
s1a118
s1a115
s1a112
s1a110
s1a11a
s1a11f
s1a111
s1a116
s1a114
s1a117
s1a11e
s1a119
s1a11c
s1a443
s1a44d
s1a44b
s1a448
s1a445
s1a442
s1a440
s1a44a
s1a44f
s1a441
s1a446
s1a444
s1a447
s1a44e
s1a449
s1a44c
s1a353
s1a35d
s1a35b
s1a358
s1a352
s1a350
s1a35a
s1a35f
s1a351
s1a356
s1a354
s1a357
s1a35e
s1a359
s1a35c
s1a323
s1a32d
s1a32b
s1a328
s1a325
s1a320
s1a32a
s1a32f
s1a321
s1a326
s1a324
s1a327
s1a32e
s1a329
s1a32c
s1a303
s1a30d
s1a30b
s1a308
s1a305
s1a302
s1a30a
s1a30f
s1a301
s1a306
s1a304
s1a307
s1a30e
s1a309
s1a30c
s1a313
s1a31d
s1a31b
s1a318
s1a315
s1a312
s1a310
s1a31a
s1a31f
s1a316
s1a314
s1a317
s1a31e
s1a319
s1a31c
s1a343
s1a34d
s1a34b
s1a348
s1a345
s1a342
s1a340
s1a34a
s1a34f
s1a341
s1a346
s1a347
s1a34e
s1a349
s1a34c
s1a533
s1a522
s1a500
s1a511
s1a544
s1a535
s1a532
s1a530
s1a531
s1a534
s1a233
s1a255
s1a200
s1a211
s1a244
s1a235
s1a232
s1a230
s1a231
s1a234
s1a252
s1a250
s1a251
s1a254
s1a253
s1a033
s1a055
s1a022
s1a011
s1a044
s1a035
s1a032
s1a030
s1a031
s1a034
s1a052
s1a050
s1a051
s1a054
s1a020
s1a021
s1a024
s1a053
s1a133
s1a155
s1a122
s1a100
s1a144
s1a135
s1a132
s1a130
s1a131
s1a134
s1a152
s1a150
s1a151
s1a154
s1a120
s1a121
s1a124
s1a101
s1a104
s1a153
s1a102
s1a123
s1a125
s1a103
s1a105
s1a433
s1a455
s1a422
s1a400
s1a411
s1a435
s1a432
s1a430
s1a431
s1a434
s1a452
s1a450
s1a451
s1a454
s1a420
s1a421
s1a424
s1a401
s1a404
s1a414
s1a453
s1a402
s1a423
s1a425
s1a403
s1a405
s1a523
s1a52d
s1a52b
s1a528
s1a525
s1a520
s1a52a
s1a52f
s1a521
s1a526
s1a524
s1a527
s1a52e
s1a529
s1a52c
s1a503
s1a50d
s1a50b
s1a508
s1a505
s1a502
s1a50a
s1a50f
s1a501
s1a506
s1a504
s1a507
s1a50e
s1a509
s1a50c
s1a513
s1a51d
s1a51b
s1a518
s1a515
s1a512
s1a510
s1a51a
s1a51f
s1a516
s1a514
s1a517
s1a51e
s1a519
s1a51c
s1a543
s1a54d
s1a54b
s1a548
s1a545
s1a542
s1a540
s1a54a
s1a54f
s1a541
s1a546
s1a547
s1a54e
s1a549
s1a54c
s1a203
s1a20d
s1a20b
s1a208
s1a205
s1a202
s1a20a
s1a20f
s1a201
s1a206
s1a204
s1a207
s1a20e
s1a209
s1a20c
s1a213
s1a21d
s1a21b
s1a218
s1a215
s1a212
s1a210
s1a21a
s1a21f
s1a216
s1a214
s1a217
s1a21e
s1a219
s1a21c
s1a243
s1a24d
s1a24b
s1a248
s1a245
s1a242
s1a240
s1a24a
s1a24f
s1a241
s1a246
s1a247
s1a24e
s1a249
s1a24c
s1a013
s1a01d
s1a01b
s1a018
s1a015
s1a012
s1a010
s1a01a
s1a01f
s1a016
s1a014
s1a017
s1a01e
s1a019
s1a01c
s1a043
s1a04d
s1a04b
s1a048
s1a045
s1a042
s1a040
s1a04a
s1a04f
s1a041
s1a046
s1a047
s1a04e
s1a049
s1a04c
s1a143
s1a14d
s1a14b
s1a148
s1a145
s1a142
s1a140
s1a14a
s1a14f
s1a141
s1a146
s1a147
s1a14e
s1a149
s1a14c
s1a53d
s1a53b
s1a538
s1a53a
s1a53f
s1a536
s1a537
s1a53e
s1a539
s1a53c
s1a023
s1a02d
s1a02b
s1a028
s1a025
s1a02a
s1a02f
s1a026
s1a027
s1a02e
s1a029
s1a02c
s1a413
s1a41d
s1a41b
s1a418
s1a415
s1a412
s1a410
s1a41a
s1a41f
s1a416
s1a417
s1a41e
s1a419
s1a41c
s1a23d
s1a23b
s1a238
s1a23a
s1a23f
s1a236
s1a237
s1a23e
s1a239
s1a23c
s1a25d
s1a25b
s1a258
s1a25a
s1a25f
s1a256
s1a257
s1a25e
s1a259
s1a25c
s1a03d
s1a03b
s1a038
s1a03a
s1a03f
s1a036
s1a037
s1a03e
s1a039
s1a03c
s1a05d
s1a05b
s1a058
s1a05a
s1a05f
s1a056
s1a057
s1a05e
s1a059
s1a05c
s1a13d
s1a13b
s1a138
s1a13a
s1a13f
s1a136
s1a137
s1a13e
s1a139
s1a13c
s1a15d
s1a15b
s1a158
s1a15a
s1a15f
s1a156
s1a157
s1a15e
s1a159
s1a15c
s1a12d
s1a12b
s1a128
s1a12a
s1a12f
s1a126
s1a127
s1a12e
s1a129
s1a12c
s1a10d
s1a10b
s1a108
s1a10a
s1a10f
s1a106
s1a107
s1a10e
s1a109
s1a10c
s1a43d
s1a43b
s1a438
s1a43a
s1a43f
s1a436
s1a437
s1a43e
s1a439
s1a43c
s1a45d
s1a45b
s1a458
s1a45a
s1a45f
s1a456
s1a457
s1a45e
s1a459
s1a45c
s1a42d
s1a42b
s1a428
s1a42a
s1a42f
s1a426
s1a427
s1a42e
s1a429
s1a42c
s1a40d
s1a40b
s1a408
s1a40a
s1a40f
s1a406
s1a407
s1a40e
s1a409
s1a40c
s1f3
s1f5
s1f2
s1f0
s1f1
s1f4
s1f33
s1f55
s1f22
s1f00
s1f11
s1f44
s1f35
s1f32
s1f30
s1f31
s1f34
s1f52
s1f50
s1f51
s1f54
s1f20
s1f21
s1f24
s1f01
s1f04
s1f14
s1f53
s1f02
s1f41
s1f23
s1f25
s1f03
s1f05
s1f13
s1f15
s1f12
s1f10
s1f43
s1f45
s1f42
s1f40
s1f3d
s1f3b
s1f38
s1f3a
s1f3f
s1f36
s1f37
s1f3e
s1f39
s1f3c
s1f5d
s1f5b
s1f58
s1f5a
s1f5f
s1f56
s1f57
s1f5e
s1f59
s1f5c
s1f2d
s1f2b
s1f28
s1f2a
s1f2f
s1f26
s1f27
s1f2e
s1f29
s1f2c
s1f0d
s1f0b
s1f08
s1f0a
s1f0f
s1f06
s1f07
s1f0e
s1f09
s1f0c
s1f1d
s1f1b
s1f18
s1f1a
s1f1f
s1f16
s1f17
s1f1e
s1f19
s1f1c
s1f4d
s1f4b
s1f48
s1f4a
s1f4f
s1f46
s1f47
s1f4e
s1f49
s1f4c
s1f355
s1f322
s1f300
s1f311
s1f344
s1f333
s1f33d
s1f33b
s1f338
s1f335
s1f332
s1f330
s1f33a
s1f33f
s1f331
s1f336
s1f334
s1f337
s1f33e
s1f339
s1f33c
s1f553
s1f55d
s1f55b
s1f558
s1f555
s1f552
s1f550
s1f55a
s1f55f
s1f551
s1f556
s1f554
s1f557
s1f55e
s1f559
s1f55c
s1f223
s1f22d
s1f22b
s1f228
s1f225
s1f222
s1f220
s1f22a
s1f22f
s1f221
s1f226
s1f224
s1f227
s1f22e
s1f229
s1f22c
s1f003
s1f00d
s1f00b
s1f008
s1f005
s1f002
s1f000
s1f00a
s1f00f
s1f001
s1f006
s1f004
s1f007
s1f00e
s1f009
s1f00c
s1f113
s1f11d
s1f11b
s1f118
s1f115
s1f112
s1f110
s1f11a
s1f11f
s1f111
s1f116
s1f114
s1f117
s1f11e
s1f119
s1f11c
s1f443
s1f44d
s1f44b
s1f448
s1f445
s1f442
s1f440
s1f44a
s1f44f
s1f441
s1f446
s1f444
s1f447
s1f44e
s1f449
s1f44c
s1f353
s1f35d
s1f35b
s1f358
s1f352
s1f350
s1f35a
s1f35f
s1f351
s1f356
s1f354
s1f357
s1f35e
s1f359
s1f35c
s1f323
s1f32d
s1f32b
s1f328
s1f325
s1f320
s1f32a
s1f32f
s1f321
s1f326
s1f324
s1f327
s1f32e
s1f329
s1f32c
s1f303
s1f30d
s1f30b
s1f308
s1f305
s1f302
s1f30a
s1f30f
s1f301
s1f306
s1f304
s1f307
s1f30e
s1f309
s1f30c
s1f313
s1f31d
s1f31b
s1f318
s1f315
s1f312
s1f310
s1f31a
s1f31f
s1f316
s1f314
s1f317
s1f31e
s1f319
s1f31c
s1f343
s1f34d
s1f34b
s1f348
s1f345
s1f342
s1f340
s1f34a
s1f34f
s1f341
s1f346
s1f347
s1f34e
s1f349
s1f34c
s1f533
s1f522
s1f500
s1f511
s1f544
s1f535
s1f532
s1f530
s1f531
s1f534
s1f233
s1f255
s1f200
s1f211
s1f244
s1f235
s1f232
s1f230
s1f231
s1f234
s1f252
s1f250
s1f251
s1f254
s1f253
s1f033
s1f055
s1f022
s1f011
s1f044
s1f035
s1f032
s1f030
s1f031
s1f034
s1f052
s1f050
s1f051
s1f054
s1f020
s1f021
s1f024
s1f053
s1f133
s1f155
s1f122
s1f100
s1f144
s1f135
s1f132
s1f130
s1f131
s1f134
s1f152
s1f150
s1f151
s1f154
s1f120
s1f121
s1f124
s1f101
s1f104
s1f153
s1f102
s1f123
s1f125
s1f103
s1f105
s1f433
s1f455
s1f422
s1f400
s1f411
s1f435
s1f432
s1f430
s1f431
s1f434
s1f452
s1f450
s1f451
s1f454
s1f420
s1f421
s1f424
s1f401
s1f404
s1f414
s1f453
s1f402
s1f423
s1f425
s1f403
s1f405
s1f523
s1f52d
s1f52b
s1f528
s1f525
s1f520
s1f52a
s1f52f
s1f521
s1f526
s1f524
s1f527
s1f52e
s1f529
s1f52c
s1f503
s1f50d
s1f50b
s1f508
s1f505
s1f502
s1f50a
s1f50f
s1f501
s1f506
s1f504
s1f507
s1f50e
s1f509
s1f50c
s1f513
s1f51d
s1f51b
s1f518
s1f515
s1f512
s1f510
s1f51a
s1f51f
s1f516
s1f514
s1f517
s1f51e
s1f519
s1f51c
s1f543
s1f54d
s1f54b
s1f548
s1f545
s1f542
s1f540
s1f54a
s1f54f
s1f541
s1f546
s1f547
s1f54e
s1f549
s1f54c
s1f203
s1f20d
s1f20b
s1f208
s1f205
s1f202
s1f20a
s1f20f
s1f201
s1f206
s1f204
s1f207
s1f20e
s1f209
s1f20c
s1f213
s1f21d
s1f21b
s1f218
s1f215
s1f212
s1f210
s1f21a
s1f21f
s1f216
s1f214
s1f217
s1f21e
s1f219
s1f21c
s1f243
s1f24d
s1f24b
s1f248
s1f245
s1f242
s1f240
s1f24a
s1f24f
s1f241
s1f246
s1f247
s1f24e
s1f249
s1f24c
s1f013
s1f01d
s1f01b
s1f018
s1f015
s1f012
s1f010
s1f01a
s1f01f
s1f016
s1f014
s1f017
s1f01e
s1f019
s1f01c
s1f043
s1f04d
s1f04b
s1f048
s1f045
s1f042
s1f040
s1f04a
s1f04f
s1f041
s1f046
s1f047
s1f04e
s1f049
s1f04c
s1f143
s1f14d
s1f14b
s1f148
s1f145
s1f142
s1f140
s1f14a
s1f14f
s1f141
s1f146
s1f147
s1f14e
s1f149
s1f14c
s1f53d
s1f53b
s1f538
s1f53a
s1f53f
s1f536
s1f537
s1f53e
s1f539
s1f53c
s1f023
s1f02d
s1f02b
s1f028
s1f025
s1f02a
s1f02f
s1f026
s1f027
s1f02e
s1f029
s1f02c
s1f413
s1f41d
s1f41b
s1f418
s1f415
s1f412
s1f410
s1f41a
s1f41f
s1f416
s1f417
s1f41e
s1f419
s1f41c
s1f23d
s1f23b
s1f238
s1f23a
s1f23f
s1f236
s1f237
s1f23e
s1f239
s1f23c
s1f25d
s1f25b
s1f258
s1f25a
s1f25f
s1f256
s1f257
s1f25e
s1f259
s1f25c
s1f03d
s1f03b
s1f038
s1f03a
s1f03f
s1f036
s1f037
s1f03e
s1f039
s1f03c
s1f05d
s1f05b
s1f058
s1f05a
s1f05f
s1f056
s1f057
s1f05e
s1f059
s1f05c
s1f13d
s1f13b
s1f138
s1f13a
s1f13f
s1f136
s1f137
s1f13e
s1f139
s1f13c
s1f15d
s1f15b
s1f158
s1f15a
s1f15f
s1f156
s1f157
s1f15e
s1f159
s1f15c
s1f12d
s1f12b
s1f128
s1f12a
s1f12f
s1f126
s1f127
s1f12e
s1f129
s1f12c
s1f10d
s1f10b
s1f108
s1f10a
s1f10f
s1f106
s1f107
s1f10e
s1f109
s1f10c
s1f43d
s1f43b
s1f438
s1f43a
s1f43f
s1f436
s1f437
s1f43e
s1f439
s1f43c
s1f45d
s1f45b
s1f458
s1f45a
s1f45f
s1f456
s1f457
s1f45e
s1f459
s1f45c
s1f42d
s1f42b
s1f428
s1f42a
s1f42f
s1f426
s1f427
s1f42e
s1f429
s1f42c
s1f40d
s1f40b
s1f408
s1f40a
s1f40f
s1f406
s1f407
s1f40e
s1f409
s1f40c
s163
s165
s162
s160
s161
s164
s1633
s1655
s1622
s1600
s1611
s1644
s1635
s1632
s1630
s1631
s1634
s1652
s1650
s1651
s1654
s1620
s1621
s1624
s1601
s1604
s1614
s1653
s1602
s1641
s1623
s1625
s1603
s1605
s1613
s1615
s1612
s1610
s1643
s1645
s1642
s1640
s163d
s163b
s1638
s163a
s163f
s1636
s1637
s163e
s1639
s163c
s165d
s165b
s1658
s165a
s165f
s1656
s1657
s165e
s1659
s165c
s162d
s162b
s1628
s162a
s162f
s1626
s1627
s162e
s1629
s162c
s160d
s160b
s1608
s160a
s160f
s1606
s1607
s160e
s1609
s160c
s161d
s161b
s1618
s161a
s161f
s1616
s1617
s161e
s1619
s161c
s164d
s164b
s1648
s164a
s164f
s1646
s1647
s164e
s1649
s164c
s16355
s16322
s16300
s16311
s16344
s16333
s1633d
s1633b
s16338
s16335
s16332
s16330
s1633a
s1633f
s16331
s16336
s16334
s16337
s1633e
s16339
s1633c
s16553
s1655d
s1655b
s16558
s16555
s16552
s16550
s1655a
s1655f
s16551
s16556
s16554
s16557
s1655e
s16559
s1655c
s16223
s1622d
s1622b
s16228
s16225
s16222
s16220
s1622a
s1622f
s16221
s16226
s16224
s16227
s1622e
s16229
s1622c
s16003
s1600d
s1600b
s16008
s16005
s16002
s16000
s1600a
s1600f
s16001
s16006
s16004
s16007
s1600e
s16009
s1600c
s16113
s1611d
s1611b
s16118
s16115
s16112
s16110
s1611a
s1611f
s16111
s16116
s16114
s16117
s1611e
s16119
s1611c
s16443
s1644d
s1644b
s16448
s16445
s16442
s16440
s1644a
s1644f
s16441
s16446
s16444
s16447
s1644e
s16449
s1644c
s16353
s1635d
s1635b
s16358
s16352
s16350
s1635a
s1635f
s16351
s16356
s16354
s16357
s1635e
s16359
s1635c
s16323
s1632d
s1632b
s16328
s16325
s16320
s1632a
s1632f
s16321
s16326
s16324
s16327
s1632e
s16329
s1632c
s16303
s1630d
s1630b
s16308
s16305
s16302
s1630a
s1630f
s16301
s16306
s16304
s16307
s1630e
s16309
s1630c
s16313
s1631d
s1631b
s16318
s16315
s16312
s16310
s1631a
s1631f
s16316
s16314
s16317
s1631e
s16319
s1631c
s16343
s1634d
s1634b
s16348
s16345
s16342
s16340
s1634a
s1634f
s16341
s16346
s16347
s1634e
s16349
s1634c
s16533
s16522
s16500
s16511
s16544
s16535
s16532
s16530
s16531
s16534
s16233
s16255
s16200
s16211
s16244
s16235
s16232
s16230
s16231
s16234
s16252
s16250
s16251
s16254
s16253
s16033
s16055
s16022
s16011
s16044
s16035
s16032
s16030
s16031
s16034
s16052
s16050
s16051
s16054
s16020
s16021
s16024
s16053
s16133
s16155
s16122
s16100
s16144
s16135
s16132
s16130
s16131
s16134
s16152
s16150
s16151
s16154
s16120
s16121
s16124
s16101
s16104
s16153
s16102
s16123
s16125
s16103
s16105
s16433
s16455
s16422
s16400
s16411
s16435
s16432
s16430
s16431
s16434
s16452
s16450
s16451
s16454
s16420
s16421
s16424
s16401
s16404
s16414
s16453
s16402
s16423
s16425
s16403
s16405
s16523
s1652d
s1652b
s16528
s16525
s16520
s1652a
s1652f
s16521
s16526
s16524
s16527
s1652e
s16529
s1652c
s16503
s1650d
s1650b
s16508
s16505
s16502
s1650a
s1650f
s16501
s16506
s16504
s16507
s1650e
s16509
s1650c
s16513
s1651d
s1651b
s16518
s16515
s16512
s16510
s1651a
s1651f
s16516
s16514
s16517
s1651e
s16519
s1651c
s16543
s1654d
s1654b
s16548
s16545
s16542
s16540
s1654a
s1654f
s16541
s16546
s16547
s1654e
s16549
s1654c
s16203
s1620d
s1620b
s16208
s16205
s16202
s1620a
s1620f
s16201
s16206
s16204
s16207
s1620e
s16209
s1620c
s16213
s1621d
s1621b
s16218
s16215
s16212
s16210
s1621a
s1621f
s16216
s16214
s16217
s1621e
s16219
s1621c
s16243
s1624d
s1624b
s16248
s16245
s16242
s16240
s1624a
s1624f
s16241
s16246
s16247
s1624e
s16249
s1624c
s16013
s1601d
s1601b
s16018
s16015
s16012
s16010
s1601a
s1601f
s16016
s16014
s16017
s1601e
s16019
s1601c
s16043
s1604d
s1604b
s16048
s16045
s16042
s16040
s1604a
s1604f
s16041
s16046
s16047
s1604e
s16049
s1604c
s16143
s1614d
s1614b
s16148
s16145
s16142
s16140
s1614a
s1614f
s16141
s16146
s16147
s1614e
s16149
s1614c
s1653d
s1653b
s16538
s1653a
s1653f
s16536
s16537
s1653e
s16539
s1653c
s16023
s1602d
s1602b
s16028
s16025
s1602a
s1602f
s16026
s16027
s1602e
s16029
s1602c
s16413
s1641d
s1641b
s16418
s16415
s16412
s16410
s1641a
s1641f
s16416
s16417
s1641e
s16419
s1641c
s1623d
s1623b
s16238
s1623a
s1623f
s16236
s16237
s1623e
s16239
s1623c
s1625d
s1625b
s16258
s1625a
s1625f
s16256
s16257
s1625e
s16259
s1625c
s1603d
s1603b
s16038
s1603a
s1603f
s16036
s16037
s1603e
s16039
s1603c
s1605d
s1605b
s16058
s1605a
s1605f
s16056
s16057
s1605e
s16059
s1605c
s1613d
s1613b
s16138
s1613a
s1613f
s16136
s16137
s1613e
s16139
s1613c
s1615d
s1615b
s16158
s1615a
s1615f
s16156
s16157
s1615e
s16159
s1615c
s1612d
s1612b
s16128
s1612a
s1612f
s16126
s16127
s1612e
s16129
s1612c
s1610d
s1610b
s16108
s1610a
s1610f
s16106
s16107
s1610e
s16109
s1610c
s1643d
s1643b
s16438
s1643a
s1643f
s16436
s16437
s1643e
s16439
s1643c
s1645d
s1645b
s16458
s1645a
s1645f
s16456
s16457
s1645e
s16459
s1645c
s1642d
s1642b
s16428
s1642a
s1642f
s16426
s16427
s1642e
s16429
s1642c
s1640d
s1640b
s16408
s1640a
s1640f
s16406
s16407
s1640e
s16409
s1640c
s173
s175
s172
s170
s171
s174
s1733
s1755
s1722
s1700
s1711
s1744
s1735
s1732
s1730
s1731
s1734
s1752
s1750
s1751
s1754
s1720
s1721
s1724
s1701
s1704
s1714
s1753
s1702
s1741
s1723
s1725
s1703
s1705
s1713
s1715
s1712
s1710
s1743
s1745
s1742
s1740
s173d
s173b
s1738
s173a
s173f
s1736
s1737
s173e
s1739
s173c
s175d
s175b
s1758
s175a
s175f
s1756
s1757
s175e
s1759
s175c
s172d
s172b
s1728
s172a
s172f
s1726
s1727
s172e
s1729
s172c
s170d
s170b
s1708
s170a
s170f
s1706
s1707
s170e
s1709
s170c
s171d
s171b
s1718
s171a
s171f
s1716
s1717
s171e
s1719
s171c
s174d
s174b
s1748
s174a
s174f
s1746
s1747
s174e
s1749
s174c
s17355
s17322
s17300
s17311
s17344
s17333
s1733d
s1733b
s17338
s17335
s17332
s17330
s1733a
s1733f
s17331
s17336
s17334
s17337
s1733e
s17339
s1733c
s17553
s1755d
s1755b
s17558
s17555
s17552
s17550
s1755a
s1755f
s17551
s17556
s17554
s17557
s1755e
s17559
s1755c
s17223
s1722d
s1722b
s17228
s17225
s17222
s17220
s1722a
s1722f
s17221
s17226
s17224
s17227
s1722e
s17229
s1722c
s17003
s1700d
s1700b
s17008
s17005
s17002
s17000
s1700a
s1700f
s17001
s17006
s17004
s17007
s1700e
s17009
s1700c
s17113
s1711d
s1711b
s17118
s17115
s17112
s17110
s1711a
s1711f
s17111
s17116
s17114
s17117
s1711e
s17119
s1711c
s17443
s1744d
s1744b
s17448
s17445
s17442
s17440
s1744a
s1744f
s17441
s17446
s17444
s17447
s1744e
s17449
s1744c
s17353
s1735d
s1735b
s17358
s17352
s17350
s1735a
s1735f
s17351
s17356
s17354
s17357
s1735e
s17359
s1735c
s17323
s1732d
s1732b
s17328
s17325
s17320
s1732a
s1732f
s17321
s17326
s17324
s17327
s1732e
s17329
s1732c
s17303
s1730d
s1730b
s17308
s17305
s17302
s1730a
s1730f
s17301
s17306
s17304
s17307
s1730e
s17309
s1730c
s17313
s1731d
s1731b
s17318
s17315
s17312
s17310
s1731a
s1731f
s17316
s17314
s17317
s1731e
s17319
s1731c
s17343
s1734d
s1734b
s17348
s17345
s17342
s17340
s1734a
s1734f
s17341
s17346
s17347
s1734e
s17349
s1734c
s17533
s17522
s17500
s17511
s17544
s17535
s17532
s17530
s17531
s17534
s17233
s17255
s17200
s17211
s17244
s17235
s17232
s17230
s17231
s17234
s17252
s17250
s17251
s17254
s17253
s17033
s17055
s17022
s17011
s17044
s17035
s17032
s17030
s17031
s17034
s17052
s17050
s17051
s17054
s17020
s17021
s17024
s17053
s17133
s17155
s17122
s17100
s17144
s17135
s17132
s17130
s17131
s17134
s17152
s17150
s17151
s17154
s17120
s17121
s17124
s17101
s17104
s17153
s17102
s17123
s17125
s17103
s17105
s17433
s17455
s17422
s17400
s17411
s17435
s17432
s17430
s17431
s17434
s17452
s17450
s17451
s17454
s17420
s17421
s17424
s17401
s17404
s17414
s17453
s17402
s17423
s17425
s17403
s17405
s17523
s1752d
s1752b
s17528
s17525
s17520
s1752a
s1752f
s17521
s17526
s17524
s17527
s1752e
s17529
s1752c
s17503
s1750d
s1750b
s17508
s17505
s17502
s1750a
s1750f
s17501
s17506
s17504
s17507
s1750e
s17509
s1750c
s17513
s1751d
s1751b
s17518
s17515
s17512
s17510
s1751a
s1751f
s17516
s17514
s17517
s1751e
s17519
s1751c
s17543
s1754d
s1754b
s17548
s17545
s17542
s17540
s1754a
s1754f
s17541
s17546
s17547
s1754e
s17549
s1754c
s17203
s1720d
s1720b
s17208
s17205
s17202
s1720a
s1720f
s17201
s17206
s17204
s17207
s1720e
s17209
s1720c
s17213
s1721d
s1721b
s17218
s17215
s17212
s17210
s1721a
s1721f
s17216
s17214
s17217
s1721e
s17219
s1721c
s17243
s1724d
s1724b
s17248
s17245
s17242
s17240
s1724a
s1724f
s17241
s17246
s17247
s1724e
s17249
s1724c
s17013
s1701d
s1701b
s17018
s17015
s17012
s17010
s1701a
s1701f
s17016
s17014
s17017
s1701e
s17019
s1701c
s17043
s1704d
s1704b
s17048
s17045
s17042
s17040
s1704a
s1704f
s17041
s17046
s17047
s1704e
s17049
s1704c
s17143
s1714d
s1714b
s17148
s17145
s17142
s17140
s1714a
s1714f
s17141
s17146
s17147
s1714e
s17149
s1714c
s1753d
s1753b
s17538
s1753a
s1753f
s17536
s17537
s1753e
s17539
s1753c
s17023
s1702d
s1702b
s17028
s17025
s1702a
s1702f
s17026
s17027
s1702e
s17029
s1702c
s17413
s1741d
s1741b
s17418
s17415
s17412
s17410
s1741a
s1741f
s17416
s17417
s1741e
s17419
s1741c
s1723d
s1723b
s17238
s1723a
s1723f
s17236
s17237
s1723e
s17239
s1723c
s1725d
s1725b
s17258
s1725a
s1725f
s17256
s17257
s1725e
s17259
s1725c
s1703d
s1703b
s17038
s1703a
s1703f
s17036
s17037
s1703e
s17039
s1703c
s1705d
s1705b
s17058
s1705a
s1705f
s17056
s17057
s1705e
s17059
s1705c
s1713d
s1713b
s17138
s1713a
s1713f
s17136
s17137
s1713e
s17139
s1713c
s1715d
s1715b
s17158
s1715a
s1715f
s17156
s17157
s1715e
s17159
s1715c
s1712d
s1712b
s17128
s1712a
s1712f
s17126
s17127
s1712e
s17129
s1712c
s1710d
s1710b
s17108
s1710a
s1710f
s17106
s17107
s1710e
s17109
s1710c
s1743d
s1743b
s17438
s1743a
s1743f
s17436
s17437
s1743e
s17439
s1743c
s1745d
s1745b
s17458
s1745a
s1745f
s17456
s17457
s1745e
s17459
s1745c
s1742d
s1742b
s17428
s1742a
s1742f
s17426
s17427
s1742e
s17429
s1742c
s1740d
s1740b
s17408
s1740a
s1740f
s17406
s17407
s1740e
s17409
s1740c
s1e3
s1e5
s1e2
s1e0
s1e1
s1e4
s1e33
s1e55
s1e22
s1e00
s1e11
s1e44
s1e35
s1e32
s1e30
s1e31
s1e34
s1e52
s1e50
s1e51
s1e54
s1e20
s1e21
s1e24
s1e01
s1e04
s1e14
s1e53
s1e02
s1e41
s1e23
s1e25
s1e03
s1e05
s1e13
s1e15
s1e12
s1e10
s1e43
s1e45
s1e42
s1e40
s1e3d
s1e3b
s1e38
s1e3a
s1e3f
s1e36
s1e37
s1e3e
s1e39
s1e3c
s1e5d
s1e5b
s1e58
s1e5a
s1e5f
s1e56
s1e57
s1e5e
s1e59
s1e5c
s1e2d
s1e2b
s1e28
s1e2a
s1e2f
s1e26
s1e27
s1e2e
s1e29
s1e2c
s1e0d
s1e0b
s1e08
s1e0a
s1e0f
s1e06
s1e07
s1e0e
s1e09
s1e0c
s1e1d
s1e1b
s1e18
s1e1a
s1e1f
s1e16
s1e17
s1e1e
s1e19
s1e1c
s1e4d
s1e4b
s1e48
s1e4a
s1e4f
s1e46
s1e47
s1e4e
s1e49
s1e4c
s1e355
s1e322
s1e300
s1e311
s1e344
s1e333
s1e33d
s1e33b
s1e338
s1e335
s1e332
s1e330
s1e33a
s1e33f
s1e331
s1e336
s1e334
s1e337
s1e33e
s1e339
s1e33c
s1e553
s1e55d
s1e55b
s1e558
s1e555
s1e552
s1e550
s1e55a
s1e55f
s1e551
s1e556
s1e554
s1e557
s1e55e
s1e559
s1e55c
s1e223
s1e22d
s1e22b
s1e228
s1e225
s1e222
s1e220
s1e22a
s1e22f
s1e221
s1e226
s1e224
s1e227
s1e22e
s1e229
s1e22c
s1e003
s1e00d
s1e00b
s1e008
s1e005
s1e002
s1e000
s1e00a
s1e00f
s1e001
s1e006
s1e004
s1e007
s1e00e
s1e009
s1e00c
s1e113
s1e11d
s1e11b
s1e118
s1e115
s1e112
s1e110
s1e11a
s1e11f
s1e111
s1e116
s1e114
s1e117
s1e11e
s1e119
s1e11c
s1e443
s1e44d
s1e44b
s1e448
s1e445
s1e442
s1e440
s1e44a
s1e44f
s1e441
s1e446
s1e444
s1e447
s1e44e
s1e449
s1e44c
s1e353
s1e35d
s1e35b
s1e358
s1e352
s1e350
s1e35a
s1e35f
s1e351
s1e356
s1e354
s1e357
s1e35e
s1e359
s1e35c
s1e323
s1e32d
s1e32b
s1e328
s1e325
s1e320
s1e32a
s1e32f
s1e321
s1e326
s1e324
s1e327
s1e32e
s1e329
s1e32c
s1e303
s1e30d
s1e30b
s1e308
s1e305
s1e302
s1e30a
s1e30f
s1e301
s1e306
s1e304
s1e307
s1e30e
s1e309
s1e30c
s1e313
s1e31d
s1e31b
s1e318
s1e315
s1e312
s1e310
s1e31a
s1e31f
s1e316
s1e314
s1e317
s1e31e
s1e319
s1e31c
s1e343
s1e34d
s1e34b
s1e348
s1e345
s1e342
s1e340
s1e34a
s1e34f
s1e341
s1e346
s1e347
s1e34e
s1e349
s1e34c
s1e533
s1e522
s1e500
s1e511
s1e544
s1e535
s1e532
s1e530
s1e531
s1e534
s1e233
s1e255
s1e200
s1e211
s1e244
s1e235
s1e232
s1e230
s1e231
s1e234
s1e252
s1e250
s1e251
s1e254
s1e253
s1e033
s1e055
s1e022
s1e011
s1e044
s1e035
s1e032
s1e030
s1e031
s1e034
s1e052
s1e050
s1e051
s1e054
s1e020
s1e021
s1e024
s1e053
s1e133
s1e155
s1e122
s1e100
s1e144
s1e135
s1e132
s1e130
s1e131
s1e134
s1e152
s1e150
s1e151
s1e154
s1e120
s1e121
s1e124
s1e101
s1e104
s1e153
s1e102
s1e123
s1e125
s1e103
s1e105
s1e433
s1e455
s1e422
s1e400
s1e411
s1e435
s1e432
s1e430
s1e431
s1e434
s1e452
s1e450
s1e451
s1e454
s1e420
s1e421
s1e424
s1e401
s1e404
s1e414
s1e453
s1e402
s1e423
s1e425
s1e403
s1e405
s1e523
s1e52d
s1e52b
s1e528
s1e525
s1e520
s1e52a
s1e52f
s1e521
s1e526
s1e524
s1e527
s1e52e
s1e529
s1e52c
s1e503
s1e50d
s1e50b
s1e508
s1e505
s1e502
s1e50a
s1e50f
s1e501
s1e506
s1e504
s1e507
s1e50e
s1e509
s1e50c
s1e513
s1e51d
s1e51b
s1e518
s1e515
s1e512
s1e510
s1e51a
s1e51f
s1e516
s1e514
s1e517
s1e51e
s1e519
s1e51c
s1e543
s1e54d
s1e54b
s1e548
s1e545
s1e542
s1e540
s1e54a
s1e54f
s1e541
s1e546
s1e547
s1e54e
s1e549
s1e54c
s1e203
s1e20d
s1e20b
s1e208
s1e205
s1e202
s1e20a
s1e20f
s1e201
s1e206
s1e204
s1e207
s1e20e
s1e209
s1e20c
s1e213
s1e21d
s1e21b
s1e218
s1e215
s1e212
s1e210
s1e21a
s1e21f
s1e216
s1e214
s1e217
s1e21e
s1e219
s1e21c
s1e243
s1e24d
s1e24b
s1e248
s1e245
s1e242
s1e240
s1e24a
s1e24f
s1e241
s1e246
s1e247
s1e24e
s1e249
s1e24c
s1e013
s1e01d
s1e01b
s1e018
s1e015
s1e012
s1e010
s1e01a
s1e01f
s1e016
s1e014
s1e017
s1e01e
s1e019
s1e01c
s1e043
s1e04d
s1e04b
s1e048
s1e045
s1e042
s1e040
s1e04a
s1e04f
s1e041
s1e046
s1e047
s1e04e
s1e049
s1e04c
s1e143
s1e14d
s1e14b
s1e148
s1e145
s1e142
s1e140
s1e14a
s1e14f
s1e141
s1e146
s1e147
s1e14e
s1e149
s1e14c
s1e53d
s1e53b
s1e538
s1e53a
s1e53f
s1e536
s1e537
s1e53e
s1e539
s1e53c
s1e023
s1e02d
s1e02b
s1e028
s1e025
s1e02a
s1e02f
s1e026
s1e027
s1e02e
s1e029
s1e02c
s1e413
s1e41d
s1e41b
s1e418
s1e415
s1e412
s1e410
s1e41a
s1e41f
s1e416
s1e417
s1e41e
s1e419
s1e41c
s1e23d
s1e23b
s1e238
s1e23a
s1e23f
s1e236
s1e237
s1e23e
s1e239
s1e23c
s1e25d
s1e25b
s1e258
s1e25a
s1e25f
s1e256
s1e257
s1e25e
s1e259
s1e25c
s1e03d
s1e03b
s1e038
s1e03a
s1e03f
s1e036
s1e037
s1e03e
s1e039
s1e03c
s1e05d
s1e05b
s1e058
s1e05a
s1e05f
s1e056
s1e057
s1e05e
s1e059
s1e05c
s1e13d
s1e13b
s1e138
s1e13a
s1e13f
s1e136
s1e137
s1e13e
s1e139
s1e13c
s1e15d
s1e15b
s1e158
s1e15a
s1e15f
s1e156
s1e157
s1e15e
s1e159
s1e15c
s1e12d
s1e12b
s1e128
s1e12a
s1e12f
s1e126
s1e127
s1e12e
s1e129
s1e12c
s1e10d
s1e10b
s1e108
s1e10a
s1e10f
s1e106
s1e107
s1e10e
s1e109
s1e10c
s1e43d
s1e43b
s1e438
s1e43a
s1e43f
s1e436
s1e437
s1e43e
s1e439
s1e43c
s1e45d
s1e45b
s1e458
s1e45a
s1e45f
s1e456
s1e457
s1e45e
s1e459
s1e45c
s1e42d
s1e42b
s1e428
s1e42a
s1e42f
s1e426
s1e427
s1e42e
s1e429
s1e42c
s1e40d
s1e40b
s1e408
s1e40a
s1e40f
s1e406
s1e407
s1e40e
s1e409
s1e40c
s193
s195
s192
s190
s191
s194
s1933
s1955
s1922
s1900
s1911
s1944
s1935
s1932
s1930
s1931
s1934
s1952
s1950
s1951
s1954
s1920
s1921
s1924
s1901
s1904
s1914
s1953
s1902
s1941
s1923
s1925
s1903
s1905
s1913
s1915
s1912
s1910
s1943
s1945
s1942
s1940
s193d
s193b
s1938
s193a
s193f
s1936
s1937
s193e
s1939
s193c
s195d
s195b
s1958
s195a
s195f
s1956
s1957
s195e
s1959
s195c
s192d
s192b
s1928
s192a
s192f
s1926
s1927
s192e
s1929
s192c
s190d
s190b
s1908
s190a
s190f
s1906
s1907
s190e
s1909
s190c
s191d
s191b
s1918
s191a
s191f
s1916
s1917
s191e
s1919
s191c
s194d
s194b
s1948
s194a
s194f
s1946
s1947
s194e
s1949
s194c
s19355
s19322
s19300
s19311
s19344
s19333
s1933d
s1933b
s19338
s19335
s19332
s19330
s1933a
s1933f
s19331
s19336
s19334
s19337
s1933e
s19339
s1933c
s19553
s1955d
s1955b
s19558
s19555
s19552
s19550
s1955a
s1955f
s19551
s19556
s19554
s19557
s1955e
s19559
s1955c
s19223
s1922d
s1922b
s19228
s19225
s19222
s19220
s1922a
s1922f
s19221
s19226
s19224
s19227
s1922e
s19229
s1922c
s19003
s1900d
s1900b
s19008
s19005
s19002
s19000
s1900a
s1900f
s19001
s19006
s19004
s19007
s1900e
s19009
s1900c
s19113
s1911d
s1911b
s19118
s19115
s19112
s19110
s1911a
s1911f
s19111
s19116
s19114
s19117
s1911e
s19119
s1911c
s19443
s1944d
s1944b
s19448
s19445
s19442
s19440
s1944a
s1944f
s19441
s19446
s19444
s19447
s1944e
s19449
s1944c
s19353
s1935d
s1935b
s19358
s19352
s19350
s1935a
s1935f
s19351
s19356
s19354
s19357
s1935e
s19359
s1935c
s19323
s1932d
s1932b
s19328
s19325
s19320
s1932a
s1932f
s19321
s19326
s19324
s19327
s1932e
s19329
s1932c
s19303
s1930d
s1930b
s19308
s19305
s19302
s1930a
s1930f
s19301
s19306
s19304
s19307
s1930e
s19309
s1930c
s19313
s1931d
s1931b
s19318
s19315
s19312
s19310
s1931a
s1931f
s19316
s19314
s19317
s1931e
s19319
s1931c
s19343
s1934d
s1934b
s19348
s19345
s19342
s19340
s1934a
s1934f
s19341
s19346
s19347
s1934e
s19349
s1934c
s19533
s19522
s19500
s19511
s19544
s19535
s19532
s19530
s19531
s19534
s19233
s19255
s19200
s19211
s19244
s19235
s19232
s19230
s19231
s19234
s19252
s19250
s19251
s19254
s19253
s19033
s19055
s19022
s19011
s19044
s19035
s19032
s19030
s19031
s19034
s19052
s19050
s19051
s19054
s19020
s19021
s19024
s19053
s19133
s19155
s19122
s19100
s19144
s19135
s19132
s19130
s19131
s19134
s19152
s19150
s19151
s19154
s19120
s19121
s19124
s19101
s19104
s19153
s19102
s19123
s19125
s19103
s19105
s19433
s19455
s19422
s19400
s19411
s19435
s19432
s19430
s19431
s19434
s19452
s19450
s19451
s19454
s19420
s19421
s19424
s19401
s19404
s19414
s19453
s19402
s19423
s19425
s19403
s19405
s19523
s1952d
s1952b
s19528
s19525
s19520
s1952a
s1952f
s19521
s19526
s19524
s19527
s1952e
s19529
s1952c
s19503
s1950d
s1950b
s19508
s19505
s19502
s1950a
s1950f
s19501
s19506
s19504
s19507
s1950e
s19509
s1950c
s19513
s1951d
s1951b
s19518
s19515
s19512
s19510
s1951a
s1951f
s19516
s19514
s19517
s1951e
s19519
s1951c
s19543
s1954d
s1954b
s19548
s19545
s19542
s19540
s1954a
s1954f
s19541
s19546
s19547
s1954e
s19549
s1954c
s19203
s1920d
s1920b
s19208
s19205
s19202
s1920a
s1920f
s19201
s19206
s19204
s19207
s1920e
s19209
s1920c
s19213
s1921d
s1921b
s19218
s19215
s19212
s19210
s1921a
s1921f
s19216
s19214
s19217
s1921e
s19219
s1921c
s19243
s1924d
s1924b
s19248
s19245
s19242
s19240
s1924a
s1924f
s19241
s19246
s19247
s1924e
s19249
s1924c
s19013
s1901d
s1901b
s19018
s19015
s19012
s19010
s1901a
s1901f
s19016
s19014
s19017
s1901e
s19019
s1901c
s19043
s1904d
s1904b
s19048
s19045
s19042
s19040
s1904a
s1904f
s19041
s19046
s19047
s1904e
s19049
s1904c
s19143
s1914d
s1914b
s19148
s19145
s19142
s19140
s1914a
s1914f
s19141
s19146
s19147
s1914e
s19149
s1914c
s1953d
s1953b
s19538
s1953a
s1953f
s19536
s19537
s1953e
s19539
s1953c
s19023
s1902d
s1902b
s19028
s19025
s1902a
s1902f
s19026
s19027
s1902e
s19029
s1902c
s19413
s1941d
s1941b
s19418
s19415
s19412
s19410
s1941a
s1941f
s19416
s19417
s1941e
s19419
s1941c
s1923d
s1923b
s19238
s1923a
s1923f
s19236
s19237
s1923e
s19239
s1923c
s1925d
s1925b
s19258
s1925a
s1925f
s19256
s19257
s1925e
s19259
s1925c
s1903d
s1903b
s19038
s1903a
s1903f
s19036
s19037
s1903e
s19039
s1903c
s1905d
s1905b
s19058
s1905a
s1905f
s19056
s19057
s1905e
s19059
s1905c
s1913d
s1913b
s19138
s1913a
s1913f
s19136
s19137
s1913e
s19139
s1913c
s1915d
s1915b
s19158
s1915a
s1915f
s19156
s19157
s1915e
s19159
s1915c
s1912d
s1912b
s19128
s1912a
s1912f
s19126
s19127
s1912e
s19129
s1912c
s1910d
s1910b
s19108
s1910a
s1910f
s19106
s19107
s1910e
s19109
s1910c
s1943d
s1943b
s19438
s1943a
s1943f
s19436
s19437
s1943e
s19439
s1943c
s1945d
s1945b
s19458
s1945a
s1945f
s19456
s19457
s1945e
s19459
s1945c
s1942d
s1942b
s19428
s1942a
s1942f
s19426
s19427
s1942e
s19429
s1942c
s1940d
s1940b
s19408
s1940a
s1940f
s19406
s19407
s1940e
s19409
s1940c
s1c3
s1c5
s1c2
s1c0
s1c1
s1c4
s1c33
s1c55
s1c22
s1c00
s1c11
s1c44
s1c35
s1c32
s1c30
s1c31
s1c34
s1c52
s1c50
s1c51
s1c54
s1c20
s1c21
s1c24
s1c01
s1c04
s1c14
s1c53
s1c02
s1c41
s1c23
s1c25
s1c03
s1c05
s1c13
s1c15
s1c12
s1c10
s1c43
s1c45
s1c42
s1c40
s1c3d
s1c3b
s1c38
s1c3a
s1c3f
s1c36
s1c37
s1c3e
s1c39
s1c3c
s1c5d
s1c5b
s1c58
s1c5a
s1c5f
s1c56
s1c57
s1c5e
s1c59
s1c5c
s1c2d
s1c2b
s1c28
s1c2a
s1c2f
s1c26
s1c27
s1c2e
s1c29
s1c2c
s1c0d
s1c0b
s1c08
s1c0a
s1c0f
s1c06
s1c07
s1c0e
s1c09
s1c0c
s1c1d
s1c1b
s1c18
s1c1a
s1c1f
s1c16
s1c17
s1c1e
s1c19
s1c1c
s1c4d
s1c4b
s1c48
s1c4a
s1c4f
s1c46
s1c47
s1c4e
s1c49
s1c4c
s1c355
s1c322
s1c300
s1c311
s1c344
s1c333
s1c33d
s1c33b
s1c338
s1c335
s1c332
s1c330
s1c33a
s1c33f
s1c331
s1c336
s1c334
s1c337
s1c33e
s1c339
s1c33c
s1c553
s1c55d
s1c55b
s1c558
s1c555
s1c552
s1c550
s1c55a
s1c55f
s1c551
s1c556
s1c554
s1c557
s1c55e
s1c559
s1c55c
s1c223
s1c22d
s1c22b
s1c228
s1c225
s1c222
s1c220
s1c22a
s1c22f
s1c221
s1c226
s1c224
s1c227
s1c22e
s1c229
s1c22c
s1c003
s1c00d
s1c00b
s1c008
s1c005
s1c002
s1c000
s1c00a
s1c00f
s1c001
s1c006
s1c004
s1c007
s1c00e
s1c009
s1c00c
s1c113
s1c11d
s1c11b
s1c118
s1c115
s1c112
s1c110
s1c11a
s1c11f
s1c111
s1c116
s1c114
s1c117
s1c11e
s1c119
s1c11c
s1c443
s1c44d
s1c44b
s1c448
s1c445
s1c442
s1c440
s1c44a
s1c44f
s1c441
s1c446
s1c444
s1c447
s1c44e
s1c449
s1c44c
s1c353
s1c35d
s1c35b
s1c358
s1c352
s1c350
s1c35a
s1c35f
s1c351
s1c356
s1c354
s1c357
s1c35e
s1c359
s1c35c
s1c323
s1c32d
s1c32b
s1c328
s1c325
s1c320
s1c32a
s1c32f
s1c321
s1c326
s1c324
s1c327
s1c32e
s1c329
s1c32c
s1c303
s1c30d
s1c30b
s1c308
s1c305
s1c302
s1c30a
s1c30f
s1c301
s1c306
s1c304
s1c307
s1c30e
s1c309
s1c30c
s1c313
s1c31d
s1c31b
s1c318
s1c315
s1c312
s1c310
s1c31a
s1c31f
s1c316
s1c314
s1c317
s1c31e
s1c319
s1c31c
s1c343
s1c34d
s1c34b
s1c348
s1c345
s1c342
s1c340
s1c34a
s1c34f
s1c341
s1c346
s1c347
s1c34e
s1c349
s1c34c
s1c533
s1c522
s1c500
s1c511
s1c544
s1c535
s1c532
s1c530
s1c531
s1c534
s1c233
s1c255
s1c200
s1c211
s1c244
s1c235
s1c232
s1c230
s1c231
s1c234
s1c252
s1c250
s1c251
s1c254
s1c253
s1c033
s1c055
s1c022
s1c011
s1c044
s1c035
s1c032
s1c030
s1c031
s1c034
s1c052
s1c050
s1c051
s1c054
s1c020
s1c021
s1c024
s1c053
s1c133
s1c155
s1c122
s1c100
s1c144
s1c135
s1c132
s1c130
s1c131
s1c134
s1c152
s1c150
s1c151
s1c154
s1c120
s1c121
s1c124
s1c101
s1c104
s1c153
s1c102
s1c123
s1c125
s1c103
s1c105
s1c433
s1c455
s1c422
s1c400
s1c411
s1c435
s1c432
s1c430
s1c431
s1c434
s1c452
s1c450
s1c451
s1c454
s1c420
s1c421
s1c424
s1c401
s1c404
s1c414
s1c453
s1c402
s1c423
s1c425
s1c403
s1c405
s1c523
s1c52d
s1c52b
s1c528
s1c525
s1c520
s1c52a
s1c52f
s1c521
s1c526
s1c524
s1c527
s1c52e
s1c529
s1c52c
s1c503
s1c50d
s1c50b
s1c508
s1c505
s1c502
s1c50a
s1c50f
s1c501
s1c506
s1c504
s1c507
s1c50e
s1c509
s1c50c
s1c513
s1c51d
s1c51b
s1c518
s1c515
s1c512
s1c510
s1c51a
s1c51f
s1c516
s1c514
s1c517
s1c51e
s1c519
s1c51c
s1c543
s1c54d
s1c54b
s1c548
s1c545
s1c542
s1c540
s1c54a
s1c54f
s1c541
s1c546
s1c547
s1c54e
s1c549
s1c54c
s1c203
s1c20d
s1c20b
s1c208
s1c205
s1c202
s1c20a
s1c20f
s1c201
s1c206
s1c204
s1c207
s1c20e
s1c209
s1c20c
s1c213
s1c21d
s1c21b
s1c218
s1c215
s1c212
s1c210
s1c21a
s1c21f
s1c216
s1c214
s1c217
s1c21e
s1c219
s1c21c
s1c243
s1c24d
s1c24b
s1c248
s1c245
s1c242
s1c240
s1c24a
s1c24f
s1c241
s1c246
s1c247
s1c24e
s1c249
s1c24c
s1c013
s1c01d
s1c01b
s1c018
s1c015
s1c012
s1c010
s1c01a
s1c01f
s1c016
s1c014
s1c017
s1c01e
s1c019
s1c01c
s1c043
s1c04d
s1c04b
s1c048
s1c045
s1c042
s1c040
s1c04a
s1c04f
s1c041
s1c046
s1c047
s1c04e
s1c049
s1c04c
s1c143
s1c14d
s1c14b
s1c148
s1c145
s1c142
s1c140
s1c14a
s1c14f
s1c141
s1c146
s1c147
s1c14e
s1c149
s1c14c
s1c53d
s1c53b
s1c538
s1c53a
s1c53f
s1c536
s1c537
s1c53e
s1c539
s1c53c
s1c023
s1c02d
s1c02b
s1c028
s1c025
s1c02a
s1c02f
s1c026
s1c027
s1c02e
s1c029
s1c02c
s1c413
s1c41d
s1c41b
s1c418
s1c415
s1c412
s1c410
s1c41a
s1c41f
s1c416
s1c417
s1c41e
s1c419
s1c41c
s1c23d
s1c23b
s1c238
s1c23a
s1c23f
s1c236
s1c237
s1c23e
s1c239
s1c23c
s1c25d
s1c25b
s1c258
s1c25a
s1c25f
s1c256
s1c257
s1c25e
s1c259
s1c25c
s1c03d
s1c03b
s1c038
s1c03a
s1c03f
s1c036
s1c037
s1c03e
s1c039
s1c03c
s1c05d
s1c05b
s1c058
s1c05a
s1c05f
s1c056
s1c057
s1c05e
s1c059
s1c05c
s1c13d
s1c13b
s1c138
s1c13a
s1c13f
s1c136
s1c137
s1c13e
s1c139
s1c13c
s1c15d
s1c15b
s1c158
s1c15a
s1c15f
s1c156
s1c157
s1c15e
s1c159
s1c15c
s1c12d
s1c12b
s1c128
s1c12a
s1c12f
s1c126
s1c127
s1c12e
s1c129
s1c12c
s1c10d
s1c10b
s1c108
s1c10a
s1c10f
s1c106
s1c107
s1c10e
s1c109
s1c10c
s1c43d
s1c43b
s1c438
s1c43a
s1c43f
s1c436
s1c437
s1c43e
s1c439
s1c43c
s1c45d
s1c45b
s1c458
s1c45a
s1c45f
s1c456
s1c457
s1c45e
s1c459
s1c45c
s1c42d
s1c42b
s1c428
s1c42a
s1c42f
s1c426
s1c427
s1c42e
s1c429
s1c42c
s1c40d
s1c40b
s1c408
s1c40a
s1c40f
s1c406
s1c407
s1c40e
s1c409
s1c40c
s353
s352
s350
s351
s354
s3533
s3522
s3500
s3511
s3544
s3535
s3532
s3530
s3531
s3534
s3520
s3521
s3524
s3501
s3504
s3514
s3502
s3541
s3523
s3525
s3503
s3505
s3513
s3515
s3512
s3510
s3543
s3545
s3542
s3540
s353d
s353b
s3538
s353a
s353f
s3536
s3537
s353e
s3539
s353c
s352d
s352b
s3528
s352a
s352f
s3526
s3527
s352e
s3529
s352c
s350d
s350b
s3508
s350a
s350f
s3506
s3507
s350e
s3509
s350c
s351d
s351b
s3518
s351a
s351f
s3516
s3517
s351e
s3519
s351c
s354d
s354b
s3548
s354a
s354f
s3546
s3547
s354e
s3549
s354c
s35355
s35322
s35300
s35311
s35344
s35333
s3533d
s3533b
s35338
s35335
s35332
s35330
s3533a
s3533f
s35331
s35336
s35334
s35337
s3533e
s35339
s3533c
s35223
s3522d
s3522b
s35228
s35225
s35222
s35220
s3522a
s3522f
s35221
s35226
s35224
s35227
s3522e
s35229
s3522c
s35003
s3500d
s3500b
s35008
s35005
s35002
s35000
s3500a
s3500f
s35001
s35006
s35004
s35007
s3500e
s35009
s3500c
s35113
s3511d
s3511b
s35118
s35115
s35112
s35110
s3511a
s3511f
s35111
s35116
s35114
s35117
s3511e
s35119
s3511c
s35443
s3544d
s3544b
s35448
s35445
s35442
s35440
s3544a
s3544f
s35441
s35446
s35444
s35447
s3544e
s35449
s3544c
s35353
s3535d
s3535b
s35358
s35352
s35350
s3535a
s3535f
s35351
s35356
s35354
s35357
s3535e
s35359
s3535c
s35323
s3532d
s3532b
s35328
s35325
s35320
s3532a
s3532f
s35321
s35326
s35324
s35327
s3532e
s35329
s3532c
s35303
s3530d
s3530b
s35308
s35305
s35302
s3530a
s3530f
s35301
s35306
s35304
s35307
s3530e
s35309
s3530c
s35313
s3531d
s3531b
s35318
s35315
s35312
s35310
s3531a
s3531f
s35316
s35314
s35317
s3531e
s35319
s3531c
s35343
s3534d
s3534b
s35348
s35345
s35342
s35340
s3534a
s3534f
s35341
s35346
s35347
s3534e
s35349
s3534c
s35233
s35255
s35200
s35211
s35244
s35235
s35232
s35230
s35231
s35234
s35252
s35250
s35251
s35254
s35253
s35033
s35055
s35022
s35011
s35044
s35035
s35032
s35030
s35031
s35034
s35052
s35050
s35051
s35054
s35020
s35021
s35024
s35053
s35133
s35155
s35122
s35100
s35144
s35135
s35132
s35130
s35131
s35134
s35152
s35150
s35151
s35154
s35120
s35121
s35124
s35101
s35104
s35153
s35102
s35123
s35125
s35103
s35105
s35433
s35455
s35422
s35400
s35411
s35435
s35432
s35430
s35431
s35434
s35452
s35450
s35451
s35454
s35420
s35421
s35424
s35401
s35404
s35414
s35453
s35402
s35423
s35425
s35403
s35405
s35203
s3520d
s3520b
s35208
s35205
s35202
s3520a
s3520f
s35201
s35206
s35204
s35207
s3520e
s35209
s3520c
s35213
s3521d
s3521b
s35218
s35215
s35212
s35210
s3521a
s3521f
s35216
s35214
s35217
s3521e
s35219
s3521c
s35243
s3524d
s3524b
s35248
s35245
s35242
s35240
s3524a
s3524f
s35241
s35246
s35247
s3524e
s35249
s3524c
s35013
s3501d
s3501b
s35018
s35015
s35012
s35010
s3501a
s3501f
s35016
s35014
s35017
s3501e
s35019
s3501c
s35043
s3504d
s3504b
s35048
s35045
s35042
s35040
s3504a
s3504f
s35041
s35046
s35047
s3504e
s35049
s3504c
s35143
s3514d
s3514b
s35148
s35145
s35142
s35140
s3514a
s3514f
s35141
s35146
s35147
s3514e
s35149
s3514c
s35023
s3502d
s3502b
s35028
s35025
s3502a
s3502f
s35026
s35027
s3502e
s35029
s3502c
s35413
s3541d
s3541b
s35418
s35415
s35412
s35410
s3541a
s3541f
s35416
s35417
s3541e
s35419
s3541c
s3523d
s3523b
s35238
s3523a
s3523f
s35236
s35237
s3523e
s35239
s3523c
s3525d
s3525b
s35258
s3525a
s3525f
s35256
s35257
s3525e
s35259
s3525c
s3503d
s3503b
s35038
s3503a
s3503f
s35036
s35037
s3503e
s35039
s3503c
s3505d
s3505b
s35058
s3505a
s3505f
s35056
s35057
s3505e
s35059
s3505c
s3513d
s3513b
s35138
s3513a
s3513f
s35136
s35137
s3513e
s35139
s3513c
s3515d
s3515b
s35158
s3515a
s3515f
s35156
s35157
s3515e
s35159
s3515c
s3512d
s3512b
s35128
s3512a
s3512f
s35126
s35127
s3512e
s35129
s3512c
s3510d
s3510b
s35108
s3510a
s3510f
s35106
s35107
s3510e
s35109
s3510c
s3543d
s3543b
s35438
s3543a
s3543f
s35436
s35437
s3543e
s35439
s3543c
s3545d
s3545b
s35458
s3545a
s3545f
s35456
s35457
s3545e
s35459
s3545c
s3542d
s3542b
s35428
s3542a
s3542f
s35426
s35427
s3542e
s35429
s3542c
s3540d
s3540b
s35408
s3540a
s3540f
s35406
s35407
s3540e
s35409
s3540c
s323
s325
s320
s321
s324
s3233
s3255
s3200
s3211
s3244
s3235
s3232
s3230
s3231
s3234
s3252
s3250
s3251
s3254
s3201
s3204
s3214
s3253
s3202
s3241
s3203
s3205
s3213
s3215
s3212
s3210
s3243
s3245
s3242
s3240
s323d
s323b
s3238
s323a
s323f
s3236
s3237
s323e
s3239
s323c
s325d
s325b
s3258
s325a
s325f
s3256
s3257
s325e
s3259
s325c
s320d
s320b
s3208
s320a
s320f
s3206
s3207
s320e
s3209
s320c
s321d
s321b
s3218
s321a
s321f
s3216
s3217
s321e
s3219
s321c
s324d
s324b
s3248
s324a
s324f
s3246
s3247
s324e
s3249
s324c
s32355
s32322
s32300
s32311
s32344
s32333
s3233d
s3233b
s32338
s32335
s32332
s32330
s3233a
s3233f
s32331
s32336
s32334
s32337
s3233e
s32339
s3233c
s32553
s3255d
s3255b
s32558
s32555
s32552
s32550
s3255a
s3255f
s32551
s32556
s32554
s32557
s3255e
s32559
s3255c
s32003
s3200d
s3200b
s32008
s32005
s32002
s32000
s3200a
s3200f
s32001
s32006
s32004
s32007
s3200e
s32009
s3200c
s32113
s3211d
s3211b
s32118
s32115
s32112
s32110
s3211a
s3211f
s32111
s32116
s32114
s32117
s3211e
s32119
s3211c
s32443
s3244d
s3244b
s32448
s32445
s32442
s32440
s3244a
s3244f
s32441
s32446
s32444
s32447
s3244e
s32449
s3244c
s32353
s3235d
s3235b
s32358
s32352
s32350
s3235a
s3235f
s32351
s32356
s32354
s32357
s3235e
s32359
s3235c
s32323
s3232d
s3232b
s32328
s32325
s32320
s3232a
s3232f
s32321
s32326
s32324
s32327
s3232e
s32329
s3232c
s32303
s3230d
s3230b
s32308
s32305
s32302
s3230a
s3230f
s32301
s32306
s32304
s32307
s3230e
s32309
s3230c
s32313
s3231d
s3231b
s32318
s32315
s32312
s32310
s3231a
s3231f
s32316
s32314
s32317
s3231e
s32319
s3231c
s32343
s3234d
s3234b
s32348
s32345
s32342
s32340
s3234a
s3234f
s32341
s32346
s32347
s3234e
s32349
s3234c
s32533
s32522
s32500
s32511
s32544
s32535
s32532
s32530
s32531
s32534
s32033
s32055
s32022
s32011
s32044
s32035
s32032
s32030
s32031
s32034
s32052
s32050
s32051
s32054
s32020
s32021
s32024
s32053
s32133
s32155
s32122
s32100
s32144
s32135
s32132
s32130
s32131
s32134
s32152
s32150
s32151
s32154
s32120
s32121
s32124
s32101
s32104
s32153
s32102
s32123
s32125
s32103
s32105
s32433
s32455
s32422
s32400
s32411
s32435
s32432
s32430
s32431
s32434
s32452
s32450
s32451
s32454
s32420
s32421
s32424
s32401
s32404
s32414
s32453
s32402
s32423
s32425
s32403
s32405
s32523
s3252d
s3252b
s32528
s32525
s32520
s3252a
s3252f
s32521
s32526
s32524
s32527
s3252e
s32529
s3252c
s32503
s3250d
s3250b
s32508
s32505
s32502
s3250a
s3250f
s32501
s32506
s32504
s32507
s3250e
s32509
s3250c
s32513
s3251d
s3251b
s32518
s32515
s32512
s32510
s3251a
s3251f
s32516
s32514
s32517
s3251e
s32519
s3251c
s32543
s3254d
s3254b
s32548
s32545
s32542
s32540
s3254a
s3254f
s32541
s32546
s32547
s3254e
s32549
s3254c
s32013
s3201d
s3201b
s32018
s32015
s32012
s32010
s3201a
s3201f
s32016
s32014
s32017
s3201e
s32019
s3201c
s32043
s3204d
s3204b
s32048
s32045
s32042
s32040
s3204a
s3204f
s32041
s32046
s32047
s3204e
s32049
s3204c
s32143
s3214d
s3214b
s32148
s32145
s32142
s32140
s3214a
s3214f
s32141
s32146
s32147
s3214e
s32149
s3214c
s3253d
s3253b
s32538
s3253a
s3253f
s32536
s32537
s3253e
s32539
s3253c
s32023
s3202d
s3202b
s32028
s32025
s3202a
s3202f
s32026
s32027
s3202e
s32029
s3202c
s32413
s3241d
s3241b
s32418
s32415
s32412
s32410
s3241a
s3241f
s32416
s32417
s3241e
s32419
s3241c
s3203d
s3203b
s32038
s3203a
s3203f
s32036
s32037
s3203e
s32039
s3203c
s3205d
s3205b
s32058
s3205a
s3205f
s32056
s32057
s3205e
s32059
s3205c
s3213d
s3213b
s32138
s3213a
s3213f
s32136
s32137
s3213e
s32139
s3213c
s3215d
s3215b
s32158
s3215a
s3215f
s32156
s32157
s3215e
s32159
s3215c
s3212d
s3212b
s32128
s3212a
s3212f
s32126
s32127
s3212e
s32129
s3212c
s3210d
s3210b
s32108
s3210a
s3210f
s32106
s32107
s3210e
s32109
s3210c
s3243d
s3243b
s32438
s3243a
s3243f
s32436
s32437
s3243e
s32439
s3243c
s3245d
s3245b
s32458
s3245a
s3245f
s32456
s32457
s3245e
s32459
s3245c
s3242d
s3242b
s32428
s3242a
s3242f
s32426
s32427
s3242e
s32429
s3242c
s3240d
s3240b
s32408
s3240a
s3240f
s32406
s32407
s3240e
s32409
s3240c
s303
s305
s302
s301
s304
s3033
s3055
s3022
s3011
s3044
s3035
s3032
s3030
s3031
s3034
s3052
s3050
s3051
s3054
s3020
s3021
s3024
s3014
s3053
s3041
s3023
s3025
s3013
s3015
s3012
s3010
s3043
s3045
s3042
s3040
s303d
s303b
s3038
s303a
s303f
s3036
s3037
s303e
s3039
s303c
s305d
s305b
s3058
s305a
s305f
s3056
s3057
s305e
s3059
s305c
s302d
s302b
s3028
s302a
s302f
s3026
s3027
s302e
s3029
s302c
s301d
s301b
s3018
s301a
s301f
s3016
s3017
s301e
s3019
s301c
s304d
s304b
s3048
s304a
s304f
s3046
s3047
s304e
s3049
s304c
s30355
s30322
s30300
s30311
s30344
s30333
s3033d
s3033b
s30338
s30335
s30332
s30330
s3033a
s3033f
s30331
s30336
s30334
s30337
s3033e
s30339
s3033c
s30553
s3055d
s3055b
s30558
s30555
s30552
s30550
s3055a
s3055f
s30551
s30556
s30554
s30557
s3055e
s30559
s3055c
s30223
s3022d
s3022b
s30228
s30225
s30222
s30220
s3022a
s3022f
s30221
s30226
s30224
s30227
s3022e
s30229
s3022c
s30113
s3011d
s3011b
s30118
s30115
s30112
s30110
s3011a
s3011f
s30111
s30116
s30114
s30117
s3011e
s30119
s3011c
s30443
s3044d
s3044b
s30448
s30445
s30442
s30440
s3044a
s3044f
s30441
s30446
s30444
s30447
s3044e
s30449
s3044c
s30353
s3035d
s3035b
s30358
s30352
s30350
s3035a
s3035f
s30351
s30356
s30354
s30357
s3035e
s30359
s3035c
s30323
s3032d
s3032b
s30328
s30325
s30320
s3032a
s3032f
s30321
s30326
s30324
s30327
s3032e
s30329
s3032c
s30303
s3030d
s3030b
s30308
s30305
s30302
s3030a
s3030f
s30301
s30306
s30304
s30307
s3030e
s30309
s3030c
s30313
s3031d
s3031b
s30318
s30315
s30312
s30310
s3031a
s3031f
s30316
s30314
s30317
s3031e
s30319
s3031c
s30343
s3034d
s3034b
s30348
s30345
s30342
s30340
s3034a
s3034f
s30341
s30346
s30347
s3034e
s30349
s3034c
s30533
s30522
s30500
s30511
s30544
s30535
s30532
s30530
s30531
s30534
s30233
s30255
s30200
s30211
s30244
s30235
s30232
s30230
s30231
s30234
s30252
s30250
s30251
s30254
s30253
s30133
s30155
s30122
s30100
s30144
s30135
s30132
s30130
s30131
s30134
s30152
s30150
s30151
s30154
s30120
s30121
s30124
s30101
s30104
s30153
s30102
s30123
s30125
s30103
s30105
s30433
s30455
s30422
s30400
s30411
s30435
s30432
s30430
s30431
s30434
s30452
s30450
s30451
s30454
s30420
s30421
s30424
s30401
s30404
s30414
s30453
s30402
s30423
s30425
s30403
s30405
s30523
s3052d
s3052b
s30528
s30525
s30520
s3052a
s3052f
s30521
s30526
s30524
s30527
s3052e
s30529
s3052c
s30503
s3050d
s3050b
s30508
s30505
s30502
s3050a
s3050f
s30501
s30506
s30504
s30507
s3050e
s30509
s3050c
s30513
s3051d
s3051b
s30518
s30515
s30512
s30510
s3051a
s3051f
s30516
s30514
s30517
s3051e
s30519
s3051c
s30543
s3054d
s3054b
s30548
s30545
s30542
s30540
s3054a
s3054f
s30541
s30546
s30547
s3054e
s30549
s3054c
s30203
s3020d
s3020b
s30208
s30205
s30202
s3020a
s3020f
s30201
s30206
s30204
s30207
s3020e
s30209
s3020c
s30213
s3021d
s3021b
s30218
s30215
s30212
s30210
s3021a
s3021f
s30216
s30214
s30217
s3021e
s30219
s3021c
s30243
s3024d
s3024b
s30248
s30245
s30242
s30240
s3024a
s3024f
s30241
s30246
s30247
s3024e
s30249
s3024c
s30143
s3014d
s3014b
s30148
s30145
s30142
s30140
s3014a
s3014f
s30141
s30146
s30147
s3014e
s30149
s3014c
s3053d
s3053b
s30538
s3053a
s3053f
s30536
s30537
s3053e
s30539
s3053c
s30413
s3041d
s3041b
s30418
s30415
s30412
s30410
s3041a
s3041f
s30416
s30417
s3041e
s30419
s3041c
s3023d
s3023b
s30238
s3023a
s3023f
s30236
s30237
s3023e
s30239
s3023c
s3025d
s3025b
s30258
s3025a
s3025f
s30256
s30257
s3025e
s30259
s3025c
s3013d
s3013b
s30138
s3013a
s3013f
s30136
s30137
s3013e
s30139
s3013c
s3015d
s3015b
s30158
s3015a
s3015f
s30156
s30157
s3015e
s30159
s3015c
s3012d
s3012b
s30128
s3012a
s3012f
s30126
s30127
s3012e
s30129
s3012c
s3010d
s3010b
s30108
s3010a
s3010f
s30106
s30107
s3010e
s30109
s3010c
s3043d
s3043b
s30438
s3043a
s3043f
s30436
s30437
s3043e
s30439
s3043c
s3045d
s3045b
s30458
s3045a
s3045f
s30456
s30457
s3045e
s30459
s3045c
s3042d
s3042b
s30428
s3042a
s3042f
s30426
s30427
s3042e
s30429
s3042c
s3040d
s3040b
s30408
s3040a
s3040f
s30406
s30407
s3040e
s30409
s3040c
s313
s315
s312
s310
s314
s3133
s3155
s3122
s3100
s3144
s3135
s3132
s3130
s3131
s3134
s3152
s3150
s3151
s3154
s3120
s3121
s3124
s3101
s3104
s3153
s3102
s3141
s3123
s3125
s3103
s3105
s3143
s3145
s3142
s3140
s313d
s313b
s3138
s313a
s313f
s3136
s3137
s313e
s3139
s313c
s315d
s315b
s3158
s315a
s315f
s3156
s3157
s315e
s3159
s315c
s312d
s312b
s3128
s312a
s312f
s3126
s3127
s312e
s3129
s312c
s310d
s310b
s3108
s310a
s310f
s3106
s3107
s310e
s3109
s310c
s314d
s314b
s3148
s314a
s314f
s3146
s3147
s314e
s3149
s314c
s31355
s31322
s31300
s31311
s31344
s31333
s3133d
s3133b
s31338
s31335
s31332
s31330
s3133a
s3133f
s31331
s31336
s31334
s31337
s3133e
s31339
s3133c
s31553
s3155d
s3155b
s31558
s31555
s31552
s31550
s3155a
s3155f
s31551
s31556
s31554
s31557
s3155e
s31559
s3155c
s31223
s3122d
s3122b
s31228
s31225
s31222
s31220
s3122a
s3122f
s31221
s31226
s31224
s31227
s3122e
s31229
s3122c
s31003
s3100d
s3100b
s31008
s31005
s31002
s31000
s3100a
s3100f
s31001
s31006
s31004
s31007
s3100e
s31009
s3100c
s31443
s3144d
s3144b
s31448
s31445
s31442
s31440
s3144a
s3144f
s31441
s31446
s31444
s31447
s3144e
s31449
s3144c
s31353
s3135d
s3135b
s31358
s31352
s31350
s3135a
s3135f
s31351
s31356
s31354
s31357
s3135e
s31359
s3135c
s31323
s3132d
s3132b
s31328
s31325
s31320
s3132a
s3132f
s31321
s31326
s31324
s31327
s3132e
s31329
s3132c
s31303
s3130d
s3130b
s31308
s31305
s31302
s3130a
s3130f
s31301
s31306
s31304
s31307
s3130e
s31309
s3130c
s31313
s3131d
s3131b
s31318
s31315
s31312
s31310
s3131a
s3131f
s31316
s31314
s31317
s3131e
s31319
s3131c
s31343
s3134d
s3134b
s31348
s31345
s31342
s31340
s3134a
s3134f
s31341
s31346
s31347
s3134e
s31349
s3134c
s31533
s31522
s31500
s31511
s31544
s31535
s31532
s31530
s31531
s31534
s31233
s31255
s31200
s31211
s31244
s31235
s31232
s31230
s31231
s31234
s31252
s31250
s31251
s31254
s31253
s31033
s31055
s31022
s31011
s31044
s31035
s31032
s31030
s31031
s31034
s31052
s31050
s31051
s31054
s31020
s31021
s31024
s31053
s31433
s31455
s31422
s31400
s31411
s31435
s31432
s31430
s31431
s31434
s31452
s31450
s31451
s31454
s31420
s31421
s31424
s31401
s31404
s31414
s31453
s31402
s31423
s31425
s31403
s31405
s31523
s3152d
s3152b
s31528
s31525
s31520
s3152a
s3152f
s31521
s31526
s31524
s31527
s3152e
s31529
s3152c
s31503
s3150d
s3150b
s31508
s31505
s31502
s3150a
s3150f
s31501
s31506
s31504
s31507
s3150e
s31509
s3150c
s31513
s3151d
s3151b
s31518
s31515
s31512
s31510
s3151a
s3151f
s31516
s31514
s31517
s3151e
s31519
s3151c
s31543
s3154d
s3154b
s31548
s31545
s31542
s31540
s3154a
s3154f
s31541
s31546
s31547
s3154e
s31549
s3154c
s31203
s3120d
s3120b
s31208
s31205
s31202
s3120a
s3120f
s31201
s31206
s31204
s31207
s3120e
s31209
s3120c
s31213
s3121d
s3121b
s31218
s31215
s31212
s31210
s3121a
s3121f
s31216
s31214
s31217
s3121e
s31219
s3121c
s31243
s3124d
s3124b
s31248
s31245
s31242
s31240
s3124a
s3124f
s31241
s31246
s31247
s3124e
s31249
s3124c
s31013
s3101d
s3101b
s31018
s31015
s31012
s31010
s3101a
s3101f
s31016
s31014
s31017
s3101e
s31019
s3101c
s31043
s3104d
s3104b
s31048
s31045
s31042
s31040
s3104a
s3104f
s31041
s31046
s31047
s3104e
s31049
s3104c
s3153d
s3153b
s31538
s3153a
s3153f
s31536
s31537
s3153e
s31539
s3153c
s31023
s3102d
s3102b
s31028
s31025
s3102a
s3102f
s31026
s31027
s3102e
s31029
s3102c
s31413
s3141d
s3141b
s31418
s31415
s31412
s31410
s3141a
s3141f
s31416
s31417
s3141e
s31419
s3141c
s3123d
s3123b
s31238
s3123a
s3123f
s31236
s31237
s3123e
s31239
s3123c
s3125d
s3125b
s31258
s3125a
s3125f
s31256
s31257
s3125e
s31259
s3125c
s3103d
s3103b
s31038
s3103a
s3103f
s31036
s31037
s3103e
s31039
s3103c
s3105d
s3105b
s31058
s3105a
s3105f
s31056
s31057
s3105e
s31059
s3105c
s3143d
s3143b
s31438
s3143a
s3143f
s31436
s31437
s3143e
s31439
s3143c
s3145d
s3145b
s31458
s3145a
s3145f
s31456
s31457
s3145e
s31459
s3145c
s3142d
s3142b
s31428
s3142a
s3142f
s31426
s31427
s3142e
s31429
s3142c
s3140d
s3140b
s31408
s3140a
s3140f
s31406
s31407
s3140e
s31409
s3140c
s343
s345
s342
s340
s341
s3433
s3455
s3422
s3400
s3411
s3435
s3432
s3430
s3431
s3434
s3452
s3450
s3451
s3454
s3420
s3421
s3424
s3401
s3404
s3414
s3453
s3402
s3423
s3425
s3403
s3405
s3413
s3415
s3412
s3410
s343d
s343b
s3438
s343a
s343f
s3436
s3437
s343e
s3439
s343c
s345d
s345b
s3458
s345a
s345f
s3456
s3457
s345e
s3459
s345c
s342d
s342b
s3428
s342a
s342f
s3426
s3427
s342e
s3429
s342c
s340d
s340b
s3408
s340a
s340f
s3406
s3407
s340e
s3409
s340c
s341d
s341b
s3418
s341a
s341f
s3416
s3417
s341e
s3419
s341c
s34355
s34322
s34300
s34311
s34344
s34333
s3433d
s3433b
s34338
s34335
s34332
s34330
s3433a
s3433f
s34331
s34336
s34334
s34337
s3433e
s34339
s3433c
s34553
s3455d
s3455b
s34558
s34555
s34552
s34550
s3455a
s3455f
s34551
s34556
s34554
s34557
s3455e
s34559
s3455c
s34223
s3422d
s3422b
s34228
s34225
s34222
s34220
s3422a
s3422f
s34221
s34226
s34224
s34227
s3422e
s34229
s3422c
s34003
s3400d
s3400b
s34008
s34005
s34002
s34000
s3400a
s3400f
s34001
s34006
s34004
s34007
s3400e
s34009
s3400c
s34113
s3411d
s3411b
s34118
s34115
s34112
s34110
s3411a
s3411f
s34111
s34116
s34114
s34117
s3411e
s34119
s3411c
s34353
s3435d
s3435b
s34358
s34352
s34350
s3435a
s3435f
s34351
s34356
s34354
s34357
s3435e
s34359
s3435c
s34323
s3432d
s3432b
s34328
s34325
s34320
s3432a
s3432f
s34321
s34326
s34324
s34327
s3432e
s34329
s3432c
s34303
s3430d
s3430b
s34308
s34305
s34302
s3430a
s3430f
s34301
s34306
s34304
s34307
s3430e
s34309
s3430c
s34313
s3431d
s3431b
s34318
s34315
s34312
s34310
s3431a
s3431f
s34316
s34314
s34317
s3431e
s34319
s3431c
s34343
s3434d
s3434b
s34348
s34345
s34342
s34340
s3434a
s3434f
s34341
s34346
s34347
s3434e
s34349
s3434c
s34533
s34522
s34500
s34511
s34544
s34535
s34532
s34530
s34531
s34534
s34233
s34255
s34200
s34211
s34244
s34235
s34232
s34230
s34231
s34234
s34252
s34250
s34251
s34254
s34253
s34033
s34055
s34022
s34011
s34044
s34035
s34032
s34030
s34031
s34034
s34052
s34050
s34051
s34054
s34020
s34021
s34024
s34053
s34133
s34155
s34122
s34100
s34144
s34135
s34132
s34130
s34131
s34134
s34152
s34150
s34151
s34154
s34120
s34121
s34124
s34101
s34104
s34153
s34102
s34123
s34125
s34103
s34105
s34523
s3452d
s3452b
s34528
s34525
s34520
s3452a
s3452f
s34521
s34526
s34524
s34527
s3452e
s34529
s3452c
s34503
s3450d
s3450b
s34508
s34505
s34502
s3450a
s3450f
s34501
s34506
s34504
s34507
s3450e
s34509
s3450c
s34513
s3451d
s3451b
s34518
s34515
s34512
s34510
s3451a
s3451f
s34516
s34514
s34517
s3451e
s34519
s3451c
s34543
s3454d
s3454b
s34548
s34545
s34542
s34540
s3454a
s3454f
s34541
s34546
s34547
s3454e
s34549
s3454c
s34203
s3420d
s3420b
s34208
s34205
s34202
s3420a
s3420f
s34201
s34206
s34204
s34207
s3420e
s34209
s3420c
s34213
s3421d
s3421b
s34218
s34215
s34212
s34210
s3421a
s3421f
s34216
s34214
s34217
s3421e
s34219
s3421c
s34243
s3424d
s3424b
s34248
s34245
s34242
s34240
s3424a
s3424f
s34241
s34246
s34247
s3424e
s34249
s3424c
s34013
s3401d
s3401b
s34018
s34015
s34012
s34010
s3401a
s3401f
s34016
s34014
s34017
s3401e
s34019
s3401c
s34043
s3404d
s3404b
s34048
s34045
s34042
s34040
s3404a
s3404f
s34041
s34046
s34047
s3404e
s34049
s3404c
s34143
s3414d
s3414b
s34148
s34145
s34142
s34140
s3414a
s3414f
s34141
s34146
s34147
s3414e
s34149
s3414c
s3453d
s3453b
s34538
s3453a
s3453f
s34536
s34537
s3453e
s34539
s3453c
s34023
s3402d
s3402b
s34028
s34025
s3402a
s3402f
s34026
s34027
s3402e
s34029
s3402c
s3423d
s3423b
s34238
s3423a
s3423f
s34236
s34237
s3423e
s34239
s3423c
s3425d
s3425b
s34258
s3425a
s3425f
s34256
s34257
s3425e
s34259
s3425c
s3403d
s3403b
s34038
s3403a
s3403f
s34036
s34037
s3403e
s34039
s3403c
s3405d
s3405b
s34058
s3405a
s3405f
s34056
s34057
s3405e
s34059
s3405c
s3413d
s3413b
s34138
s3413a
s3413f
s34136
s34137
s3413e
s34139
s3413c
s3415d
s3415b
s34158
s3415a
s3415f
s34156
s34157
s3415e
s34159
s3415c
s3412d
s3412b
s34128
s3412a
s3412f
s34126
s34127
s3412e
s34129
s3412c
s3410d
s3410b
s34108
s3410a
s3410f
s34106
s34107
s3410e
s34109
s3410c
s253
s252
s250
s251
s254
s2533
s2522
s2500
s2511
s2544
s2535
s2532
s2530
s2531
s2534
s2520
s2521
s2524
s2501
s2504
s2514
s2502
s2541
s2523
s2525
s2503
s2505
s2513
s2515
s2512
s2510
s2543
s2545
s2542
s2540
s253d
s253b
s2538
s253a
s253f
s2536
s2537
s253e
s2539
s253c
s252d
s252b
s2528
s252a
s252f
s2526
s2527
s252e
s2529
s252c
s250d
s250b
s2508
s250a
s250f
s2506
s2507
s250e
s2509
s250c
s251d
s251b
s2518
s251a
s251f
s2516
s2517
s251e
s2519
s251c
s254d
s254b
s2548
s254a
s254f
s2546
s2547
s254e
s2549
s254c
s25355
s25322
s25300
s25311
s25344
s25333
s2533d
s2533b
s25338
s25335
s25332
s25330
s2533a
s2533f
s25331
s25336
s25334
s25337
s2533e
s25339
s2533c
s25223
s2522d
s2522b
s25228
s25225
s25222
s25220
s2522a
s2522f
s25221
s25226
s25224
s25227
s2522e
s25229
s2522c
s25003
s2500d
s2500b
s25008
s25005
s25002
s25000
s2500a
s2500f
s25001
s25006
s25004
s25007
s2500e
s25009
s2500c
s25113
s2511d
s2511b
s25118
s25115
s25112
s25110
s2511a
s2511f
s25111
s25116
s25114
s25117
s2511e
s25119
s2511c
s25443
s2544d
s2544b
s25448
s25445
s25442
s25440
s2544a
s2544f
s25441
s25446
s25444
s25447
s2544e
s25449
s2544c
s25353
s2535d
s2535b
s25358
s25352
s25350
s2535a
s2535f
s25351
s25356
s25354
s25357
s2535e
s25359
s2535c
s25323
s2532d
s2532b
s25328
s25325
s25320
s2532a
s2532f
s25321
s25326
s25324
s25327
s2532e
s25329
s2532c
s25303
s2530d
s2530b
s25308
s25305
s25302
s2530a
s2530f
s25301
s25306
s25304
s25307
s2530e
s25309
s2530c
s25313
s2531d
s2531b
s25318
s25315
s25312
s25310
s2531a
s2531f
s25316
s25314
s25317
s2531e
s25319
s2531c
s25343
s2534d
s2534b
s25348
s25345
s25342
s25340
s2534a
s2534f
s25341
s25346
s25347
s2534e
s25349
s2534c
s25233
s25255
s25200
s25211
s25244
s25235
s25232
s25230
s25231
s25234
s25252
s25250
s25251
s25254
s25253
s25033
s25055
s25022
s25011
s25044
s25035
s25032
s25030
s25031
s25034
s25052
s25050
s25051
s25054
s25020
s25021
s25024
s25053
s25133
s25155
s25122
s25100
s25144
s25135
s25132
s25130
s25131
s25134
s25152
s25150
s25151
s25154
s25120
s25121
s25124
s25101
s25104
s25153
s25102
s25123
s25125
s25103
s25105
s25433
s25455
s25422
s25400
s25411
s25435
s25432
s25430
s25431
s25434
s25452
s25450
s25451
s25454
s25420
s25421
s25424
s25401
s25404
s25414
s25453
s25402
s25423
s25425
s25403
s25405
s25203
s2520d
s2520b
s25208
s25205
s25202
s2520a
s2520f
s25201
s25206
s25204
s25207
s2520e
s25209
s2520c
s25213
s2521d
s2521b
s25218
s25215
s25212
s25210
s2521a
s2521f
s25216
s25214
s25217
s2521e
s25219
s2521c
s25243
s2524d
s2524b
s25248
s25245
s25242
s25240
s2524a
s2524f
s25241
s25246
s25247
s2524e
s25249
s2524c
s25013
s2501d
s2501b
s25018
s25015
s25012
s25010
s2501a
s2501f
s25016
s25014
s25017
s2501e
s25019
s2501c
s25043
s2504d
s2504b
s25048
s25045
s25042
s25040
s2504a
s2504f
s25041
s25046
s25047
s2504e
s25049
s2504c
s25143
s2514d
s2514b
s25148
s25145
s25142
s25140
s2514a
s2514f
s25141
s25146
s25147
s2514e
s25149
s2514c
s25023
s2502d
s2502b
s25028
s25025
s2502a
s2502f
s25026
s25027
s2502e
s25029
s2502c
s25413
s2541d
s2541b
s25418
s25415
s25412
s25410
s2541a
s2541f
s25416
s25417
s2541e
s25419
s2541c
s2523d
s2523b
s25238
s2523a
s2523f
s25236
s25237
s2523e
s25239
s2523c
s2525d
s2525b
s25258
s2525a
s2525f
s25256
s25257
s2525e
s25259
s2525c
s2503d
s2503b
s25038
s2503a
s2503f
s25036
s25037
s2503e
s25039
s2503c
s2505d
s2505b
s25058
s2505a
s2505f
s25056
s25057
s2505e
s25059
s2505c
s2513d
s2513b
s25138
s2513a
s2513f
s25136
s25137
s2513e
s25139
s2513c
s2515d
s2515b
s25158
s2515a
s2515f
s25156
s25157
s2515e
s25159
s2515c
s2512d
s2512b
s25128
s2512a
s2512f
s25126
s25127
s2512e
s25129
s2512c
s2510d
s2510b
s25108
s2510a
s2510f
s25106
s25107
s2510e
s25109
s2510c
s2543d
s2543b
s25438
s2543a
s2543f
s25436
s25437
s2543e
s25439
s2543c
s2545d
s2545b
s25458
s2545a
s2545f
s25456
s25457
s2545e
s25459
s2545c
s2542d
s2542b
s25428
s2542a
s2542f
s25426
s25427
s2542e
s25429
s2542c
s2540d
s2540b
s25408
s2540a
s2540f
s25406
s25407
s2540e
s25409
s2540c
s223
s225
s220
s221
s224
s2233
s2255
s2200
s2211
s2244
s2235
s2232
s2230
s2231
s2234
s2252
s2250
s2251
s2254
s2201
s2204
s2214
s2253
s2202
s2241
s2203
s2205
s2213
s2215
s2212
s2210
s2243
s2245
s2242
s2240
s223d
s223b
s2238
s223a
s223f
s2236
s2237
s223e
s2239
s223c
s225d
s225b
s2258
s225a
s225f
s2256
s2257
s225e
s2259
s225c
s220d
s220b
s2208
s220a
s220f
s2206
s2207
s220e
s2209
s220c
s221d
s221b
s2218
s221a
s221f
s2216
s2217
s221e
s2219
s221c
s224d
s224b
s2248
s224a
s224f
s2246
s2247
s224e
s2249
s224c
s22355
s22322
s22300
s22311
s22344
s22333
s2233d
s2233b
s22338
s22335
s22332
s22330
s2233a
s2233f
s22331
s22336
s22334
s22337
s2233e
s22339
s2233c
s22553
s2255d
s2255b
s22558
s22555
s22552
s22550
s2255a
s2255f
s22551
s22556
s22554
s22557
s2255e
s22559
s2255c
s22003
s2200d
s2200b
s22008
s22005
s22002
s22000
s2200a
s2200f
s22001
s22006
s22004
s22007
s2200e
s22009
s2200c
s22113
s2211d
s2211b
s22118
s22115
s22112
s22110
s2211a
s2211f
s22111
s22116
s22114
s22117
s2211e
s22119
s2211c
s22443
s2244d
s2244b
s22448
s22445
s22442
s22440
s2244a
s2244f
s22441
s22446
s22444
s22447
s2244e
s22449
s2244c
s22353
s2235d
s2235b
s22358
s22352
s22350
s2235a
s2235f
s22351
s22356
s22354
s22357
s2235e
s22359
s2235c
s22323
s2232d
s2232b
s22328
s22325
s22320
s2232a
s2232f
s22321
s22326
s22324
s22327
s2232e
s22329
s2232c
s22303
s2230d
s2230b
s22308
s22305
s22302
s2230a
s2230f
s22301
s22306
s22304
s22307
s2230e
s22309
s2230c
s22313
s2231d
s2231b
s22318
s22315
s22312
s22310
s2231a
s2231f
s22316
s22314
s22317
s2231e
s22319
s2231c
s22343
s2234d
s2234b
s22348
s22345
s22342
s22340
s2234a
s2234f
s22341
s22346
s22347
s2234e
s22349
s2234c
s22533
s22522
s22500
s22511
s22544
s22535
s22532
s22530
s22531
s22534
s22033
s22055
s22022
s22011
s22044
s22035
s22032
s22030
s22031
s22034
s22052
s22050
s22051
s22054
s22020
s22021
s22024
s22053
s22133
s22155
s22122
s22100
s22144
s22135
s22132
s22130
s22131
s22134
s22152
s22150
s22151
s22154
s22120
s22121
s22124
s22101
s22104
s22153
s22102
s22123
s22125
s22103
s22105
s22433
s22455
s22422
s22400
s22411
s22435
s22432
s22430
s22431
s22434
s22452
s22450
s22451
s22454
s22420
s22421
s22424
s22401
s22404
s22414
s22453
s22402
s22423
s22425
s22403
s22405
s22523
s2252d
s2252b
s22528
s22525
s22520
s2252a
s2252f
s22521
s22526
s22524
s22527
s2252e
s22529
s2252c
s22503
s2250d
s2250b
s22508
s22505
s22502
s2250a
s2250f
s22501
s22506
s22504
s22507
s2250e
s22509
s2250c
s22513
s2251d
s2251b
s22518
s22515
s22512
s22510
s2251a
s2251f
s22516
s22514
s22517
s2251e
s22519
s2251c
s22543
s2254d
s2254b
s22548
s22545
s22542
s22540
s2254a
s2254f
s22541
s22546
s22547
s2254e
s22549
s2254c
s22013
s2201d
s2201b
s22018
s22015
s22012
s22010
s2201a
s2201f
s22016
s22014
s22017
s2201e
s22019
s2201c
s22043
s2204d
s2204b
s22048
s22045
s22042
s22040
s2204a
s2204f
s22041
s22046
s22047
s2204e
s22049
s2204c
s22143
s2214d
s2214b
s22148
s22145
s22142
s22140
s2214a
s2214f
s22141
s22146
s22147
s2214e
s22149
s2214c
s2253d
s2253b
s22538
s2253a
s2253f
s22536
s22537
s2253e
s22539
s2253c
s22023
s2202d
s2202b
s22028
s22025
s2202a
s2202f
s22026
s22027
s2202e
s22029
s2202c
s22413
s2241d
s2241b
s22418
s22415
s22412
s22410
s2241a
s2241f
s22416
s22417
s2241e
s22419
s2241c
s2203d
s2203b
s22038
s2203a
s2203f
s22036
s22037
s2203e
s22039
s2203c
s2205d
s2205b
s22058
s2205a
s2205f
s22056
s22057
s2205e
s22059
s2205c
s2213d
s2213b
s22138
s2213a
s2213f
s22136
s22137
s2213e
s22139
s2213c
s2215d
s2215b
s22158
s2215a
s2215f
s22156
s22157
s2215e
s22159
s2215c
s2212d
s2212b
s22128
s2212a
s2212f
s22126
s22127
s2212e
s22129
s2212c
s2210d
s2210b
s22108
s2210a
s2210f
s22106
s22107
s2210e
s22109
s2210c
s2243d
s2243b
s22438
s2243a
s2243f
s22436
s22437
s2243e
s22439
s2243c
s2245d
s2245b
s22458
s2245a
s2245f
s22456
s22457
s2245e
s22459
s2245c
s2242d
s2242b
s22428
s2242a
s2242f
s22426
s22427
s2242e
s22429
s2242c
s2240d
s2240b
s22408
s2240a
s2240f
s22406
s22407
s2240e
s22409
s2240c
s203
s205
s202
s201
s204
s2033
s2055
s2022
s2011
s2044
s2035
s2032
s2030
s2031
s2034
s2052
s2050
s2051
s2054
s2020
s2021
s2024
s2014
s2053
s2041
s2023
s2025
s2013
s2015
s2012
s2010
s2043
s2045
s2042
s2040
s203d
s203b
s2038
s203a
s203f
s2036
s2037
s203e
s2039
s203c
s205d
s205b
s2058
s205a
s205f
s2056
s2057
s205e
s2059
s205c
s202d
s202b
s2028
s202a
s202f
s2026
s2027
s202e
s2029
s202c
s201d
s201b
s2018
s201a
s201f
s2016
s2017
s201e
s2019
s201c
s204d
s204b
s2048
s204a
s204f
s2046
s2047
s204e
s2049
s204c
s20355
s20322
s20300
s20311
s20344
s20333
s2033d
s2033b
s20338
s20335
s20332
s20330
s2033a
s2033f
s20331
s20336
s20334
s20337
s2033e
s20339
s2033c
s20553
s2055d
s2055b
s20558
s20555
s20552
s20550
s2055a
s2055f
s20551
s20556
s20554
s20557
s2055e
s20559
s2055c
s20223
s2022d
s2022b
s20228
s20225
s20222
s20220
s2022a
s2022f
s20221
s20226
s20224
s20227
s2022e
s20229
s2022c
s20113
s2011d
s2011b
s20118
s20115
s20112
s20110
s2011a
s2011f
s20111
s20116
s20114
s20117
s2011e
s20119
s2011c
s20443
s2044d
s2044b
s20448
s20445
s20442
s20440
s2044a
s2044f
s20441
s20446
s20444
s20447
s2044e
s20449
s2044c
s20353
s2035d
s2035b
s20358
s20352
s20350
s2035a
s2035f
s20351
s20356
s20354
s20357
s2035e
s20359
s2035c
s20323
s2032d
s2032b
s20328
s20325
s20320
s2032a
s2032f
s20321
s20326
s20324
s20327
s2032e
s20329
s2032c
s20303
s2030d
s2030b
s20308
s20305
s20302
s2030a
s2030f
s20301
s20306
s20304
s20307
s2030e
s20309
s2030c
s20313
s2031d
s2031b
s20318
s20315
s20312
s20310
s2031a
s2031f
s20316
s20314
s20317
s2031e
s20319
s2031c
s20343
s2034d
s2034b
s20348
s20345
s20342
s20340
s2034a
s2034f
s20341
s20346
s20347
s2034e
s20349
s2034c
s20533
s20522
s20500
s20511
s20544
s20535
s20532
s20530
s20531
s20534
s20233
s20255
s20200
s20211
s20244
s20235
s20232
s20230
s20231
s20234
s20252
s20250
s20251
s20254
s20253
s20133
s20155
s20122
s20100
s20144
s20135
s20132
s20130
s20131
s20134
s20152
s20150
s20151
s20154
s20120
s20121
s20124
s20101
s20104
s20153
s20102
s20123
s20125
s20103
s20105
s20433
s20455
s20422
s20400
s20411
s20435
s20432
s20430
s20431
s20434
s20452
s20450
s20451
s20454
s20420
s20421
s20424
s20401
s20404
s20414
s20453
s20402
s20423
s20425
s20403
s20405
s20523
s2052d
s2052b
s20528
s20525
s20520
s2052a
s2052f
s20521
s20526
s20524
s20527
s2052e
s20529
s2052c
s20503
s2050d
s2050b
s20508
s20505
s20502
s2050a
s2050f
s20501
s20506
s20504
s20507
s2050e
s20509
s2050c
s20513
s2051d
s2051b
s20518
s20515
s20512
s20510
s2051a
s2051f
s20516
s20514
s20517
s2051e
s20519
s2051c
s20543
s2054d
s2054b
s20548
s20545
s20542
s20540
s2054a
s2054f
s20541
s20546
s20547
s2054e
s20549
s2054c
s20203
s2020d
s2020b
s20208
s20205
s20202
s2020a
s2020f
s20201
s20206
s20204
s20207
s2020e
s20209
s2020c
s20213
s2021d
s2021b
s20218
s20215
s20212
s20210
s2021a
s2021f
s20216
s20214
s20217
s2021e
s20219
s2021c
s20243
s2024d
s2024b
s20248
s20245
s20242
s20240
s2024a
s2024f
s20241
s20246
s20247
s2024e
s20249
s2024c
s20143
s2014d
s2014b
s20148
s20145
s20142
s20140
s2014a
s2014f
s20141
s20146
s20147
s2014e
s20149
s2014c
s2053d
s2053b
s20538
s2053a
s2053f
s20536
s20537
s2053e
s20539
s2053c
s20413
s2041d
s2041b
s20418
s20415
s20412
s20410
s2041a
s2041f
s20416
s20417
s2041e
s20419
s2041c
s2023d
s2023b
s20238
s2023a
s2023f
s20236
s20237
s2023e
s20239
s2023c
s2025d
s2025b
s20258
s2025a
s2025f
s20256
s20257
s2025e
s20259
s2025c
s2013d
s2013b
s20138
s2013a
s2013f
s20136
s20137
s2013e
s20139
s2013c
s2015d
s2015b
s20158
s2015a
s2015f
s20156
s20157
s2015e
s20159
s2015c
s2012d
s2012b
s20128
s2012a
s2012f
s20126
s20127
s2012e
s20129
s2012c
s2010d
s2010b
s20108
s2010a
s2010f
s20106
s20107
s2010e
s20109
s2010c
s2043d
s2043b
s20438
s2043a
s2043f
s20436
s20437
s2043e
s20439
s2043c
s2045d
s2045b
s20458
s2045a
s2045f
s20456
s20457
s2045e
s20459
s2045c
s2042d
s2042b
s20428
s2042a
s2042f
s20426
s20427
s2042e
s20429
s2042c
s2040d
s2040b
s20408
s2040a
s2040f
s20406
s20407
s2040e
s20409
s2040c
s213
s215
s212
s210
s214
s2133
s2155
s2122
s2100
s2144
s2135
s2132
s2130
s2131
s2134
s2152
s2150
s2151
s2154
s2120
s2121
s2124
s2101
s2104
s2153
s2102
s2141
s2123
s2125
s2103
s2105
s2143
s2145
s2142
s2140
s213d
s213b
s2138
s213a
s213f
s2136
s2137
s213e
s2139
s213c
s215d
s215b
s2158
s215a
s215f
s2156
s2157
s215e
s2159
s215c
s212d
s212b
s2128
s212a
s212f
s2126
s2127
s212e
s2129
s212c
s210d
s210b
s2108
s210a
s210f
s2106
s2107
s210e
s2109
s210c
s214d
s214b
s2148
s214a
s214f
s2146
s2147
s214e
s2149
s214c
s21355
s21322
s21300
s21311
s21344
s21333
s2133d
s2133b
s21338
s21335
s21332
s21330
s2133a
s2133f
s21331
s21336
s21334
s21337
s2133e
s21339
s2133c
s21553
s2155d
s2155b
s21558
s21555
s21552
s21550
s2155a
s2155f
s21551
s21556
s21554
s21557
s2155e
s21559
s2155c
s21223
s2122d
s2122b
s21228
s21225
s21222
s21220
s2122a
s2122f
s21221
s21226
s21224
s21227
s2122e
s21229
s2122c
s21003
s2100d
s2100b
s21008
s21005
s21002
s21000
s2100a
s2100f
s21001
s21006
s21004
s21007
s2100e
s21009
s2100c
s21443
s2144d
s2144b
s21448
s21445
s21442
s21440
s2144a
s2144f
s21441
s21446
s21444
s21447
s2144e
s21449
s2144c
s21353
s2135d
s2135b
s21358
s21352
s21350
s2135a
s2135f
s21351
s21356
s21354
s21357
s2135e
s21359
s2135c
s21323
s2132d
s2132b
s21328
s21325
s21320
s2132a
s2132f
s21321
s21326
s21324
s21327
s2132e
s21329
s2132c
s21303
s2130d
s2130b
s21308
s21305
s21302
s2130a
s2130f
s21301
s21306
s21304
s21307
s2130e
s21309
s2130c
s21313
s2131d
s2131b
s21318
s21315
s21312
s21310
s2131a
s2131f
s21316
s21314
s21317
s2131e
s21319
s2131c
s21343
s2134d
s2134b
s21348
s21345
s21342
s21340
s2134a
s2134f
s21341
s21346
s21347
s2134e
s21349
s2134c
s21533
s21522
s21500
s21511
s21544
s21535
s21532
s21530
s21531
s21534
s21233
s21255
s21200
s21211
s21244
s21235
s21232
s21230
s21231
s21234
s21252
s21250
s21251
s21254
s21253
s21033
s21055
s21022
s21011
s21044
s21035
s21032
s21030
s21031
s21034
s21052
s21050
s21051
s21054
s21020
s21021
s21024
s21053
s21433
s21455
s21422
s21400
s21411
s21435
s21432
s21430
s21431
s21434
s21452
s21450
s21451
s21454
s21420
s21421
s21424
s21401
s21404
s21414
s21453
s21402
s21423
s21425
s21403
s21405
s21523
s2152d
s2152b
s21528
s21525
s21520
s2152a
s2152f
s21521
s21526
s21524
s21527
s2152e
s21529
s2152c
s21503
s2150d
s2150b
s21508
s21505
s21502
s2150a
s2150f
s21501
s21506
s21504
s21507
s2150e
s21509
s2150c
s21513
s2151d
s2151b
s21518
s21515
s21512
s21510
s2151a
s2151f
s21516
s21514
s21517
s2151e
s21519
s2151c
s21543
s2154d
s2154b
s21548
s21545
s21542
s21540
s2154a
s2154f
s21541
s21546
s21547
s2154e
s21549
s2154c
s21203
s2120d
s2120b
s21208
s21205
s21202
s2120a
s2120f
s21201
s21206
s21204
s21207
s2120e
s21209
s2120c
s21213
s2121d
s2121b
s21218
s21215
s21212
s21210
s2121a
s2121f
s21216
s21214
s21217
s2121e
s21219
s2121c
s21243
s2124d
s2124b
s21248
s21245
s21242
s21240
s2124a
s2124f
s21241
s21246
s21247
s2124e
s21249
s2124c
s21013
s2101d
s2101b
s21018
s21015
s21012
s21010
s2101a
s2101f
s21016
s21014
s21017
s2101e
s21019
s2101c
s21043
s2104d
s2104b
s21048
s21045
s21042
s21040
s2104a
s2104f
s21041
s21046
s21047
s2104e
s21049
s2104c
s2153d
s2153b
s21538
s2153a
s2153f
s21536
s21537
s2153e
s21539
s2153c
s21023
s2102d
s2102b
s21028
s21025
s2102a
s2102f
s21026
s21027
s2102e
s21029
s2102c
s21413
s2141d
s2141b
s21418
s21415
s21412
s21410
s2141a
s2141f
s21416
s21417
s2141e
s21419
s2141c
s2123d
s2123b
s21238
s2123a
s2123f
s21236
s21237
s2123e
s21239
s2123c
s2125d
s2125b
s21258
s2125a
s2125f
s21256
s21257
s2125e
s21259
s2125c
s2103d
s2103b
s21038
s2103a
s2103f
s21036
s21037
s2103e
s21039
s2103c
s2105d
s2105b
s21058
s2105a
s2105f
s21056
s21057
s2105e
s21059
s2105c
s2143d
s2143b
s21438
s2143a
s2143f
s21436
s21437
s2143e
s21439
s2143c
s2145d
s2145b
s21458
s2145a
s2145f
s21456
s21457
s2145e
s21459
s2145c
s2142d
s2142b
s21428
s2142a
s2142f
s21426
s21427
s2142e
s21429
s2142c
s2140d
s2140b
s21408
s2140a
s2140f
s21406
s21407
s2140e
s21409
s2140c
s243
s245
s242
s240
s241
s2433
s2455
s2422
s2400
s2411
s2435
s2432
s2430
s2431
s2434
s2452
s2450
s2451
s2454
s2420
s2421
s2424
s2401
s2404
s2414
s2453
s2402
s2423
s2425
s2403
s2405
s2413
s2415
s2412
s2410
s243d
s243b
s2438
s243a
s243f
s2436
s2437
s243e
s2439
s243c
s245d
s245b
s2458
s245a
s245f
s2456
s2457
s245e
s2459
s245c
s242d
s242b
s2428
s242a
s242f
s2426
s2427
s242e
s2429
s242c
s240d
s240b
s2408
s240a
s240f
s2406
s2407
s240e
s2409
s240c
s241d
s241b
s2418
s241a
s241f
s2416
s2417
s241e
s2419
s241c
s24355
s24322
s24300
s24311
s24344
s24333
s2433d
s2433b
s24338
s24335
s24332
s24330
s2433a
s2433f
s24331
s24336
s24334
s24337
s2433e
s24339
s2433c
s24553
s2455d
s2455b
s24558
s24555
s24552
s24550
s2455a
s2455f
s24551
s24556
s24554
s24557
s2455e
s24559
s2455c
s24223
s2422d
s2422b
s24228
s24225
s24222
s24220
s2422a
s2422f
s24221
s24226
s24224
s24227
s2422e
s24229
s2422c
s24003
s2400d
s2400b
s24008
s24005
s24002
s24000
s2400a
s2400f
s24001
s24006
s24004
s24007
s2400e
s24009
s2400c
s24113
s2411d
s2411b
s24118
s24115
s24112
s24110
s2411a
s2411f
s24111
s24116
s24114
s24117
s2411e
s24119
s2411c
s24353
s2435d
s2435b
s24358
s24352
s24350
s2435a
s2435f
s24351
s24356
s24354
s24357
s2435e
s24359
s2435c
s24323
s2432d
s2432b
s24328
s24325
s24320
s2432a
s2432f
s24321
s24326
s24324
s24327
s2432e
s24329
s2432c
s24303
s2430d
s2430b
s24308
s24305
s24302
s2430a
s2430f
s24301
s24306
s24304
s24307
s2430e
s24309
s2430c
s24313
s2431d
s2431b
s24318
s24315
s24312
s24310
s2431a
s2431f
s24316
s24314
s24317
s2431e
s24319
s2431c
s24343
s2434d
s2434b
s24348
s24345
s24342
s24340
s2434a
s2434f
s24341
s24346
s24347
s2434e
s24349
s2434c
s24533
s24522
s24500
s24511
s24544
s24535
s24532
s24530
s24531
s24534
s24233
s24255
s24200
s24211
s24244
s24235
s24232
s24230
s24231
s24234
s24252
s24250
s24251
s24254
s24253
s24033
s24055
s24022
s24011
s24044
s24035
s24032
s24030
s24031
s24034
s24052
s24050
s24051
s24054
s24020
s24021
s24024
s24053
s24133
s24155
s24122
s24100
s24144
s24135
s24132
s24130
s24131
s24134
s24152
s24150
s24151
s24154
s24120
s24121
s24124
s24101
s24104
s24153
s24102
s24123
s24125
s24103
s24105
s24523
s2452d
s2452b
s24528
s24525
s24520
s2452a
s2452f
s24521
s24526
s24524
s24527
s2452e
s24529
s2452c
s24503
s2450d
s2450b
s24508
s24505
s24502
s2450a
s2450f
s24501
s24506
s24504
s24507
s2450e
s24509
s2450c
s24513
s2451d
s2451b
s24518
s24515
s24512
s24510
s2451a
s2451f
s24516
s24514
s24517
s2451e
s24519
s2451c
s24543
s2454d
s2454b
s24548
s24545
s24542
s24540
s2454a
s2454f
s24541
s24546
s24547
s2454e
s24549
s2454c
s24203
s2420d
s2420b
s24208
s24205
s24202
s2420a
s2420f
s24201
s24206
s24204
s24207
s2420e
s24209
s2420c
s24213
s2421d
s2421b
s24218
s24215
s24212
s24210
s2421a
s2421f
s24216
s24214
s24217
s2421e
s24219
s2421c
s24243
s2424d
s2424b
s24248
s24245
s24242
s24240
s2424a
s2424f
s24241
s24246
s24247
s2424e
s24249
s2424c
s24013
s2401d
s2401b
s24018
s24015
s24012
s24010
s2401a
s2401f
s24016
s24014
s24017
s2401e
s24019
s2401c
s24043
s2404d
s2404b
s24048
s24045
s24042
s24040
s2404a
s2404f
s24041
s24046
s24047
s2404e
s24049
s2404c
s24143
s2414d
s2414b
s24148
s24145
s24142
s24140
s2414a
s2414f
s24141
s24146
s24147
s2414e
s24149
s2414c
s2453d
s2453b
s24538
s2453a
s2453f
s24536
s24537
s2453e
s24539
s2453c
s24023
s2402d
s2402b
s24028
s24025
s2402a
s2402f
s24026
s24027
s2402e
s24029
s2402c
s2423d
s2423b
s24238
s2423a
s2423f
s24236
s24237
s2423e
s24239
s2423c
s2425d
s2425b
s24258
s2425a
s2425f
s24256
s24257
s2425e
s24259
s2425c
s2403d
s2403b
s24038
s2403a
s2403f
s24036
s24037
s2403e
s24039
s2403c
s2405d
s2405b
s24058
s2405a
s2405f
s24056
s24057
s2405e
s24059
s2405c
s2413d
s2413b
s24138
s2413a
s2413f
s24136
s24137
s2413e
s24139
s2413c
s2415d
s2415b
s24158
s2415a
s2415f
s24156
s24157
s2415e
s24159
s2415c
s2412d
s2412b
s24128
s2412a
s2412f
s24126
s24127
s2412e
s24129
s2412c
s2410d
s2410b
s24108
s2410a
s2410f
s24106
s24107
s2410e
s24109
s2410c
s153
s152
s150
s151
s154
s1533
s1522
s1500
s1511
s1544
s1535
s1532
s1530
s1531
s1534
s1520
s1521
s1524
s1501
s1504
s1514
s1502
s1541
s1523
s1525
s1503
s1505
s1513
s1515
s1512
s1510
s1543
s1545
s1542
s1540
s153d
s153b
s1538
s153a
s153f
s1536
s1537
s153e
s1539
s153c
s152d
s152b
s1528
s152a
s152f
s1526
s1527
s152e
s1529
s152c
s150d
s150b
s1508
s150a
s150f
s1506
s1507
s150e
s1509
s150c
s151d
s151b
s1518
s151a
s151f
s1516
s1517
s151e
s1519
s151c
s154d
s154b
s1548
s154a
s154f
s1546
s1547
s154e
s1549
s154c
s15355
s15322
s15300
s15311
s15344
s15333
s1533d
s1533b
s15338
s15335
s15332
s15330
s1533a
s1533f
s15331
s15336
s15334
s15337
s1533e
s15339
s1533c
s15223
s1522d
s1522b
s15228
s15225
s15222
s15220
s1522a
s1522f
s15221
s15226
s15224
s15227
s1522e
s15229
s1522c
s15003
s1500d
s1500b
s15008
s15005
s15002
s15000
s1500a
s1500f
s15001
s15006
s15004
s15007
s1500e
s15009
s1500c
s15113
s1511d
s1511b
s15118
s15115
s15112
s15110
s1511a
s1511f
s15111
s15116
s15114
s15117
s1511e
s15119
s1511c
s15443
s1544d
s1544b
s15448
s15445
s15442
s15440
s1544a
s1544f
s15441
s15446
s15444
s15447
s1544e
s15449
s1544c
s15353
s1535d
s1535b
s15358
s15352
s15350
s1535a
s1535f
s15351
s15356
s15354
s15357
s1535e
s15359
s1535c
s15323
s1532d
s1532b
s15328
s15325
s15320
s1532a
s1532f
s15321
s15326
s15324
s15327
s1532e
s15329
s1532c
s15303
s1530d
s1530b
s15308
s15305
s15302
s1530a
s1530f
s15301
s15306
s15304
s15307
s1530e
s15309
s1530c
s15313
s1531d
s1531b
s15318
s15315
s15312
s15310
s1531a
s1531f
s15316
s15314
s15317
s1531e
s15319
s1531c
s15343
s1534d
s1534b
s15348
s15345
s15342
s15340
s1534a
s1534f
s15341
s15346
s15347
s1534e
s15349
s1534c
s15233
s15255
s15200
s15211
s15244
s15235
s15232
s15230
s15231
s15234
s15252
s15250
s15251
s15254
s15253
s15033
s15055
s15022
s15011
s15044
s15035
s15032
s15030
s15031
s15034
s15052
s15050
s15051
s15054
s15020
s15021
s15024
s15053
s15133
s15155
s15122
s15100
s15144
s15135
s15132
s15130
s15131
s15134
s15152
s15150
s15151
s15154
s15120
s15121
s15124
s15101
s15104
s15153
s15102
s15123
s15125
s15103
s15105
s15433
s15455
s15422
s15400
s15411
s15435
s15432
s15430
s15431
s15434
s15452
s15450
s15451
s15454
s15420
s15421
s15424
s15401
s15404
s15414
s15453
s15402
s15423
s15425
s15403
s15405
s15203
s1520d
s1520b
s15208
s15205
s15202
s1520a
s1520f
s15201
s15206
s15204
s15207
s1520e
s15209
s1520c
s15213
s1521d
s1521b
s15218
s15215
s15212
s15210
s1521a
s1521f
s15216
s15214
s15217
s1521e
s15219
s1521c
s15243
s1524d
s1524b
s15248
s15245
s15242
s15240
s1524a
s1524f
s15241
s15246
s15247
s1524e
s15249
s1524c
s15013
s1501d
s1501b
s15018
s15015
s15012
s15010
s1501a
s1501f
s15016
s15014
s15017
s1501e
s15019
s1501c
s15043
s1504d
s1504b
s15048
s15045
s15042
s15040
s1504a
s1504f
s15041
s15046
s15047
s1504e
s15049
s1504c
s15143
s1514d
s1514b
s15148
s15145
s15142
s15140
s1514a
s1514f
s15141
s15146
s15147
s1514e
s15149
s1514c
s15023
s1502d
s1502b
s15028
s15025
s1502a
s1502f
s15026
s15027
s1502e
s15029
s1502c
s15413
s1541d
s1541b
s15418
s15415
s15412
s15410
s1541a
s1541f
s15416
s15417
s1541e
s15419
s1541c
s1523d
s1523b
s15238
s1523a
s1523f
s15236
s15237
s1523e
s15239
s1523c
s1525d
s1525b
s15258
s1525a
s1525f
s15256
s15257
s1525e
s15259
s1525c
s1503d
s1503b
s15038
s1503a
s1503f
s15036
s15037
s1503e
s15039
s1503c
s1505d
s1505b
s15058
s1505a
s1505f
s15056
s15057
s1505e
s15059
s1505c
s1513d
s1513b
s15138
s1513a
s1513f
s15136
s15137
s1513e
s15139
s1513c
s1515d
s1515b
s15158
s1515a
s1515f
s15156
s15157
s1515e
s15159
s1515c
s1512d
s1512b
s15128
s1512a
s1512f
s15126
s15127
s1512e
s15129
s1512c
s1510d
s1510b
s15108
s1510a
s1510f
s15106
s15107
s1510e
s15109
s1510c
s1543d
s1543b
s15438
s1543a
s1543f
s15436
s15437
s1543e
s15439
s1543c
s1545d
s1545b
s15458
s1545a
s1545f
s15456
s15457
s1545e
s15459
s1545c
s1542d
s1542b
s15428
s1542a
s1542f
s15426
s15427
s1542e
s15429
s1542c
s1540d
s1540b
s15408
s1540a
s1540f
s15406
s15407
s1540e
s15409
s1540c
s123
s125
s120
s121
s124
s1233
s1255
s1200
s1211
s1244
s1235
s1232
s1230
s1231
s1234
s1252
s1250
s1251
s1254
s1201
s1204
s1214
s1253
s1202
s1241
s1203
s1205
s1213
s1215
s1212
s1210
s1243
s1245
s1242
s1240
s123d
s123b
s1238
s123a
s123f
s1236
s1237
s123e
s1239
s123c
s125d
s125b
s1258
s125a
s125f
s1256
s1257
s125e
s1259
s125c
s120d
s120b
s1208
s120a
s120f
s1206
s1207
s120e
s1209
s120c
s121d
s121b
s1218
s121a
s121f
s1216
s1217
s121e
s1219
s121c
s124d
s124b
s1248
s124a
s124f
s1246
s1247
s124e
s1249
s124c
s12355
s12322
s12300
s12311
s12344
s12333
s1233d
s1233b
s12338
s12335
s12332
s12330
s1233a
s1233f
s12331
s12336
s12334
s12337
s1233e
s12339
s1233c
s12553
s1255d
s1255b
s12558
s12555
s12552
s12550
s1255a
s1255f
s12551
s12556
s12554
s12557
s1255e
s12559
s1255c
s12003
s1200d
s1200b
s12008
s12005
s12002
s12000
s1200a
s1200f
s12001
s12006
s12004
s12007
s1200e
s12009
s1200c
s12113
s1211d
s1211b
s12118
s12115
s12112
s12110
s1211a
s1211f
s12111
s12116
s12114
s12117
s1211e
s12119
s1211c
s12443
s1244d
s1244b
s12448
s12445
s12442
s12440
s1244a
s1244f
s12441
s12446
s12444
s12447
s1244e
s12449
s1244c
s12353
s1235d
s1235b
s12358
s12352
s12350
s1235a
s1235f
s12351
s12356
s12354
s12357
s1235e
s12359
s1235c
s12323
s1232d
s1232b
s12328
s12325
s12320
s1232a
s1232f
s12321
s12326
s12324
s12327
s1232e
s12329
s1232c
s12303
s1230d
s1230b
s12308
s12305
s12302
s1230a
s1230f
s12301
s12306
s12304
s12307
s1230e
s12309
s1230c
s12313
s1231d
s1231b
s12318
s12315
s12312
s12310
s1231a
s1231f
s12316
s12314
s12317
s1231e
s12319
s1231c
s12343
s1234d
s1234b
s12348
s12345
s12342
s12340
s1234a
s1234f
s12341
s12346
s12347
s1234e
s12349
s1234c
s12533
s12522
s12500
s12511
s12544
s12535
s12532
s12530
s12531
s12534
s12033
s12055
s12022
s12011
s12044
s12035
s12032
s12030
s12031
s12034
s12052
s12050
s12051
s12054
s12020
s12021
s12024
s12053
s12133
s12155
s12122
s12100
s12144
s12135
s12132
s12130
s12131
s12134
s12152
s12150
s12151
s12154
s12120
s12121
s12124
s12101
s12104
s12153
s12102
s12123
s12125
s12103
s12105
s12433
s12455
s12422
s12400
s12411
s12435
s12432
s12430
s12431
s12434
s12452
s12450
s12451
s12454
s12420
s12421
s12424
s12401
s12404
s12414
s12453
s12402
s12423
s12425
s12403
s12405
s12523
s1252d
s1252b
s12528
s12525
s12520
s1252a
s1252f
s12521
s12526
s12524
s12527
s1252e
s12529
s1252c
s12503
s1250d
s1250b
s12508
s12505
s12502
s1250a
s1250f
s12501
s12506
s12504
s12507
s1250e
s12509
s1250c
s12513
s1251d
s1251b
s12518
s12515
s12512
s12510
s1251a
s1251f
s12516
s12514
s12517
s1251e
s12519
s1251c
s12543
s1254d
s1254b
s12548
s12545
s12542
s12540
s1254a
s1254f
s12541
s12546
s12547
s1254e
s12549
s1254c
s12013
s1201d
s1201b
s12018
s12015
s12012
s12010
s1201a
s1201f
s12016
s12014
s12017
s1201e
s12019
s1201c
s12043
s1204d
s1204b
s12048
s12045
s12042
s12040
s1204a
s1204f
s12041
s12046
s12047
s1204e
s12049
s1204c
s12143
s1214d
s1214b
s12148
s12145
s12142
s12140
s1214a
s1214f
s12141
s12146
s12147
s1214e
s12149
s1214c
s1253d
s1253b
s12538
s1253a
s1253f
s12536
s12537
s1253e
s12539
s1253c
s12023
s1202d
s1202b
s12028
s12025
s1202a
s1202f
s12026
s12027
s1202e
s12029
s1202c
s12413
s1241d
s1241b
s12418
s12415
s12412
s12410
s1241a
s1241f
s12416
s12417
s1241e
s12419
s1241c
s1203d
s1203b
s12038
s1203a
s1203f
s12036
s12037
s1203e
s12039
s1203c
s1205d
s1205b
s12058
s1205a
s1205f
s12056
s12057
s1205e
s12059
s1205c
s1213d
s1213b
s12138
s1213a
s1213f
s12136
s12137
s1213e
s12139
s1213c
s1215d
s1215b
s12158
s1215a
s1215f
s12156
s12157
s1215e
s12159
s1215c
s1212d
s1212b
s12128
s1212a
s1212f
s12126
s12127
s1212e
s12129
s1212c
s1210d
s1210b
s12108
s1210a
s1210f
s12106
s12107
s1210e
s12109
s1210c
s1243d
s1243b
s12438
s1243a
s1243f
s12436
s12437
s1243e
s12439
s1243c
s1245d
s1245b
s12458
s1245a
s1245f
s12456
s12457
s1245e
s12459
s1245c
s1242d
s1242b
s12428
s1242a
s1242f
s12426
s12427
s1242e
s12429
s1242c
s1240d
s1240b
s12408
s1240a
s1240f
s12406
s12407
s1240e
s12409
s1240c
s103
s105
s102
s101
s104
s1033
s1055
s1022
s1011
s1044
s1035
s1032
s1030
s1031
s1034
s1052
s1050
s1051
s1054
s1020
s1021
s1024
s1014
s1053
s1041
s1023
s1025
s1013
s1015
s1012
s1010
s1043
s1045
s1042
s1040
s103d
s103b
s1038
s103a
s103f
s1036
s1037
s103e
s1039
s103c
s105d
s105b
s1058
s105a
s105f
s1056
s1057
s105e
s1059
s105c
s102d
s102b
s1028
s102a
s102f
s1026
s1027
s102e
s1029
s102c
s101d
s101b
s1018
s101a
s101f
s1016
s1017
s101e
s1019
s101c
s104d
s104b
s1048
s104a
s104f
s1046
s1047
s104e
s1049
s104c
s10355
s10322
s10300
s10311
s10344
s10333
s1033d
s1033b
s10338
s10335
s10332
s10330
s1033a
s1033f
s10331
s10336
s10334
s10337
s1033e
s10339
s1033c
s10553
s1055d
s1055b
s10558
s10555
s10552
s10550
s1055a
s1055f
s10551
s10556
s10554
s10557
s1055e
s10559
s1055c
s10223
s1022d
s1022b
s10228
s10225
s10222
s10220
s1022a
s1022f
s10221
s10226
s10224
s10227
s1022e
s10229
s1022c
s10113
s1011d
s1011b
s10118
s10115
s10112
s10110
s1011a
s1011f
s10111
s10116
s10114
s10117
s1011e
s10119
s1011c
s10443
s1044d
s1044b
s10448
s10445
s10442
s10440
s1044a
s1044f
s10441
s10446
s10444
s10447
s1044e
s10449
s1044c
s10353
s1035d
s1035b
s10358
s10352
s10350
s1035a
s1035f
s10351
s10356
s10354
s10357
s1035e
s10359
s1035c
s10323
s1032d
s1032b
s10328
s10325
s10320
s1032a
s1032f
s10321
s10326
s10324
s10327
s1032e
s10329
s1032c
s10303
s1030d
s1030b
s10308
s10305
s10302
s1030a
s1030f
s10301
s10306
s10304
s10307
s1030e
s10309
s1030c
s10313
s1031d
s1031b
s10318
s10315
s10312
s10310
s1031a
s1031f
s10316
s10314
s10317
s1031e
s10319
s1031c
s10343
s1034d
s1034b
s10348
s10345
s10342
s10340
s1034a
s1034f
s10341
s10346
s10347
s1034e
s10349
s1034c
s10533
s10522
s10500
s10511
s10544
s10535
s10532
s10530
s10531
s10534
s10233
s10255
s10200
s10211
s10244
s10235
s10232
s10230
s10231
s10234
s10252
s10250
s10251
s10254
s10253
s10133
s10155
s10122
s10100
s10144
s10135
s10132
s10130
s10131
s10134
s10152
s10150
s10151
s10154
s10120
s10121
s10124
s10101
s10104
s10153
s10102
s10123
s10125
s10103
s10105
s10433
s10455
s10422
s10400
s10411
s10435
s10432
s10430
s10431
s10434
s10452
s10450
s10451
s10454
s10420
s10421
s10424
s10401
s10404
s10414
s10453
s10402
s10423
s10425
s10403
s10405
s10523
s1052d
s1052b
s10528
s10525
s10520
s1052a
s1052f
s10521
s10526
s10524
s10527
s1052e
s10529
s1052c
s10503
s1050d
s1050b
s10508
s10505
s10502
s1050a
s1050f
s10501
s10506
s10504
s10507
s1050e
s10509
s1050c
s10513
s1051d
s1051b
s10518
s10515
s10512
s10510
s1051a
s1051f
s10516
s10514
s10517
s1051e
s10519
s1051c
s10543
s1054d
s1054b
s10548
s10545
s10542
s10540
s1054a
s1054f
s10541
s10546
s10547
s1054e
s10549
s1054c
s10203
s1020d
s1020b
s10208
s10205
s10202
s1020a
s1020f
s10201
s10206
s10204
s10207
s1020e
s10209
s1020c
s10213
s1021d
s1021b
s10218
s10215
s10212
s10210
s1021a
s1021f
s10216
s10214
s10217
s1021e
s10219
s1021c
s10243
s1024d
s1024b
s10248
s10245
s10242
s10240
s1024a
s1024f
s10241
s10246
s10247
s1024e
s10249
s1024c
s10143
s1014d
s1014b
s10148
s10145
s10142
s10140
s1014a
s1014f
s10141
s10146
s10147
s1014e
s10149
s1014c
s1053d
s1053b
s10538
s1053a
s1053f
s10536
s10537
s1053e
s10539
s1053c
s10413
s1041d
s1041b
s10418
s10415
s10412
s10410
s1041a
s1041f
s10416
s10417
s1041e
s10419
s1041c
s1023d
s1023b
s10238
s1023a
s1023f
s10236
s10237
s1023e
s10239
s1023c
s1025d
s1025b
s10258
s1025a
s1025f
s10256
s10257
s1025e
s10259
s1025c
s1013d
s1013b
s10138
s1013a
s1013f
s10136
s10137
s1013e
s10139
s1013c
s1015d
s1015b
s10158
s1015a
s1015f
s10156
s10157
s1015e
s10159
s1015c
s1012d
s1012b
s10128
s1012a
s1012f
s10126
s10127
s1012e
s10129
s1012c
s1010d
s1010b
s10108
s1010a
s1010f
s10106
s10107
s1010e
s10109
s1010c
s1043d
s1043b
s10438
s1043a
s1043f
s10436
s10437
s1043e
s10439
s1043c
s1045d
s1045b
s10458
s1045a
s1045f
s10456
s10457
s1045e
s10459
s1045c
s1042d
s1042b
s10428
s1042a
s1042f
s10426
s10427
s1042e
s10429
s1042c
s1040d
s1040b
s10408
s1040a
s1040f
s10406
s10407
s1040e
s10409
s1040c
s113
s115
s112
s110
s114
s1133
s1155
s1122
s1100
s1144
s1135
s1132
s1130
s1131
s1134
s1152
s1150
s1151
s1154
s1120
s1121
s1124
s1101
s1104
s1153
s1102
s1141
s1123
s1125
s1103
s1105
s1143
s1145
s1142
s1140
s113d
s113b
s1138
s113a
s113f
s1136
s1137
s113e
s1139
s113c
s115d
s115b
s1158
s115a
s115f
s1156
s1157
s115e
s1159
s115c
s112d
s112b
s1128
s112a
s112f
s1126
s1127
s112e
s1129
s112c
s110d
s110b
s1108
s110a
s110f
s1106
s1107
s110e
s1109
s110c
s114d
s114b
s1148
s114a
s114f
s1146
s1147
s114e
s1149
s114c
s11355
s11322
s11300
s11311
s11344
s11333
s1133d
s1133b
s11338
s11335
s11332
s11330
s1133a
s1133f
s11331
s11336
s11334
s11337
s1133e
s11339
s1133c
s11553
s1155d
s1155b
s11558
s11555
s11552
s11550
s1155a
s1155f
s11551
s11556
s11554
s11557
s1155e
s11559
s1155c
s11223
s1122d
s1122b
s11228
s11225
s11222
s11220
s1122a
s1122f
s11221
s11226
s11224
s11227
s1122e
s11229
s1122c
s11003
s1100d
s1100b
s11008
s11005
s11002
s11000
s1100a
s1100f
s11001
s11006
s11004
s11007
s1100e
s11009
s1100c
s11443
s1144d
s1144b
s11448
s11445
s11442
s11440
s1144a
s1144f
s11441
s11446
s11444
s11447
s1144e
s11449
s1144c
s11353
s1135d
s1135b
s11358
s11352
s11350
s1135a
s1135f
s11351
s11356
s11354
s11357
s1135e
s11359
s1135c
s11323
s1132d
s1132b
s11328
s11325
s11320
s1132a
s1132f
s11321
s11326
s11324
s11327
s1132e
s11329
s1132c
s11303
s1130d
s1130b
s11308
s11305
s11302
s1130a
s1130f
s11301
s11306
s11304
s11307
s1130e
s11309
s1130c
s11313
s1131d
s1131b
s11318
s11315
s11312
s11310
s1131a
s1131f
s11316
s11314
s11317
s1131e
s11319
s1131c
s11343
s1134d
s1134b
s11348
s11345
s11342
s11340
s1134a
s1134f
s11341
s11346
s11347
s1134e
s11349
s1134c
s11533
s11522
s11500
s11511
s11544
s11535
s11532
s11530
s11531
s11534
s11233
s11255
s11200
s11211
s11244
s11235
s11232
s11230
s11231
s11234
s11252
s11250
s11251
s11254
s11253
s11033
s11055
s11022
s11011
s11044
s11035
s11032
s11030
s11031
s11034
s11052
s11050
s11051
s11054
s11020
s11021
s11024
s11053
s11433
s11455
s11422
s11400
s11411
s11435
s11432
s11430
s11431
s11434
s11452
s11450
s11451
s11454
s11420
s11421
s11424
s11401
s11404
s11414
s11453
s11402
s11423
s11425
s11403
s11405
s11523
s1152d
s1152b
s11528
s11525
s11520
s1152a
s1152f
s11521
s11526
s11524
s11527
s1152e
s11529
s1152c
s11503
s1150d
s1150b
s11508
s11505
s11502
s1150a
s1150f
s11501
s11506
s11504
s11507
s1150e
s11509
s1150c
s11513
s1151d
s1151b
s11518
s11515
s11512
s11510
s1151a
s1151f
s11516
s11514
s11517
s1151e
s11519
s1151c
s11543
s1154d
s1154b
s11548
s11545
s11542
s11540
s1154a
s1154f
s11541
s11546
s11547
s1154e
s11549
s1154c
s11203
s1120d
s1120b
s11208
s11205
s11202
s1120a
s1120f
s11201
s11206
s11204
s11207
s1120e
s11209
s1120c
s11213
s1121d
s1121b
s11218
s11215
s11212
s11210
s1121a
s1121f
s11216
s11214
s11217
s1121e
s11219
s1121c
s11243
s1124d
s1124b
s11248
s11245
s11242
s11240
s1124a
s1124f
s11241
s11246
s11247
s1124e
s11249
s1124c
s11013
s1101d
s1101b
s11018
s11015
s11012
s11010
s1101a
s1101f
s11016
s11014
s11017
s1101e
s11019
s1101c
s11043
s1104d
s1104b
s11048
s11045
s11042
s11040
s1104a
s1104f
s11041
s11046
s11047
s1104e
s11049
s1104c
s1153d
s1153b
s11538
s1153a
s1153f
s11536
s11537
s1153e
s11539
s1153c
s11023
s1102d
s1102b
s11028
s11025
s1102a
s1102f
s11026
s11027
s1102e
s11029
s1102c
s11413
s1141d
s1141b
s11418
s11415
s11412
s11410
s1141a
s1141f
s11416
s11417
s1141e
s11419
s1141c
s1123d
s1123b
s11238
s1123a
s1123f
s11236
s11237
s1123e
s11239
s1123c
[...]
